{"version":"1.0","truncation":null,"padding":null,"added_tokens":[{"id":0,"special":true,"content":"[PAD]","single_word":false,"lstrip":false,"rstrip":false,"normalized":false},{"id":1,"special":true,"content":"[UNK]","single_word":false,"lstrip":false,"rstrip":false,"normalized":false},{"id":2,"special":true,"content":"[CLS]","single_word":false,"lstrip":false,"rstrip":false,"normalized":false},{"id":3,"special":true,"content":"[SEP]","single_word":false,"lstrip":false,"rstrip":false,"normalized":false},{"id":4,"special":true,"content":"[MASK]","single_word":false,"lstrip":false,"rstrip":false,"normalized":false},{"id":5,"special":true,"content":"[CSEP]","single_word":false,"lstrip":false,"rstrip":false,"normalized":false},{"id":6,"special":true,"content":"[MSEP]","single_word":false,"lstrip":false,"rstrip":false,"normalized":false}],"normalizer":{"type":"BertNormalizer","clean_text":true,"handle_chinese_chars":true,"strip_accents":false,"lowercase":true},"pre_tokenizer":{"type":"BertPreTokenizer"},"post_processor":{"type":"TemplateProcessing","single":[{"SpecialToken":{"id":"[CLS]","type_id":0}},{"Sequence":{"id":"A","type_id":0}},{"SpecialToken":{"id":"[SEP]","type_id":0}}],"pair":[{"SpecialToken":{"id":"[CLS]","type_id":0}},{"Sequence":{"id":"A","type_id":0}},{"SpecialToken":{"id":"[SEP]","type_id":0}},{"Sequence":{"id":"B","type_id":1}},{"SpecialToken":{"id":"[SEP]","type_id":1}}],"special_tokens":{"[CLS]":{"id":"[CLS]","ids":[2],"tokens":["[CLS]"]},"[SEP]":{"id":"[SEP]","ids":[3],"tokens":["[SEP]"]}}},"decoder":{"type":"WordPiece","prefix":"##","cleanup":true},"model":{"type":"WordPiece","unk_token":"[UNK]","continuing_subword_prefix":"##","max_input_chars_per_word":100,"vocab":{"[PAD]":0,"[UNK]":1,"[CLS]":2,"[SEP]":3,"[MASK]":4,"[CSEP]":5,"[MSEP]":6,"!":7,"\"":8,"#":9,"$":10,"%":11,"&":12,"'":13,"(":14,")":15,"*":16,"+":17,",":18,"-":19,".":20,"/":21,"0":22,"1":23,"2":24,"3":25,"4":26,"5":27,"6":28,"7":29,"8":30,"9":31,":":32,";":33,"<":34,"=":35,">":36,"?":37,"@":38,"A":39,"B":40,"C":41,"D":42,"E":43,"F":44,"G":45,"H":46,"I":47,"J":48,"K":49,"L":50,"M":51,"N":52,"O":53,"P":54,"Q":55,"R":56,"S":57,"T":58,"U":59,"V":60,"W":61,"X":62,"Y":63,"Z":64,"[":65,"\\":66,"]":67,"^":68,"_":69,"`":70,"a":71,"b":72,"c":73,"d":74,"e":75,"f":76,"g":77,"h":78,"i":79,"j":80,"k":81,"l":82,"m":83,"n":84,"o":85,"p":86,"q":87,"r":88,"s":89,"t":90,"u":91,"v":92,"w":93,"x":94,"y":95,"z":96,"{":97,"|":98,"}":99,"~":100,"¡":101,"£":102,"¥":103,"§":104,"©":105,"®":106,"¯":107,"°":108,"±":109,"²":110,"³":111,"´":112,"·":113,"¸":114,"¹":115,"½":116,"¿":117,"×":118,"é":119,"ö":120,"÷":121,"ü":122,"ƪ":123,"ʔ":124,"ʕ":125,"ʖ":126,"ʚ":127,"ʰ":128,"ʷ":129,"ʸ":130,"ˀ":131,"˂":132,"˃":133,"˘":134,"˙":135,"˚":136,"˝":137,"˵":138,"̀":139,"́":140,"̂":141,"̃":142,"̄":143,"̅":144,"̆":145,"̇":146,"̈":147,"̉":148,"̊":149,"̋":150,"̌":151,"̍":152,"̎":153,"̏":154,"̐":155,"̑":156,"̒":157,"̓":158,"̔":159,"̕":160,"̖":161,"̗":162,"̘":163,"̙":164,"̚":165,"̛":166,"̜":167,"̝":168,"̞":169,"̟":170,"̠":171,"̡":172,"̢":173,"̣":174,"̤":175,"̥":176,"̦":177,"̧":178,"̨":179,"̩":180,"̪":181,"̫":182,"̬":183,"̭":184,"̮":185,"̯":186,"̰":187,"̱":188,"̲":189,"̳":190,"̴":191,"̵":192,"̶":193,"̷":194,"̸":195,"̹":196,"̺":197,"̻":198,"̼":199,"̽":200,"̾":201,"̿":202,"̀":203,"́":204,"͂":205,"̓":206,"̈́":207,"ͅ":208,"͆":209,"͇":210,"͈":211,"͉":212,"͊":213,"͋":214,"͌":215,"͍":216,"͎":217,"͐":218,"͑":219,"͒":220,"͓":221,"͔":222,"͕":223,"͖":224,"͗":225,"͘":226,"͙":227,"͚":228,"͛":229,"͜":230,"͝":231,"͞":232,"͟":233,"͠":234,"͡":235,"Δ":236,"α":237,"β":238,"ε":239,"ι":240,"μ":241,"π":242,"ω":243,"А":244,"Д":245,"Н":246,"а":247,"в":248,"г":249,"д":250,"е":251,"з":252,"и":253,"й":254,"к":255,"л":256,"м":257,"н":258,"о":259,"п":260,"р":261,"с":262,"т":263,"у":264,"ч":265,"ы":266,"ь":267,"я":268,"و":269,"٩":270,"ࠅ":271,"ࡇ":272,"ਕ":273,"ਤ":274,"ਦ":275,"ਨ":276,"ਯ":277,"ਰ":278,"ਲ":279,"ਸ":280,"ਾ":281,"ਿ":282,"ੁ":283,"ੇ":284,"ੋ":285,"ੱ":286,"ഃ":287,"ට":288,"ෆ":289,"ง":290,"ิ":291,"็":292,"้":293,"๑":294,"ຶ":295,"༎":296,"༼":297,"༽":298,"တ":299,"ာ":300,"ေ":301,"့":302,"း":303,"်":304,"ღ":305,"ᄀ":306,"ᄁ":307,"ᄂ":308,"ᄃ":309,"ᄅ":310,"ᄆ":311,"ᄇ":312,"ᄉ":313,"ᄋ":314,"ᄌ":315,"ᄎ":316,"ᄐ":317,"ᄑ":318,"ᄒ":319,"ᅡ":320,"ᅢ":321,"ᅣ":322,"ᅥ":323,"ᅦ":324,"ᅧ":325,"ᅩ":326,"ᅪ":327,"ᅬ":328,"ᅭ":329,"ᅮ":330,"ᅯ":331,"ᅳ":332,"ᅴ":333,"ᅵ":334,"ᆞ":335,"ᆢ":336,"ᆨ":337,"ᆫ":338,"ᆯ":339,"ᆷ":340,"ᆸ":341,"ᆺ":342,"ᆻ":343,"ᆼ":344,"ᐛ":345,"ᕕ":346,"ᕗ":347,"ᕙ":348,"ᗜ":349,"៖":350,"ᩚ":351,"ᴗ":352,"ᵒ":353,"ᵔ":354,"ᵕ":355,"᷄":356,"᷅":357,"–":358,"—":359,"―":360,"‘":361,"’":362,"“":363,"”":364,"•":365,"․":366,"‥":367,"…":368,"‧":369,"′":370,"″":371,"‸":372,"‹":373,"›":374,"※":375,"‼":376,"‿":377,"⁉":378,"⁺":379,"⁼":380,"⁾":381,"₂":382,"₃":383,"₩":384,"⃝":385,"⃣":386,"⃫":387,"℃":388,"ℓ":389,"™":390,"⅓":391,"⅔":392,"Ⅰ":393,"Ⅱ":394,"Ⅲ":395,"Ⅳ":396,"Ⅴ":397,"Ⅵ":398,"Ⅶ":399,"←":400,"↑":401,"→":402,"↓":403,"↔":404,"↗":405,"↘":406,"⇒":407,"∀":408,"∇":409,"∙":410,"√":411,"∥":412,"∧":413,"∨":414,"∼":415,"≖":416,"≠":417,"⊙":418,"⊼":419,"⋅":420,"⌑":421,"⌓":422,"⌔":423,"⍤":424,"①":425,"②":426,"③":427,"④":428,"⑤":429,"⑥":430,"⑦":431,"⑧":432,"⑨":433,"⑩":434,"⑪":435,"⑫":436,"ⓐ":437,"ⓑ":438,"ⓒ":439,"ⓓ":440,"ⓝ":441,"─":442,"━":443,"│":444,"┃":445,"┈":446,"┊":447,"┌":448,"┓":449,"└":450,"├":451,"═":452,"╬":453,"╯":454,"╹":455,"█":456,"▒":457,"■":458,"□":459,"▣":460,"▨":461,"▪":462,"▮":463,"▲":464,"△":465,"▶":466,"▷":467,"►":468,"▼":469,"▽":470,"▾":471,"◀":472,"◆":473,"◇":474,"◈":475,"◉":476,"○":477,"◍":478,"◎":479,"●":480,"◐":481,"◑":482,"◔":483,"◞":484,"◟":485,"◠":486,"◡":487,"◦":488,"◯":489,"◾":490,"☀":491,"☃":492,"★":493,"☆":494,"☎":495,"☏":496,"☑":497,"☔":498,"☕":499,"☘":500,"☜":501,"☝":502,"☞":503,"☹":504,"☺":505,"♀":506,"♂":507,"♡":508,"♣":509,"♤":510,"♥":511,"♧":512,"♪":513,"♬":514,"♭":515,"⚓":516,"⚠":517,"⚡":518,"⚾":519,"⛴":520,"✅":521,"✈":522,"✊":523,"✋":524,"✌":525,"✔":526,"✧":527,"✨":528,"❁":529,"❄":530,"❌":531,"❓":532,"❗":533,"❛":534,"❣":535,"❤":536,"➡":537,"➤":538,"➰":539,"➿":540,"⠀":541,"⠄":542,"⢀":543,"⣀":544,"⣿":545,"⫬":546,"⬇":547,"⬜":548,"⭐":549,"⭕":550,"⸌":551,"⸍":552,"⸝":553,"、":554,"。":555,"〃":556,"〈":557,"〉":558,"《":559,"》":560,"「":561,"」":562,"『":563,"』":564,"【":565,"】":566,"〜":567,"〰":568,"あ":569,"い":570,"う":571,"え":572,"お":573,"か":574,"が":575,"き":576,"く":577,"け":578,"こ":579,"さ":580,"し":581,"じ":582,"す":583,"せ":584,"そ":585,"た":586,"だ":587,"ち":588,"っ":589,"つ":590,"て":591,"で":592,"と":593,"ど":594,"な":595,"に":596,"ね":597,"の":598,"は":599,"ば":600,"ま":601,"み":602,"め":603,"も":604,"や":605,"よ":606,"ら":607,"り":608,"る":609,"れ":610,"ろ":611,"わ":612,"を":613,"ん":614,"゜":615,"ゞ":616,"イ":617,"ス":618,"ト":619,"ノ":620,"ュ":621,"ユ":622,"ル":623,"ロ":624,"ヮ":625,"ヲ":626,"ン":627,"・":628,"ー":629,"ヽ":630,"ㄱ":631,"ㄲ":632,"ㄳ":633,"ㄴ":634,"ㄶ":635,"ㄷ":636,"ㄸ":637,"ㄹ":638,"ㄺ":639,"ㄻ":640,"ㅀ":641,"ㅁ":642,"ㅂ":643,"ㅃ":644,"ㅄ":645,"ㅅ":646,"ㅆ":647,"ㅇ":648,"ㅈ":649,"ㅉ":650,"ㅊ":651,"ㅋ":652,"ㅌ":653,"ㅍ":654,"ㅎ":655,"ㅏ":656,"ㅐ":657,"ㅑ":658,"ㅒ":659,"ㅓ":660,"ㅔ":661,"ㅕ":662,"ㅖ":663,"ㅗ":664,"ㅘ":665,"ㅙ":666,"ㅚ":667,"ㅛ":668,"ㅜ":669,"ㅝ":670,"ㅞ":671,"ㅟ":672,"ㅠ":673,"ㅡ":674,"ㅢ":675,"ㅣ":676,"ㅤ":677,"ㆍ":678,"㈔":679,"㈜":680,"㉠":681,"㉡":682,"㉪":683,"㉯":684,"㉻":685,"㎃":686,"㎉":687,"㎍":688,"㎎":689,"㎏":690,"㎐":691,"㎒":692,"㎓":693,"㎖":694,"㎗":695,"㎘":696,"㎚":697,"㎛":698,"㎜":699,"㎝":700,"㎞":701,"㎠":702,"㎡":703,"㎢":704,"㎥":705,"㎦":706,"㎧":707,"㎸":708,"㎽":709,"㎾":710,"㎿":711,"㏄":712,"㏈":713,"㏊":714,"㏜":715,"一":716,"丁":717,"七":718,"丈":719,"三":720,"上":721,"下":722,"不":723,"丑":724,"世":725,"丘":726,"丙":727,"中":728,"丸":729,"丹":730,"为":731,"主":732,"乃":733,"久":734,"么":735,"之":736,"乎":737,"乘":738,"乙":739,"九":740,"也":741,"乳":742,"乾":743,"亂":744,"了":745,"事":746,"二":747,"于":748,"五":749,"井":750,"亞":751,"亡":752,"交":753,"亥":754,"亦":755,"京":756,"亭":757,"人":758,"什":759,"仁":760,"今":761,"介":762,"他":763,"付":764,"仙":765,"代":766,"令":767,"以":768,"们":769,"仲":770,"件":771,"任":772,"企":773,"伊":774,"伏":775,"伐":776,"休":777,"会":778,"伯":779,"似":780,"伽":781,"位":782,"低":783,"住":784,"佐":785,"何":786,"余":787,"佛":788,"作":789,"你":790,"佳":791,"使":792,"來":793,"例":794,"侍":795,"供":796,"依":797,"侯":798,"便":799,"係":800,"俊":801,"俗":802,"保":803,"信":804,"修":805,"倂":806,"倉":807,"個":808,"倍":809,"倒":810,"借":811,"倫":812,"倭":813,"假":814,"偉":815,"偏":816,"停":817,"健":818,"偶":819,"傍":820,"備":821,"傳":822,"債":823,"傷":824,"傾":825,"像":826,"僕":827,"僞":828,"僧":829,"價":830,"儀":831,"儒":832,"償":833,"優":834,"元":835,"兄":836,"兆":837,"先":838,"光":839,"克":840,"免":841,"兎":842,"兒":843,"入":844,"內":845,"全":846,"兩":847,"兪":848,"八":849,"公":850,"六":851,"共":852,"兵":853,"其":854,"具":855,"典":856,"兼":857,"円":858,"冊":859,"再":860,"冠":861,"冬":862,"冷":863,"凍":864,"凡":865,"凰":866,"凱":867,"出":868,"刀":869,"刁":870,"分":871,"切":872,"刊":873,"刑":874,"列":875,"初":876,"判":877,"別":878,"利":879,"到":880,"制":881,"券":882,"刹":883,"刺":884,"刻":885,"則":886,"前":887,"剛":888,"副":889,"割":890,"創":891,"劃":892,"劇":893,"劉":894,"劍":895,"劑":896,"力":897,"功":898,"加":899,"助":900,"勇":901,"動":902,"務":903,"勝":904,"勞":905,"募":906,"勢":907,"勤":908,"勳":909,"勸":910,"勿":911,"包":912,"化":913,"北":914,"匠":915,"匹":916,"區":917,"十":918,"千":919,"午":920,"半":921,"卒":922,"協":923,"南":924,"博":925,"卜":926,"占":927,"卦":928,"卯":929,"印":930,"危":931,"却":932,"卵":933,"卷":934,"卽":935,"厚":936,"原":937,"去":938,"參":939,"又":940,"及":941,"友":942,"反":943,"取":944,"受":945,"口":946,"古":947,"句":948,"只":949,"召":950,"可":951,"台":952,"史":953,"右":954,"司":955,"各":956,"合":957,"吉":958,"同":959,"名":960,"后":961,"向":962,"吗":963,"君":964,"否":965,"含":966,"吳":967,"吾":968,"告":969,"周":970,"呪":971,"味":972,"呼":973,"命":974,"和":975,"哀":976,"品":977,"哈":978,"員":979,"哭":980,"哲":981,"唐":982,"唯":983,"唱":984,"商":985,"問":986,"啓":987,"善":988,"喜":989,"喪":990,"單":991,"嘉":992,"器":993,"嚴":994,"四":995,"回":996,"因":997,"固":998,"国":999,"圈":1000,"國":1001,"園":1002,"圓":1003,"圖":1004,"團":1005,"土":1006,"在":1007,"圭":1008,"地":1009,"址":1010,"坂":1011,"均":1012,"坊":1013,"坐":1014,"坡":1015,"坤":1016,"坪":1017,"型":1018,"城":1019,"域":1020,"執":1021,"基":1022,"堂":1023,"堤":1024,"報":1025,"場":1026,"塔":1027,"塗":1028,"塚":1029,"塵":1030,"境":1031,"墓":1032,"增":1033,"墨":1034,"墳":1035,"壁":1036,"壇":1037,"壓":1038,"士":1039,"壬":1040,"壯":1041,"壺":1042,"壽":1043,"夏":1044,"夕":1045,"外":1046,"多":1047,"夜":1048,"夢":1049,"大":1050,"天":1051,"太":1052,"夫":1053,"央":1054,"失":1055,"夷":1056,"奇":1057,"奈":1058,"奉":1059,"契":1060,"奧":1061,"奪":1062,"女":1063,"奴":1064,"好":1065,"如":1066,"妃":1067,"妄":1068,"妓":1069,"妙":1070,"妻":1071,"始":1072,"姓":1073,"委":1074,"姜":1075,"威":1076,"婚":1077,"婦":1078,"媛":1079,"嫌":1080,"嫡":1081,"子":1082,"孔":1083,"字":1084,"存":1085,"孝":1086,"孟":1087,"季":1088,"孤":1089,"学":1090,"孫":1091,"學":1092,"宇":1093,"守":1094,"安":1095,"宋":1096,"完":1097,"宏":1098,"宗":1099,"官":1100,"宙":1101,"定":1102,"宜":1103,"客":1104,"宣":1105,"室":1106,"宮":1107,"害":1108,"宴":1109,"家":1110,"容":1111,"宿":1112,"寂":1113,"寄":1114,"寅":1115,"密":1116,"富":1117,"寒":1118,"察":1119,"寡":1120,"實":1121,"寧":1122,"審":1123,"寫":1124,"寬":1125,"寶":1126,"寸":1127,"寺":1128,"封":1129,"射":1130,"將":1131,"專":1132,"尊":1133,"對":1134,"導":1135,"小":1136,"少":1137,"尖":1138,"尙":1139,"就":1140,"尹":1141,"尺":1142,"尼":1143,"尾":1144,"局":1145,"居":1146,"屈":1147,"屋":1148,"屍":1149,"展":1150,"層":1151,"屬":1152,"山":1153,"岐":1154,"岡":1155,"岩":1156,"岳":1157,"岸":1158,"峯":1159,"峰":1160,"島":1161,"崇":1162,"崎":1163,"崔":1164,"崛":1165,"嶺":1166,"巖":1167,"川":1168,"州":1169,"巡":1170,"巢":1171,"工":1172,"左":1173,"巨":1174,"巫":1175,"差":1176,"己":1177,"已":1178,"巳":1179,"巴":1180,"市":1181,"布":1182,"希":1183,"帖":1184,"帝":1185,"師":1186,"席":1187,"帶":1188,"常":1189,"幅":1190,"幕":1191,"干":1192,"平":1193,"年":1194,"幸":1195,"幹":1196,"幻":1197,"幽":1198,"床":1199,"序":1200,"底":1201,"店":1202,"庚":1203,"府":1204,"度":1205,"座":1206,"庫":1207,"庭":1208,"庵":1209,"康":1210,"庸":1211,"廟":1212,"廢":1213,"廣":1214,"廳":1215,"延":1216,"廷":1217,"建":1218,"开":1219,"弊":1220,"式":1221,"弓":1222,"弔":1223,"引":1224,"弗":1225,"弘":1226,"弟":1227,"张":1228,"弱":1229,"張":1230,"强":1231,"彈":1232,"彌":1233,"形":1234,"彦":1235,"彩":1236,"彭":1237,"影":1238,"役":1239,"彼":1240,"往":1241,"征":1242,"待":1243,"律":1244,"後":1245,"徐":1246,"徒":1247,"得":1248,"從":1249,"御":1250,"復":1251,"微":1252,"徵":1253,"德":1254,"徹":1255,"徽":1256,"心":1257,"必":1258,"忌":1259,"忍":1260,"志":1261,"忘":1262,"忠":1263,"快":1264,"念":1265,"怒":1266,"思":1267,"急":1268,"性":1269,"怨":1270,"怪":1271,"恐":1272,"恒":1273,"恥":1274,"恨":1275,"恩":1276,"恭":1277,"息":1278,"悅":1279,"悟":1280,"患":1281,"悲":1282,"情":1283,"惑":1284,"惟":1285,"惠":1286,"惡":1287,"想":1288,"愁":1289,"意":1290,"愚":1291,"愛":1292,"感":1293,"愼":1294,"慈":1295,"態":1296,"慕":1297,"慘":1298,"慧":1299,"慶":1300,"慾":1301,"憂":1302,"憤":1303,"憲":1304,"應":1305,"懲":1306,"懷":1307,"懸":1308,"戊":1309,"戌":1310,"成":1311,"我":1312,"戒":1313,"戰":1314,"戴":1315,"戶":1316,"房":1317,"所":1318,"手":1319,"才":1320,"打":1321,"扶":1322,"承":1323,"技":1324,"投":1325,"抗":1326,"折":1327,"拙":1328,"招":1329,"拜":1330,"持":1331,"指":1332,"振":1333,"授":1334,"掌":1335,"排":1336,"採":1337,"接":1338,"推":1339,"提":1340,"揚":1341,"換":1342,"援":1343,"損":1344,"摩":1345,"擇":1346,"擊":1347,"擧":1348,"攝":1349,"支":1350,"收":1351,"改":1352,"攻":1353,"放":1354,"政":1355,"故":1356,"效":1357,"敍":1358,"敎":1359,"敏":1360,"救":1361,"敗":1362,"散":1363,"敬":1364,"整":1365,"敵":1366,"數":1367,"文":1368,"斗":1369,"料":1370,"斜":1371,"斬":1372,"斯":1373,"新":1374,"斷":1375,"方":1376,"於":1377,"施":1378,"旅":1379,"族":1380,"旗":1381,"旣":1382,"日":1383,"旨":1384,"早":1385,"昆":1386,"昇":1387,"昌":1388,"明":1389,"易":1390,"星":1391,"映":1392,"春":1393,"昭":1394,"是":1395,"時":1396,"晉":1397,"晋":1398,"晝":1399,"晦":1400,"晩":1401,"普":1402,"景":1403,"晶":1404,"智":1405,"暇":1406,"暑":1407,"暗":1408,"暮":1409,"暴":1410,"曆":1411,"曉":1412,"曰":1413,"曲":1414,"更":1415,"書":1416,"曹":1417,"曾":1418,"最":1419,"會":1420,"月":1421,"有":1422,"朋":1423,"服":1424,"朗":1425,"望":1426,"朝":1427,"期":1428,"木":1429,"未":1430,"末":1431,"本":1432,"朱":1433,"朴":1434,"杉":1435,"李":1436,"材":1437,"村":1438,"杖":1439,"杜":1440,"杞":1441,"来":1442,"杭":1443,"杯":1444,"杰":1445,"東":1446,"松":1447,"板":1448,"林":1449,"果":1450,"枝":1451,"枯":1452,"架":1453,"染":1454,"柔":1455,"柯":1456,"柱":1457,"柳":1458,"査":1459,"校":1460,"株":1461,"核":1462,"根":1463,"格":1464,"桂":1465,"桃":1466,"案":1467,"桐":1468,"桑":1469,"梁":1470,"梅":1471,"條":1472,"梨":1473,"棄":1474,"棋":1475,"棟":1476,"森":1477,"棺":1478,"植":1479,"楊":1480,"楚":1481,"業":1482,"極":1483,"榮":1484,"構":1485,"樂":1486,"樓":1487,"標":1488,"模":1489,"樣":1490,"樹":1491,"橋":1492,"機":1493,"橫":1494,"檀":1495,"檢":1496,"權":1497,"次":1498,"欲":1499,"欺":1500,"歌":1501,"歐":1502,"止":1503,"正":1504,"此":1505,"步":1506,"武":1507,"歲":1508,"歷":1509,"歸":1510,"死":1511,"殉":1512,"殘":1513,"段":1514,"殺":1515,"殿":1516,"毅":1517,"母":1518,"每":1519,"毒":1520,"比":1521,"毛":1522,"氏":1523,"民":1524,"氣":1525,"水":1526,"氷":1527,"永":1528,"求":1529,"汎":1530,"汗":1531,"汚":1532,"江":1533,"池":1534,"汪":1535,"決":1536,"沈":1537,"沒":1538,"沖":1539,"沙":1540,"河":1541,"油":1542,"治":1543,"沼":1544,"況":1545,"泉":1546,"法":1547,"波":1548,"泥":1549,"注":1550,"泰":1551,"泳":1552,"洋":1553,"洑":1554,"洗":1555,"洙":1556,"洛":1557,"洞":1558,"津":1559,"洪":1560,"洲":1561,"活":1562,"派":1563,"流":1564,"浙":1565,"浜":1566,"浦":1567,"浩":1568,"浪":1569,"浮":1570,"海":1571,"消":1572,"淑":1573,"淘":1574,"淡":1575,"淨":1576,"深":1577,"淳":1578,"淵":1579,"混":1580,"淸":1581,"添":1582,"減":1583,"渡":1584,"港":1585,"游":1586,"湖":1587,"湘":1588,"湯":1589,"源":1590,"準":1591,"溝":1592,"溪":1593,"溫":1594,"滅":1595,"滋":1596,"滴":1597,"滿":1598,"漁":1599,"漆":1600,"演":1601,"漢":1602,"漸":1603,"潔":1604,"潘":1605,"潛":1606,"潤":1607,"潭":1608,"潮":1609,"澤":1610,"濕":1611,"濟":1612,"濤":1613,"濱":1614,"瀋":1615,"灘":1616,"灣":1617,"火":1618,"災":1619,"炎":1620,"炭":1621,"炳":1622,"点":1623,"烈":1624,"烏":1625,"烹":1626,"無":1627,"然":1628,"煙":1629,"煥":1630,"照":1631,"熊":1632,"熙":1633,"熟":1634,"熱":1635,"燃":1636,"燈":1637,"燒":1638,"燕":1639,"營":1640,"爆":1641,"爐":1642,"爭":1643,"爲":1644,"父":1645,"爾":1646,"片":1647,"版":1648,"牌":1649,"牙":1650,"牛":1651,"牧":1652,"物":1653,"特":1654,"犬":1655,"犯":1656,"狀":1657,"狂":1658,"狗":1659,"猛":1660,"猫":1661,"猶":1662,"獄":1663,"獨":1664,"獸":1665,"獻":1666,"玄":1667,"玉":1668,"王":1669,"珍":1670,"珠":1671,"班":1672,"現":1673,"球":1674,"理":1675,"琴":1676,"瑞":1677,"環":1678,"瓦":1679,"甘":1680,"生":1681,"産":1682,"用":1683,"田":1684,"由":1685,"甲":1686,"申":1687,"男":1688,"町":1689,"界":1690,"留":1691,"略":1692,"番":1693,"異":1694,"畵":1695,"當":1696,"畿":1697,"疆":1698,"疏":1699,"疑":1700,"疫":1701,"疾":1702,"病":1703,"症":1704,"痛":1705,"痰":1706,"癌":1707,"癸":1708,"登":1709,"發":1710,"白":1711,"百":1712,"的":1713,"皆":1714,"皇":1715,"皮":1716,"益":1717,"盛":1718,"盜":1719,"盟":1720,"盡":1721,"監":1722,"盤":1723,"盧":1724,"目":1725,"盲":1726,"直":1727,"相":1728,"省":1729,"眉":1730,"看":1731,"眞":1732,"眠":1733,"眼":1734,"着":1735,"知":1736,"短":1737,"石":1738,"砂":1739,"砲":1740,"破":1741,"硏":1742,"碎":1743,"碑":1744,"碧":1745,"確":1746,"磁":1747,"磊":1748,"磨":1749,"礁":1750,"示":1751,"社":1752,"祀":1753,"祈":1754,"祖":1755,"祝":1756,"神":1757,"祠":1758,"祥":1759,"票":1760,"祭":1761,"禁":1762,"禍":1763,"福":1764,"禪":1765,"禮":1766,"禹":1767,"秀":1768,"私":1769,"秉":1770,"秋":1771,"科":1772,"秘":1773,"秦":1774,"移":1775,"稀":1776,"稅":1777,"程":1778,"種":1779,"稱":1780,"稻":1781,"穀":1782,"積":1783,"穴":1784,"空":1785,"窓":1786,"窮":1787,"窯":1788,"立":1789,"竝":1790,"章":1791,"童":1792,"端":1793,"競":1794,"竹":1795,"笑":1796,"符":1797,"第":1798,"筆":1799,"等":1800,"筋":1801,"答":1802,"策":1803,"算":1804,"管":1805,"節":1806,"範":1807,"篇":1808,"築":1809,"簡":1810,"籍":1811,"米":1812,"粉":1813,"精":1814,"糖":1815,"系":1816,"紀":1817,"約":1818,"紅":1819,"紋":1820,"納":1821,"純":1822,"紙":1823,"級":1824,"紛":1825,"素":1826,"紫":1827,"細":1828,"紹":1829,"終":1830,"絃":1831,"組":1832,"結":1833,"給":1834,"統":1835,"絲":1836,"絶":1837,"經":1838,"綠":1839,"維":1840,"綱":1841,"網":1842,"線":1843,"緣":1844,"編":1845,"縣":1846,"總":1847,"織":1848,"繩":1849,"繼":1850,"續":1851,"罪":1852,"置":1853,"罰":1854,"署":1855,"羅":1856,"羊":1857,"美":1858,"群":1859,"義":1860,"羽":1861,"翁":1862,"習":1863,"翼":1864,"耀":1865,"老":1866,"考":1867,"者":1868,"而":1869,"耐":1870,"耕":1871,"耳":1872,"聖":1873,"聞":1874,"聯":1875,"聲":1876,"職":1877,"聽":1878,"肅":1879,"肉":1880,"肝":1881,"肥":1882,"育":1883,"胃":1884,"背":1885,"胎":1886,"胡":1887,"能":1888,"脈":1889,"脚":1890,"脫":1891,"脾":1892,"腎":1893,"腐":1894,"腦":1895,"腸":1896,"腹":1897,"膽":1898,"臟":1899,"臣":1900,"臥":1901,"臨":1902,"自":1903,"至":1904,"致":1905,"臺":1906,"與":1907,"興":1908,"舊":1909,"舌":1910,"舍":1911,"舞":1912,"舟":1913,"航":1914,"船":1915,"艦":1916,"良":1917,"色":1918,"芝":1919,"花":1920,"芳":1921,"苑":1922,"若":1923,"苦":1924,"英":1925,"茂":1926,"范":1927,"茶":1928,"草":1929,"荒":1930,"荷":1931,"莊":1932,"莫":1933,"菅":1934,"菊":1935,"菌":1936,"菜":1937,"菩":1938,"華":1939,"萬":1940,"落":1941,"葉":1942,"著":1943,"葛":1944,"葬":1945,"蒙":1946,"蒼":1947,"蓋":1948,"蓮":1949,"蔘":1950,"蔡":1951,"蔣":1952,"薄":1953,"薦":1954,"薩":1955,"藍":1956,"藏":1957,"藝":1958,"藤":1959,"藥":1960,"蘇":1961,"蘭":1962,"虎":1963,"處":1964,"虛":1965,"號":1966,"虹":1967,"蛇":1968,"蜜":1969,"融":1970,"蟲":1971,"血":1972,"衆":1973,"行":1974,"術":1975,"街":1976,"衛":1977,"衡":1978,"衣":1979,"表":1980,"被":1981,"裁":1982,"裏":1983,"裕":1984,"補":1985,"裝":1986,"製":1987,"複":1988,"西":1989,"要":1990,"覆":1991,"覇":1992,"見":1993,"規":1994,"視":1995,"親":1996,"覺":1997,"覽":1998,"觀":1999,"角":2000,"解":2001,"觸":2002,"言":2003,"計":2004,"訓":2005,"記":2006,"訟":2007,"訪":2008,"設":2009,"許":2010,"訴":2011,"註":2012,"評":2013,"詞":2014,"詠":2015,"試":2016,"詩":2017,"話":2018,"誌":2019,"認":2020,"語":2021,"誠":2022,"誤":2023,"說":2024,"課":2025,"調":2026,"談":2027,"請":2028,"論":2029,"諡":2030,"諫":2031,"諸":2032,"謀":2033,"謙":2034,"講":2035,"謝":2036,"謹":2037,"證":2038,"識":2039,"譜":2040,"警":2041,"譯":2042,"議":2043,"護":2044,"讀":2045,"變":2046,"说":2047,"谷":2048,"豆":2049,"豊":2050,"象":2051,"豪":2052,"豫":2053,"貞":2054,"負":2055,"財":2056,"貧":2057,"貨":2058,"販":2059,"貪":2060,"貫":2061,"責":2062,"貰":2063,"貴":2064,"買":2065,"貸":2066,"費":2067,"賀":2068,"資":2069,"賊":2070,"賓":2071,"賜":2072,"賞":2073,"賢":2074,"賣":2075,"質":2076,"購":2077,"贊":2078,"赤":2079,"赦":2080,"走":2081,"起":2082,"超":2083,"越":2084,"趙":2085,"足":2086,"跡":2087,"路":2088,"踏":2089,"躍":2090,"身":2091,"車":2092,"軌":2093,"軍":2094,"軒":2095,"軸":2096,"載":2097,"輕":2098,"輝":2099,"輪":2100,"輸":2101,"輿":2102,"轉":2103,"辛":2104,"辭":2105,"辯":2106,"辰":2107,"農":2108,"迎":2109,"近":2110,"这":2111,"述":2112,"迷":2113,"追":2114,"退":2115,"送":2116,"逆":2117,"途":2118,"通":2119,"速":2120,"造":2121,"連":2122,"週":2123,"進":2124,"逸":2125,"遇":2126,"遊":2127,"運":2128,"過":2129,"道":2130,"達":2131,"違":2132,"遙":2133,"遠":2134,"適":2135,"遮":2136,"遲":2137,"遷":2138,"選":2139,"遺":2140,"遼":2141,"避":2142,"還":2143,"邊":2144,"邑":2145,"那":2146,"邦":2147,"邪":2148,"邱":2149,"郞":2150,"郡":2151,"部":2152,"郭":2153,"都":2154,"鄕":2155,"鄧":2156,"鄭":2157,"酉":2158,"配":2159,"酒":2160,"酸":2161,"醉":2162,"醫":2163,"醬":2164,"釋":2165,"里":2166,"重":2167,"野":2168,"量":2169,"金":2170,"釜":2171,"針":2172,"釣":2173,"鈴":2174,"鉉":2175,"銀":2176,"銃":2177,"銅":2178,"銘":2179,"鋪":2180,"鋼":2181,"錄":2182,"錢":2183,"錦":2184,"錫":2185,"錯":2186,"鍾":2187,"鎭":2188,"鏡":2189,"鐘":2190,"鐵":2191,"鑑":2192,"長":2193,"門":2194,"開":2195,"閑":2196,"間":2197,"閣":2198,"關":2199,"门":2200,"阪":2201,"防":2202,"阿":2203,"陀":2204,"附":2205,"降":2206,"限":2207,"陝":2208,"院":2209,"陣":2210,"除":2211,"陰":2212,"陳":2213,"陵":2214,"陶":2215,"陸":2216,"陽":2217,"隆":2218,"隊":2219,"階":2220,"隔":2221,"際":2222,"隨":2223,"隱":2224,"雄":2225,"雅":2226,"集":2227,"雙":2228,"雜":2229,"離":2230,"難":2231,"雨":2232,"雪":2233,"雲":2234,"雷":2235,"電":2236,"需":2237,"震":2238,"霜":2239,"霞":2240,"霧":2241,"露":2242,"靈":2243,"靑":2244,"靖":2245,"靜":2246,"非":2247,"面":2248,"革":2249,"韓":2250,"韜":2251,"韩":2252,"音":2253,"韻":2254,"頂":2255,"順":2256,"須":2257,"頌":2258,"領":2259,"頭":2260,"題":2261,"額":2262,"顔":2263,"願":2264,"顚":2265,"類":2266,"顧":2267,"顯":2268,"風":2269,"飛":2270,"食":2271,"飮":2272,"飯":2273,"飾":2274,"養":2275,"餓":2276,"餘":2277,"餠":2278,"館":2279,"首":2280,"香":2281,"馬":2282,"駐":2283,"騎":2284,"騰":2285,"驅":2286,"驚":2287,"驛":2288,"骨":2289,"體":2290,"高":2291,"髮":2292,"鬪":2293,"鬱":2294,"鬼":2295,"魂":2296,"魏":2297,"魔":2298,"魚":2299,"魯":2300,"鮮":2301,"鳥":2302,"鳩":2303,"鳳":2304,"鳴":2305,"鴻":2306,"鵬":2307,"鶴":2308,"鷄":2309,"鹽":2310,"鹿":2311,"麗":2312,"麥":2313,"麵":2314,"麻":2315,"黃":2316,"黑":2317,"默":2318,"點":2319,"黨":2320,"鼎":2321,"鼓":2322,"鼻":2323,"齊":2324,"齋":2325,"齒":2326,"齡":2327,"龍":2328,"龜":2329,"ꉂ":2330,"꙼":2331,"가":2332,"각":2333,"갂":2334,"간":2335,"갇":2336,"갈":2337,"갉":2338,"갊":2339,"감":2340,"갑":2341,"값":2342,"갓":2343,"갔":2344,"강":2345,"갖":2346,"갗":2347,"갘":2348,"같":2349,"갚":2350,"갛":2351,"개":2352,"객":2353,"갞":2354,"갠":2355,"갣":2356,"갤":2357,"갬":2358,"갭":2359,"갯":2360,"갰":2361,"갱":2362,"갲":2363,"갴":2364,"갵":2365,"갷":2366,"갸":2367,"갹":2368,"갼":2369,"걀":2370,"걈":2371,"걉":2372,"걋":2373,"걌":2374,"걍":2375,"걐":2376,"걑":2377,"걔":2378,"걘":2379,"걜":2380,"거":2381,"걱":2382,"건":2383,"걵":2384,"걷":2385,"걸":2386,"걺":2387,"검":2388,"겁":2389,"것":2390,"겄":2391,"겅":2392,"겆":2393,"겇":2394,"겈":2395,"겉":2396,"겊":2397,"겋":2398,"게":2399,"겍":2400,"겎":2401,"겐":2402,"겓":2403,"겔":2404,"겜":2405,"겝":2406,"겟":2407,"겠":2408,"겡":2409,"겢":2410,"겣":2411,"겤":2412,"겥":2413,"겦":2414,"겧":2415,"겨":2416,"격":2417,"겪":2418,"견":2419,"겯":2420,"결":2421,"겸":2422,"겹":2423,"겻":2424,"겼":2425,"경":2426,"겾":2427,"곀":2428,"곁":2429,"곂":2430,"곃":2431,"계":2432,"곈":2433,"곗":2434,"곘":2435,"곜":2436,"고":2437,"곡":2438,"곤":2439,"곧":2440,"골":2441,"곪":2442,"곯":2443,"곰":2444,"곱":2445,"곳":2446,"곴":2447,"공":2448,"곶":2449,"곷":2450,"곸":2451,"곹":2452,"곺":2453,"곻":2454,"과":2455,"곽":2456,"관":2457,"괄":2458,"괌":2459,"광":2460,"괔":2461,"괘":2462,"괜":2463,"괞":2464,"괨":2465,"괭":2466,"괮":2467,"괴":2468,"괸":2469,"괼":2470,"굄":2471,"굇":2472,"굉":2473,"교":2474,"굑":2475,"굔":2476,"굘":2477,"굠":2478,"굡":2479,"굣":2480,"굥":2481,"굨":2482,"구":2483,"국":2484,"군":2485,"굳":2486,"굴":2487,"굵":2488,"굶":2489,"굼":2490,"굽":2491,"굿":2492,"궁":2493,"궂":2494,"궃":2495,"궄":2496,"궅":2497,"궆":2498,"궇":2499,"궈":2500,"권":2501,"궐":2502,"궛":2503,"궜":2504,"궝":2505,"궤":2506,"귀":2507,"귄":2508,"귈":2509,"귐":2510,"귓":2511,"귕":2512,"귗":2513,"귘":2514,"규":2515,"귝":2516,"균":2517,"귣":2518,"귤":2519,"귬":2520,"귯":2521,"귱":2522,"귴":2523,"그":2524,"극":2525,"근":2526,"귾":2527,"귿":2528,"글":2529,"긁":2530,"긂":2531,"긇":2532,"금":2533,"급":2534,"긋":2535,"긌":2536,"긍":2537,"긎":2538,"긏":2539,"긐":2540,"긑":2541,"긓":2542,"긔":2543,"긘":2544,"긩":2545,"긬":2546,"기":2547,"긱":2548,"긴":2549,"긶":2550,"긷":2551,"길":2552,"긿":2553,"김":2554,"깁":2555,"깃":2556,"깄":2557,"깅":2558,"깆":2559,"깇":2560,"깈":2561,"깉":2562,"깊":2563,"깋":2564,"까":2565,"깍":2566,"깎":2567,"깐":2568,"깔":2569,"깜":2570,"깝":2571,"깟":2572,"깠":2573,"깡":2574,"깢":2575,"깤":2576,"깥":2577,"깦":2578,"깧":2579,"깨":2580,"깩":2581,"깪":2582,"깬":2583,"깰":2584,"깸":2585,"깹":2586,"깻":2587,"깼":2588,"깽":2589,"꺀":2590,"꺄":2591,"꺅":2592,"꺆":2593,"꺌":2594,"꺗":2595,"꺘":2596,"꺙":2597,"꺜":2598,"꺠":2599,"꺳":2600,"꺴":2601,"꺵":2602,"꺼":2603,"꺽":2604,"꺾":2605,"껀":2606,"껄":2607,"껌":2608,"껍":2609,"껏":2610,"껐":2611,"껑":2612,"껒":2613,"껔":2614,"께":2615,"껙":2616,"껜":2617,"껠":2618,"껨":2619,"껩":2620,"껫":2621,"껬":2622,"껭":2623,"껰":2624,"껳":2625,"껴":2626,"꼇":2627,"꼈":2628,"꼉":2629,"꼌":2630,"꼐":2631,"꼥":2632,"꼬":2633,"꼭":2634,"꼮":2635,"꼰":2636,"꼳":2637,"꼴":2638,"꼼":2639,"꼽":2640,"꼿":2641,"꽁":2642,"꽂":2643,"꽃":2644,"꽄":2645,"꽅":2646,"꽇":2647,"꽈":2648,"꽉":2649,"꽌":2650,"꽐":2651,"꽝":2652,"꽤":2653,"꽥":2654,"꽹":2655,"꾀":2656,"꾐":2657,"꾜":2658,"꾱":2659,"꾸":2660,"꾹":2661,"꾺":2662,"꾼":2663,"꾾":2664,"꾿":2665,"꿀":2666,"꿇":2667,"꿈":2668,"꿉":2669,"꿋":2670,"꿍":2671,"꿎":2672,"꿐":2673,"꿑":2674,"꿔":2675,"꿘":2676,"꿧":2677,"꿨":2678,"꿩":2679,"꿰":2680,"꿱":2681,"꿴":2682,"뀌":2683,"뀐":2684,"뀔":2685,"뀜":2686,"뀝":2687,"뀨":2688,"뀩":2689,"뀬":2690,"뀰":2691,"뀸":2692,"뀼":2693,"뀽":2694,"끄":2695,"끅":2696,"끆":2697,"끈":2698,"끊":2699,"끋":2700,"끌":2701,"끓":2702,"끔":2703,"끕":2704,"끗":2705,"끙":2706,"끛":2707,"끜":2708,"끝":2709,"끠":2710,"끵":2711,"끼":2712,"끽":2713,"낀":2714,"낄":2715,"낌":2716,"낍":2717,"낏":2718,"낑":2719,"낔":2720,"나":2721,"낙":2722,"낚":2723,"난":2724,"낞":2725,"낟":2726,"날":2727,"낡":2728,"낢":2729,"남":2730,"납":2731,"낫":2732,"났":2733,"낭":2734,"낮":2735,"낯":2736,"낰":2737,"낱":2738,"낲":2739,"낳":2740,"내":2741,"낵":2742,"낶":2743,"낸":2744,"낻":2745,"낼":2746,"냄":2747,"냅":2748,"냇":2749,"냈":2750,"냉":2751,"냊":2752,"냌":2753,"냏":2754,"냐":2755,"냑":2756,"냔":2757,"냘":2758,"냠":2759,"냡":2760,"냣":2761,"냤":2762,"냥":2763,"냨":2764,"냩":2765,"냪":2766,"냫":2767,"냬":2768,"넄":2769,"너":2770,"넉":2771,"넋":2772,"넌":2773,"넏":2774,"널":2775,"넒":2776,"넓":2777,"넘":2778,"넙":2779,"넚":2780,"넛":2781,"넜":2782,"넝":2783,"넠":2784,"넢":2785,"넣":2786,"네":2787,"넥":2788,"넨":2789,"넫":2790,"넬":2791,"넴":2792,"넵":2793,"넷":2794,"넸":2795,"넹":2796,"넺":2797,"넼":2798,"넽":2799,"넿":2800,"녀":2801,"녁":2802,"년":2803,"녇":2804,"녈":2805,"념":2806,"녑":2807,"녓":2808,"녔":2809,"녕":2810,"녘":2811,"녚":2812,"녜":2813,"녠":2814,"녤":2815,"녬":2816,"녭":2817,"녱":2818,"녴":2819,"노":2820,"녹":2821,"논":2822,"녾":2823,"놀":2824,"놂":2825,"놈":2826,"놉":2827,"놋":2828,"농":2829,"놏":2830,"놐":2831,"놑":2832,"높":2833,"놓":2834,"놔":2835,"놕":2836,"놘":2837,"놧":2838,"놨":2839,"놩":2840,"놬":2841,"놯":2842,"놰":2843,"뇌":2844,"뇐":2845,"뇠":2846,"뇨":2847,"뇩":2848,"뇬":2849,"뇰":2850,"뇸":2851,"뇹":2852,"뇻":2853,"뇽":2854,"눀":2855,"누":2856,"눅":2857,"눈":2858,"눋":2859,"눌":2860,"눔":2861,"눕":2862,"눗":2863,"눙":2864,"눚":2865,"눜":2866,"눞":2867,"눟":2868,"눠":2869,"눤":2870,"눨":2871,"눳":2872,"눴":2873,"눵":2874,"눼":2875,"뉌":2876,"뉍":2877,"뉑":2878,"뉘":2879,"뉜":2880,"뉠":2881,"뉨":2882,"뉩":2883,"뉭":2884,"뉰":2885,"뉴":2886,"뉵":2887,"뉸":2888,"뉼":2889,"늄":2890,"늅":2891,"늉":2892,"늌":2893,"늏":2894,"느":2895,"늑":2896,"늒":2897,"는":2898,"늕":2899,"늖":2900,"늗":2901,"늘":2902,"늙":2903,"늠":2904,"늡":2905,"늣":2906,"능":2907,"늦":2908,"늨":2909,"늩":2910,"늪":2911,"늫":2912,"늬":2913,"늰":2914,"늼":2915,"닁":2916,"니":2917,"닉":2918,"닊":2919,"닌":2920,"닏":2921,"닐":2922,"님":2923,"닙":2924,"닛":2925,"닜":2926,"닝":2927,"닞":2928,"닠":2929,"닡":2930,"닢":2931,"닣":2932,"다":2933,"닥":2934,"닦":2935,"단":2936,"닪":2937,"닫":2938,"달":2939,"닭":2940,"닮":2941,"닯":2942,"닳":2943,"담":2944,"답":2945,"닷":2946,"닸":2947,"당":2948,"닺":2949,"닻":2950,"닼":2951,"닽":2952,"닾":2953,"닿":2954,"대":2955,"댁":2956,"댂":2957,"댄":2958,"댇":2959,"댈":2960,"댐":2961,"댑":2962,"댓":2963,"댔":2964,"댕":2965,"댘":2966,"댙":2967,"댚":2968,"댛":2969,"댜":2970,"댠":2971,"댤":2972,"댬":2973,"댭":2974,"댯":2975,"댱":2976,"댴":2977,"댸":2978,"더":2979,"덕":2980,"덖":2981,"던":2982,"덛":2983,"덜":2984,"덞":2985,"덟":2986,"덤":2987,"덥":2988,"덧":2989,"덨":2990,"덩":2991,"덪":2992,"덫":2993,"덬":2994,"덮":2995,"덯":2996,"데":2997,"덱":2998,"덴":2999,"덷":3000,"델":3001,"뎀":3002,"뎁":3003,"뎃":3004,"뎄":3005,"뎅":3006,"뎆":3007,"뎇":3008,"뎈":3009,"뎉":3010,"뎊":3011,"뎋":3012,"뎌":3013,"뎐":3014,"뎔":3015,"뎟":3016,"뎠":3017,"뎡":3018,"뎤":3019,"뎨":3020,"뎬":3021,"도":3022,"독":3023,"돈":3024,"돋":3025,"돌":3026,"돔":3027,"돕":3028,"돗":3029,"동":3030,"돚":3031,"돛":3032,"돜":3033,"돝":3034,"돞":3035,"돟":3036,"돠":3037,"돡":3038,"돤":3039,"돨":3040,"돰":3041,"돳":3042,"돴":3043,"돵":3044,"돼":3045,"돽":3046,"돾":3047,"됀":3048,"됄":3049,"됌":3050,"됍":3051,"됏":3052,"됐":3053,"됑":3054,"됒":3055,"됔":3056,"됗":3057,"되":3058,"됙":3059,"된":3060,"될":3061,"됨":3062,"됩":3063,"됫":3064,"됬":3065,"됭":3066,"됮":3067,"됰":3068,"됳":3069,"됴":3070,"됸":3071,"둉":3072,"두":3073,"둑":3074,"둔":3075,"둗":3076,"둘":3077,"둠":3078,"둡":3079,"둣":3080,"둥":3081,"둨":3082,"둫":3083,"둬":3084,"둰":3085,"둿":3086,"뒀":3087,"뒁":3088,"뒄":3089,"뒈":3090,"뒉":3091,"뒙":3092,"뒝":3093,"뒤":3094,"뒨":3095,"뒷":3096,"뒹":3097,"듀":3098,"듁":3099,"듄":3100,"듈":3101,"듐":3102,"듑":3103,"듓":3104,"듕":3105,"듘":3106,"드":3107,"득":3108,"든":3109,"듣":3110,"들":3111,"듥":3112,"듦":3113,"듬":3114,"듭":3115,"듯":3116,"등":3117,"듳":3118,"듴":3119,"듷":3120,"듸":3121,"딋":3122,"딍":3123,"디":3124,"딕":3125,"딘":3126,"딛":3127,"딜":3128,"딤":3129,"딥":3130,"딧":3131,"딨":3132,"딩":3133,"딪":3134,"딫":3135,"딬":3136,"딮":3137,"딯":3138,"따":3139,"딱":3140,"딲":3141,"딴":3142,"딷":3143,"딸":3144,"딹":3145,"땀":3146,"땁":3147,"땃":3148,"땄":3149,"땅":3150,"땈":3151,"땋":3152,"때":3153,"땍":3154,"땐":3155,"땔":3156,"땜":3157,"땝":3158,"땟":3159,"땠":3160,"땡":3161,"땤":3162,"땨":3163,"땬":3164,"땸":3165,"땽":3166,"떄":3167,"떈":3168,"떔":3169,"떘":3170,"떙":3171,"떠":3172,"떡":3173,"떢":3174,"떤":3175,"떧":3176,"떨":3177,"떫":3178,"떰":3179,"떱":3180,"떳":3181,"떴":3182,"떵":3183,"떸":3184,"떻":3185,"떼":3186,"떽":3187,"뗀":3188,"뗄":3189,"뗌":3190,"뗏":3191,"뗐":3192,"뗑":3193,"뗘":3194,"뗫":3195,"뗬":3196,"뗭":3197,"뗴":3198,"또":3199,"똑":3200,"똒":3201,"똔":3202,"똗":3203,"똘":3204,"똠":3205,"똡":3206,"똣":3207,"똥":3208,"똨":3209,"똫":3210,"똬":3211,"똭":3212,"뙇":3213,"뙈":3214,"뙤":3215,"뚀":3216,"뚁":3217,"뚕":3218,"뚜":3219,"뚝":3220,"뚠":3221,"뚤":3222,"뚫":3223,"뚬":3224,"뚭":3225,"뚯":3226,"뚱":3227,"뚸":3228,"뛔":3229,"뛰":3230,"뛴":3231,"뛸":3232,"뜀":3233,"뜁":3234,"뜌":3235,"뜍":3236,"뜐":3237,"뜜":3238,"뜝":3239,"뜡":3240,"뜨":3241,"뜩":3242,"뜬":3243,"뜯":3244,"뜰":3245,"뜷":3246,"뜸":3247,"뜹":3248,"뜻":3249,"뜽":3250,"띁":3251,"띄":3252,"띈":3253,"띌":3254,"띔":3255,"띕":3256,"띠":3257,"띡":3258,"띤":3259,"띨":3260,"띰":3261,"띱":3262,"띵":3263,"라":3264,"락":3265,"띾":3266,"란":3267,"랂":3268,"랃":3269,"랄":3270,"람":3271,"랍":3272,"랏":3273,"랐":3274,"랑":3275,"랒":3276,"랔":3277,"랕":3278,"랖":3279,"랗":3280,"래":3281,"랙":3282,"랚":3283,"랜":3284,"랟":3285,"랠":3286,"램":3287,"랩":3288,"랫":3289,"랬":3290,"랭":3291,"랰":3292,"랱":3293,"랲":3294,"랳":3295,"랴":3296,"략":3297,"랸":3298,"랼":3299,"럄":3300,"럅":3301,"럇":3302,"럈":3303,"량":3304,"럌":3305,"럐":3306,"럣":3307,"럤":3308,"러":3309,"럭":3310,"런":3311,"럳":3312,"럴":3313,"럼":3314,"럽":3315,"럾":3316,"럿":3317,"렀":3318,"렁":3319,"렂":3320,"렄":3321,"렆":3322,"렇":3323,"레":3324,"렉":3325,"렌":3326,"렏":3327,"렐":3328,"렘":3329,"렙":3330,"렛":3331,"렜":3332,"렝":3333,"렠":3334,"렢":3335,"렣":3336,"려":3337,"력":3338,"렦":3339,"련":3340,"렫":3341,"렬":3342,"렴":3343,"렵":3344,"렷":3345,"렸":3346,"령":3347,"렺":3348,"렼":3349,"렿":3350,"례":3351,"롄":3352,"롑":3353,"로":3354,"록":3355,"론":3356,"롣":3357,"롤":3358,"롬":3359,"롭":3360,"롯":3361,"롰":3362,"롱":3363,"롲":3364,"롴":3365,"롶":3366,"롷":3367,"롸":3368,"롹":3369,"롼":3370,"뢀":3371,"뢈":3372,"뢋":3373,"뢌":3374,"뢍":3375,"뢔":3376,"뢩":3377,"뢰":3378,"뢴":3379,"룀":3380,"료":3381,"룍":3382,"룐":3383,"룔":3384,"룜":3385,"룝":3386,"룟":3387,"룠":3388,"룡":3389,"룤":3390,"루":3391,"룩":3392,"룬":3393,"룰":3394,"룸":3395,"룹":3396,"룻":3397,"룽":3398,"뤀":3399,"뤃":3400,"뤄":3401,"뤈":3402,"뤌":3403,"뤔":3404,"뤗":3405,"뤘":3406,"뤙":3407,"뤠":3408,"뤡":3409,"뤱":3410,"뤵":3411,"뤼":3412,"뤽":3413,"륀":3414,"륄":3415,"륌":3416,"륑":3417,"류":3418,"륙":3419,"륜":3420,"률":3421,"륨":3422,"륩":3423,"륭":3424,"르":3425,"륵":3426,"른":3427,"륻":3428,"를":3429,"륽":3430,"름":3431,"릅":3432,"릇":3433,"릉":3434,"릊":3435,"릌":3436,"릎":3437,"릏":3438,"릐":3439,"릔":3440,"릠":3441,"릥":3442,"리":3443,"릭":3444,"린":3445,"릳":3446,"릴":3447,"림":3448,"립":3449,"릿":3450,"맀":3451,"링":3452,"맂":3453,"맄":3454,"맆":3455,"맇":3456,"마":3457,"막":3458,"만":3459,"맍":3460,"많":3461,"맏":3462,"말":3463,"맑":3464,"맒":3465,"맗":3466,"맘":3467,"맙":3468,"맛":3469,"맜":3470,"망":3471,"맞":3472,"맟":3473,"맠":3474,"맡":3475,"맣":3476,"매":3477,"맥":3478,"맨":3479,"맫":3480,"맬":3481,"맴":3482,"맵":3483,"맷":3484,"맸":3485,"맹":3486,"맺":3487,"맻":3488,"맼":3489,"먀":3490,"먁":3491,"먄":3492,"먈":3493,"먐":3494,"먕":3495,"먗":3496,"머":3497,"먹":3498,"먼":3499,"먾":3500,"먿":3501,"멀":3502,"멂":3503,"멈":3504,"멉":3505,"멋":3506,"멍":3507,"멎":3508,"멏":3509,"멐":3510,"멓":3511,"메":3512,"멕":3513,"멘":3514,"멜":3515,"멤":3516,"멥":3517,"멧":3518,"멨":3519,"멩":3520,"멬":3521,"며":3522,"멱":3523,"면":3524,"멶":3525,"멷":3526,"멸":3527,"몀":3528,"몃":3529,"몄":3530,"명":3531,"몆":3532,"몇":3533,"몈":3534,"몉":3535,"모":3536,"목":3537,"몫":3538,"몬":3539,"몯":3540,"몰":3541,"몸":3542,"몹":3543,"못":3544,"몽":3545,"뫀":3546,"뫃":3547,"뫄":3548,"뫈":3549,"뫙":3550,"뫠":3551,"뫼":3552,"묀":3553,"묏":3554,"묘":3555,"묜":3556,"묠":3557,"묨":3558,"묫":3559,"묭":3560,"묯":3561,"무":3562,"묵":3563,"묶":3564,"문":3565,"묹":3566,"묻":3567,"물":3568,"묽":3569,"묾":3570,"뭄":3571,"뭅":3572,"뭇":3573,"뭉":3574,"뭊":3575,"뭌":3576,"뭍":3577,"뭏":3578,"뭐":3579,"뭑":3580,"뭔":3581,"뭘":3582,"뭠":3583,"뭡":3584,"뭣":3585,"뭥":3586,"뭦":3587,"뭨":3588,"뭫":3589,"뭬":3590,"뮈":3591,"뮌":3592,"뮐":3593,"뮤":3594,"뮥":3595,"뮨":3596,"뮬":3597,"뮴":3598,"뮷":3599,"뮹":3600,"므":3601,"믁":3602,"믄":3603,"믈":3604,"믐":3605,"믓":3606,"믕":3607,"믖":3608,"믜":3609,"믱":3610,"미":3611,"믹":3612,"믺":3613,"민":3614,"믽":3615,"믾":3616,"믿":3617,"밀":3618,"밈":3619,"밉":3620,"밋":3621,"밌":3622,"밍":3623,"밎":3624,"및":3625,"밐":3626,"밑":3627,"밓":3628,"바":3629,"박":3630,"밖":3631,"반":3632,"받":3633,"발":3634,"밝":3635,"밞":3636,"밟":3637,"밤":3638,"밥":3639,"밧":3640,"밨":3641,"방":3642,"밪":3643,"밬":3644,"밭":3645,"밯":3646,"배":3647,"백":3648,"밴":3649,"밷":3650,"밸":3651,"뱀":3652,"뱁":3653,"뱃":3654,"뱄":3655,"뱅":3656,"뱈":3657,"뱉":3658,"뱌":3659,"뱍":3660,"뱐":3661,"뱔":3662,"뱝":3663,"뱡":3664,"버":3665,"벅":3666,"벆":3667,"번":3668,"벋":3669,"벌":3670,"벎":3671,"범":3672,"법":3673,"벗":3674,"벘":3675,"벙":3676,"벚":3677,"벛":3678,"벜":3679,"벟":3680,"베":3681,"벡":3682,"벤":3683,"벧":3684,"벨":3685,"벰":3686,"벱":3687,"벳":3688,"벵":3689,"벹":3690,"벼":3691,"벽":3692,"변":3693,"볃":3694,"별":3695,"볌":3696,"볍":3697,"볏":3698,"볐":3699,"병":3700,"볓":3701,"볔":3702,"볕":3703,"볗":3704,"볜":3705,"보":3706,"복":3707,"볶":3708,"본":3709,"볻":3710,"볼":3711,"볽":3712,"볾":3713,"봄":3714,"봅":3715,"봇":3716,"봈":3717,"봉":3718,"봊":3719,"봌":3720,"봏":3721,"봐":3722,"봑":3723,"봒":3724,"봔":3725,"봘":3726,"봠":3727,"봡":3728,"봣":3729,"봤":3730,"봥":3731,"봨":3732,"봫":3733,"봬":3734,"뵀":3735,"뵈":3736,"뵌":3737,"뵐":3738,"뵘":3739,"뵙":3740,"뵛":3741,"뵜":3742,"뵤":3743,"뵥":3744,"뵨":3745,"뵬":3746,"뵹":3747,"부":3748,"북":3749,"분":3750,"붇":3751,"불":3752,"붉":3753,"붐":3754,"붑":3755,"붓":3756,"붕":3757,"붖":3758,"붗":3759,"붘":3760,"붙":3761,"붛":3762,"붜":3763,"붤":3764,"붸":3765,"뷁":3766,"뷔":3767,"뷘":3768,"뷜":3769,"뷰":3770,"뷱":3771,"뷴":3772,"뷸":3773,"븀":3774,"븁":3775,"븅":3776,"븉":3777,"브":3778,"븍":3779,"븐":3780,"블":3781,"븜":3782,"븝":3783,"븟":3784,"븡":3785,"븤":3786,"븥":3787,"븨":3788,"비":3789,"빅":3790,"빆":3791,"빈":3792,"빋":3793,"빌":3794,"빔":3795,"빕":3796,"빗":3797,"빘":3798,"빙":3799,"빚":3800,"빛":3801,"빜":3802,"빝":3803,"빟":3804,"빠":3805,"빡":3806,"빢":3807,"빤":3808,"빧":3809,"빨":3810,"빰":3811,"빱":3812,"빳":3813,"빴":3814,"빵":3815,"빸":3816,"빻":3817,"빼":3818,"빽":3819,"뺀":3820,"뺄":3821,"뺌":3822,"뺍":3823,"뺏":3824,"뺐":3825,"뺑":3826,"뺘":3827,"뺙":3828,"뺨":3829,"뺭":3830,"뺴":3831,"뺵":3832,"뺸":3833,"뺼":3834,"뻇":3835,"뻈":3836,"뻐":3837,"뻑":3838,"뻔":3839,"뻗":3840,"뻘":3841,"뻠":3842,"뻡":3843,"뻣":3844,"뻤":3845,"뻥":3846,"뻨":3847,"뻬":3848,"뼈":3849,"뼉":3850,"뼘":3851,"뼛":3852,"뼝":3853,"뽀":3854,"뽁":3855,"뽂":3856,"뽄":3857,"뽈":3858,"뽐":3859,"뽑":3860,"뽕":3861,"뽖":3862,"뽜":3863,"뽝":3864,"뽱":3865,"뽷":3866,"뾰":3867,"뾱":3868,"뿅":3869,"뿌":3870,"뿍":3871,"뿐":3872,"뿔":3873,"뿜":3874,"뿝":3875,"뿟":3876,"뿡":3877,"뿤":3878,"뿨":3879,"쀄":3880,"쀼":3881,"쁀":3882,"쁌":3883,"쁍":3884,"쁑":3885,"쁘":3886,"쁜":3887,"쁠":3888,"쁨":3889,"쁩":3890,"쁭":3891,"삉":3892,"삐":3893,"삑":3894,"삔":3895,"삘":3896,"삠":3897,"삡":3898,"삣":3899,"삥":3900,"사":3901,"삭":3902,"삮":3903,"삯":3904,"산":3905,"삳":3906,"살":3907,"삵":3908,"삶":3909,"삻":3910,"삼":3911,"삽":3912,"삿":3913,"샀":3914,"상":3915,"샂":3916,"샃":3917,"샄":3918,"샅":3919,"샆":3920,"샇":3921,"새":3922,"색":3923,"샊":3924,"샌":3925,"샏":3926,"샐":3927,"샒":3928,"샘":3929,"샙":3930,"샛":3931,"샜":3932,"생":3933,"샠":3934,"샢":3935,"샤":3936,"샥":3937,"샨":3938,"샬":3939,"샴":3940,"샵":3941,"샷":3942,"샸":3943,"샹":3944,"샾":3945,"섀":3946,"서":3947,"석":3948,"섞":3949,"선":3950,"섣":3951,"설":3952,"섦":3953,"섬":3954,"섭":3955,"섯":3956,"섰":3957,"성":3958,"섲":3959,"섳":3960,"섴":3961,"섵":3962,"섶":3963,"섷":3964,"세":3965,"섹":3966,"센":3967,"셀":3968,"셈":3969,"셉":3970,"셋":3971,"셌":3972,"셍":3973,"셐":3974,"셒":3975,"셔":3976,"셕":3977,"셖":3978,"션":3979,"셜":3980,"셤":3981,"셥":3982,"셧":3983,"셨":3984,"셩":3985,"셬":3986,"셯":3987,"셰":3988,"셴":3989,"셸":3990,"솅":3991,"소":3992,"속":3993,"솎":3994,"손":3995,"솓":3996,"솔":3997,"솜":3998,"솝":3999,"솟":4000,"송":4001,"솤":4002,"솥":4003,"솦":4004,"솧":4005,"솨":4006,"솩":4007,"솬":4008,"솰":4009,"솸":4010,"솼":4011,"솽":4012,"쇄":4013,"쇠":4014,"쇤":4015,"쇳":4016,"쇼":4017,"쇽":4018,"숀":4019,"숄":4020,"숌":4021,"숍":4022,"숏":4023,"숑":4024,"숔":4025,"수":4026,"숙":4027,"순":4028,"숟":4029,"술":4030,"숨":4031,"숩":4032,"숫":4033,"숭":4034,"숮":4035,"숯":4036,"숰":4037,"숱":4038,"숲":4039,"숳":4040,"숴":4041,"숸":4042,"쉅":4043,"쉈":4044,"쉉":4045,"쉐":4046,"쉑":4047,"쉔":4048,"쉘":4049,"쉡":4050,"쉣":4051,"쉥":4052,"쉨":4053,"쉬":4054,"쉭":4055,"쉰":4056,"쉴":4057,"쉼":4058,"쉽":4059,"쉿":4060,"슁":4061,"슄":4062,"슈":4063,"슉":4064,"슌":4065,"슐":4066,"슘":4067,"슙":4068,"슛":4069,"슝":4070,"슠":4071,"스":4072,"슥":4073,"슨":4074,"슫":4075,"슬":4076,"슭":4077,"슴":4078,"습":4079,"슷":4080,"승":4081,"슺":4082,"슼":4083,"슽":4084,"슾":4085,"슿":4086,"싀":4087,"싄":4088,"싈":4089,"싐":4090,"싑":4091,"싘":4092,"시":4093,"식":4094,"신":4095,"싣":4096,"실":4097,"싪":4098,"싫":4099,"심":4100,"십":4101,"싯":4102,"싰":4103,"싱":4104,"싲":4105,"싳":4106,"싴":4107,"싵":4108,"싶":4109,"싷":4110,"싸":4111,"싹":4112,"싼":4113,"싿":4114,"쌀":4115,"쌈":4116,"쌉":4117,"쌋":4118,"쌌":4119,"쌍":4120,"쌐":4121,"쌓":4122,"쌔":4123,"쌕":4124,"쌘":4125,"쌜":4126,"쌤":4127,"쌩":4128,"쌰":4129,"썀":4130,"썅":4131,"썌":4132,"썜":4133,"썡":4134,"써":4135,"썩":4136,"썪":4137,"썬":4138,"썯":4139,"썰":4140,"썸":4141,"썹":4142,"썻":4143,"썼":4144,"썽":4145,"쎀":4146,"쎂":4147,"쎃":4148,"쎄":4149,"쎅":4150,"쎈":4151,"쎌":4152,"쎔":4153,"쎗":4154,"쎘":4155,"쎙":4156,"쎜":4157,"쎠":4158,"쎵":4159,"쎼":4160,"쏀":4161,"쏘":4162,"쏙":4163,"쏜":4164,"쏟":4165,"쏠":4166,"쏨":4167,"쏩":4168,"쏭":4169,"쏰":4170,"쏴":4171,"쏵":4172,"쏼":4173,"쐇":4174,"쐈":4175,"쐐":4176,"쐬":4177,"쐰":4178,"쐴":4179,"쑈":4180,"쑉":4181,"쑝":4182,"쑤":4183,"쑥":4184,"쑨":4185,"쑬":4186,"쑴":4187,"쑵":4188,"쑹":4189,"쒀":4190,"쒔":4191,"쒕":4192,"쒘":4193,"쒜":4194,"쒯":4195,"쒸":4196,"쒹":4197,"쓋":4198,"쓍":4199,"쓐":4200,"쓔":4201,"쓕":4202,"쓤":4203,"쓩":4204,"쓰":4205,"쓱":4206,"쓴":4207,"쓸":4208,"씀":4209,"씁":4210,"씃":4211,"씅":4212,"씈":4213,"씉":4214,"씌":4215,"씐":4216,"씡":4217,"씨":4218,"씩":4219,"씪":4220,"씬":4221,"씯":4222,"씰":4223,"씸":4224,"씹":4225,"씻":4226,"씼":4227,"씽":4228,"씾":4229,"앀":4230,"아":4231,"악":4232,"앆":4233,"안":4234,"앉":4235,"않":4236,"앋":4237,"알":4238,"앍":4239,"앎":4240,"앏":4241,"앓":4242,"암":4243,"압":4244,"앖":4245,"앗":4246,"았":4247,"앙":4248,"앚":4249,"앛":4250,"앜":4251,"앝":4252,"앞":4253,"앟":4254,"애":4255,"액":4256,"앤":4257,"앧":4258,"앨":4259,"앰":4260,"앱":4261,"앳":4262,"앴":4263,"앵":4264,"앸":4265,"앺":4266,"앻":4267,"야":4268,"약":4269,"얀":4270,"얃":4271,"얄":4272,"얆":4273,"얇":4274,"얌":4275,"얍":4276,"얎":4277,"얏":4278,"얐":4279,"양":4280,"얒":4281,"얔":4282,"얕":4283,"얖":4284,"얗":4285,"얘":4286,"얜":4287,"얠":4288,"얬":4289,"얭":4290,"어":4291,"억":4292,"얶":4293,"얷":4294,"언":4295,"얹":4296,"얺":4297,"얻":4298,"얼":4299,"얽":4300,"얾":4301,"엄":4302,"업":4303,"없":4304,"엇":4305,"었":4306,"엉":4307,"엊":4308,"엋":4309,"엌":4310,"엍":4311,"엎":4312,"엏":4313,"에":4314,"엑":4315,"엔":4316,"엗":4317,"엘":4318,"엠":4319,"엡":4320,"엣":4321,"엤":4322,"엥":4323,"엧":4324,"엨":4325,"엩":4326,"엪":4327,"엫":4328,"여":4329,"역":4330,"엮":4331,"연":4332,"엳":4333,"열":4334,"엶":4335,"엷":4336,"염":4337,"엽":4338,"엾":4339,"엿":4340,"였":4341,"영":4342,"옂":4343,"옃":4344,"옄":4345,"옅":4346,"옆":4347,"옇":4348,"예":4349,"옌":4350,"옐":4351,"옘":4352,"옙":4353,"옛":4354,"옜":4355,"옝":4356,"옠":4357,"오":4358,"옥":4359,"옦":4360,"옧":4361,"온":4362,"옫":4363,"올":4364,"옭":4365,"옮":4366,"옳":4367,"옴":4368,"옵":4369,"옶":4370,"옷":4371,"옸":4372,"옹":4373,"옺":4374,"옻":4375,"옼":4376,"옽":4377,"옾":4378,"옿":4379,"와":4380,"왁":4381,"왂":4382,"완":4383,"왈":4384,"왐":4385,"왑":4386,"왒":4387,"왓":4388,"왔":4389,"왕":4390,"왖":4391,"왘":4392,"왚":4393,"왛":4394,"왜":4395,"왝":4396,"왠":4397,"왤":4398,"왬":4399,"왭":4400,"왯":4401,"왱":4402,"왴":4403,"외":4404,"왼":4405,"욀":4406,"욋":4407,"욌":4408,"욍":4409,"욐":4410,"요":4411,"욕":4412,"욘":4413,"욛":4414,"욜":4415,"욤":4416,"욥":4417,"욧":4418,"욨":4419,"용":4420,"욪":4421,"욬":4422,"욭":4423,"욮":4424,"욯":4425,"우":4426,"욱":4427,"운":4428,"욷":4429,"울":4430,"욺":4431,"움":4432,"웁":4433,"웂":4434,"웃":4435,"웄":4436,"웅":4437,"웆":4438,"웈":4439,"웉":4440,"웋":4441,"워":4442,"웍":4443,"웎":4444,"원":4445,"웓":4446,"월":4447,"웜":4448,"웝":4449,"웟":4450,"웠":4451,"웡":4452,"웢":4453,"웤":4454,"웦":4455,"웧":4456,"웨":4457,"웩":4458,"웬":4459,"웰":4460,"웸":4461,"웹":4462,"웻":4463,"웽":4464,"윀":4465,"위":4466,"윅":4467,"윈":4468,"윌":4469,"윔":4470,"윕":4471,"윗":4472,"윙":4473,"윜":4474,"유":4475,"육":4476,"윤":4477,"율":4478,"윰":4479,"윱":4480,"윳":4481,"융":4482,"윷":4483,"윸":4484,"윻":4485,"으":4486,"윽":4487,"윾":4488,"은":4489,"읁":4490,"읂":4491,"읃":4492,"을":4493,"읅":4494,"읆":4495,"읈":4496,"읊":4497,"읋":4498,"음":4499,"읍":4500,"읎":4501,"읏":4502,"읐":4503,"응":4504,"읒":4505,"읓":4506,"읔":4507,"읕":4508,"읖":4509,"읗":4510,"의":4511,"읜":4512,"읭":4513,"읰":4514,"이":4515,"익":4516,"읶":4517,"인":4518,"읹":4519,"읺":4520,"읻":4521,"일":4522,"읽":4523,"읾":4524,"잀":4525,"잃":4526,"임":4527,"입":4528,"잆":4529,"잇":4530,"있":4531,"잉":4532,"잊":4533,"잋":4534,"잌":4535,"잍":4536,"잎":4537,"잏":4538,"자":4539,"작":4540,"잒":4541,"잔":4542,"잖":4543,"잗":4544,"잘":4545,"잚":4546,"잠":4547,"잡":4548,"잣":4549,"잤":4550,"장":4551,"잦":4552,"잧":4553,"잨":4554,"잩":4555,"잫":4556,"재":4557,"잭":4558,"잰":4559,"잴":4560,"잼":4561,"잽":4562,"잿":4563,"쟀":4564,"쟁":4565,"쟄":4566,"쟈":4567,"쟉":4568,"쟌":4569,"쟎":4570,"쟐":4571,"쟘":4572,"쟙":4573,"쟛":4574,"쟜":4575,"쟝":4576,"쟠":4577,"쟣":4578,"쟤":4579,"쟨":4580,"쟬":4581,"쟼":4582,"저":4583,"적":4584,"전":4585,"젆":4586,"젇":4587,"절":4588,"젊":4589,"젋":4590,"점":4591,"접":4592,"젓":4593,"젔":4594,"정":4595,"젖":4596,"젘":4597,"젛":4598,"제":4599,"젝":4600,"젠":4601,"젤":4602,"젬":4603,"젭":4604,"젯":4605,"젱":4606,"젲":4607,"젴":4608,"젷":4609,"져":4610,"젹":4611,"젺":4612,"젼":4613,"졀":4614,"졈":4615,"졉":4616,"졋":4617,"졌":4618,"졍":4619,"졐":4620,"졓":4621,"졔":4622,"조":4623,"족":4624,"존":4625,"졷":4626,"졸":4627,"좀":4628,"좁":4629,"좃":4630,"종":4631,"좆":4632,"좇":4633,"좈":4634,"좊":4635,"좋":4636,"좌":4637,"좍":4638,"좐":4639,"좔":4640,"좝":4641,"좟":4642,"좠":4643,"좡":4644,"좨":4645,"죄":4646,"죈":4647,"죌":4648,"죔":4649,"죗":4650,"죙":4651,"죠":4652,"죡":4653,"죤":4654,"죨":4655,"죰":4656,"죱":4657,"죳":4658,"죴":4659,"죵":4660,"죸":4661,"죻":4662,"주":4663,"죽":4664,"준":4665,"줃":4666,"줄":4667,"줅":4668,"줌":4669,"줍":4670,"줏":4671,"줐":4672,"중":4673,"줒":4674,"줓":4675,"줔":4676,"줕":4677,"줗":4678,"줘":4679,"줙":4680,"줚":4681,"줜":4682,"줠":4683,"줨":4684,"줫":4685,"줬":4686,"줭":4687,"줰":4688,"줳":4689,"줴":4690,"줸":4691,"쥄":4692,"쥉":4693,"쥐":4694,"쥑":4695,"쥔":4696,"쥘":4697,"쥠":4698,"쥡":4699,"쥣":4700,"쥥":4701,"쥨":4702,"쥬":4703,"쥭":4704,"쥰":4705,"쥴":4706,"쥼":4707,"쥽":4708,"즁":4709,"즄":4710,"즇":4711,"즈":4712,"즉":4713,"즌":4714,"즐":4715,"즘":4716,"즙":4717,"즛":4718,"증":4719,"즠":4720,"즤":4721,"즥":4722,"즨":4723,"즹":4724,"지":4725,"직":4726,"진":4727,"짅":4728,"짆":4729,"짇":4730,"질":4731,"짊":4732,"짐":4733,"집":4734,"짓":4735,"짔":4736,"징":4737,"짖":4738,"짗":4739,"짘":4740,"짙":4741,"짚":4742,"짛":4743,"짜":4744,"짝":4745,"짞":4746,"짠":4747,"짢":4748,"짣":4749,"짤":4750,"짦":4751,"짧":4752,"짬":4753,"짭":4754,"짯":4755,"짰":4756,"짱":4757,"짲":4758,"짴":4759,"짵":4760,"짶":4761,"짷":4762,"째":4763,"짹":4764,"짼":4765,"쨀":4766,"쨈":4767,"쨉":4768,"쨋":4769,"쨌":4770,"쨍":4771,"쨐":4772,"쨔":4773,"쨕":4774,"쨘":4775,"쨜":4776,"쨥":4777,"쨩":4778,"쨬":4779,"쨰":4780,"쩃":4781,"쩄":4782,"쩅":4783,"쩌":4784,"쩍":4785,"쩐":4786,"쩔":4787,"쩖":4788,"쩜":4789,"쩝":4790,"쩟":4791,"쩡":4792,"쩧":4793,"쩨":4794,"쩰":4795,"쪄":4796,"쪈":4797,"쪌":4798,"쪕":4799,"쪗":4800,"쪘":4801,"쪙":4802,"쪜":4803,"쪼":4804,"쪽":4805,"쪾":4806,"쫀":4807,"쫃":4808,"쫄":4809,"쫌":4810,"쫍":4811,"쫏":4812,"쫑":4813,"쫒":4814,"쫓":4815,"쫗":4816,"쫘":4817,"쫙":4818,"쫜":4819,"쫠":4820,"쫩":4821,"쫭":4822,"쬐":4823,"쬔":4824,"쬘":4825,"쬠":4826,"쬬":4827,"쬭":4828,"쬰":4829,"쬽":4830,"쭁":4831,"쭈":4832,"쭉":4833,"쭊":4834,"쭌":4835,"쭐":4836,"쭘":4837,"쭙":4838,"쭝":4839,"쭤":4840,"쭵":4841,"쭸":4842,"쮀":4843,"쮜":4844,"쮝":4845,"쮸":4846,"쮹":4847,"쯈":4848,"쯉":4849,"쯍":4850,"쯔":4851,"쯕":4852,"쯘":4853,"쯜":4854,"쯤":4855,"쯥":4856,"쯧":4857,"쯩":4858,"쯰":4859,"찌":4860,"찍":4861,"찎":4862,"찐":4863,"찓":4864,"찔":4865,"찜":4866,"찝":4867,"찟":4868,"찡":4869,"찢":4870,"찤":4871,"찧":4872,"차":4873,"착":4874,"찬":4875,"찮":4876,"찯":4877,"찰":4878,"참":4879,"찹":4880,"찻":4881,"찼":4882,"창":4883,"찾":4884,"찿":4885,"챀":4886,"챂":4887,"챃":4888,"채":4889,"책":4890,"챈":4891,"챋":4892,"챌":4893,"챔":4894,"챕":4895,"챗":4896,"챘":4897,"챙":4898,"챠":4899,"챡":4900,"챤":4901,"챦":4902,"챨":4903,"챰":4904,"챱":4905,"챳":4906,"챴":4907,"챵":4908,"챸":4909,"처":4910,"척":4911,"천":4912,"첞":4913,"첟":4914,"철":4915,"첨":4916,"첩":4917,"첫":4918,"첬":4919,"청":4920,"첮":4921,"첳":4922,"체":4923,"첵":4924,"첸":4925,"첼":4926,"쳄":4927,"쳇":4928,"쳉":4929,"쳌":4930,"쳐":4931,"쳑":4932,"쳒":4933,"쳔":4934,"쳘":4935,"쳠":4936,"쳡":4937,"쳣":4938,"쳤":4939,"쳥":4940,"쳨":4941,"쳫":4942,"쳬":4943,"쳰":4944,"초":4945,"촉":4946,"촌":4947,"촏":4948,"촐":4949,"촘":4950,"촙":4951,"촛":4952,"총":4953,"촠":4954,"촤":4955,"촥":4956,"촨":4957,"촬":4958,"촴":4959,"촵":4960,"촹":4961,"최":4962,"쵝":4963,"쵸":4964,"쵹":4965,"춈":4966,"춉":4967,"춋":4968,"춌":4969,"춍":4970,"춐":4971,"추":4972,"축":4973,"춘":4974,"춚":4975,"출":4976,"춤":4977,"춥":4978,"춧":4979,"충":4980,"춪":4981,"춫":4982,"춬":4983,"춰":4984,"춴":4985,"췃":4986,"췄":4987,"췅":4988,"췌":4989,"췍":4990,"췐":4991,"췜":4992,"췟":4993,"췤":4994,"취":4995,"췩":4996,"췬":4997,"췸":4998,"췻":4999,"췽":5000,"츀":5001,"츄":5002,"츅":5003,"츈":5004,"츌":5005,"츔":5006,"츕":5007,"츙":5008,"츠":5009,"측":5010,"츤":5011,"츨":5012,"츰":5013,"츱":5014,"츳":5015,"층":5016,"츼":5017,"칀":5018,"칑":5019,"치":5020,"칙":5021,"친":5022,"칞":5023,"칟":5024,"칠":5025,"칡":5026,"침":5027,"칩":5028,"칫":5029,"칬":5030,"칭":5031,"칮":5032,"칰":5033,"카":5034,"칵":5035,"칸":5036,"칼":5037,"캄":5038,"캅":5039,"캇":5040,"캉":5041,"캌":5042,"캍":5043,"캎":5044,"캐":5045,"캑":5046,"캔":5047,"캘":5048,"캠":5049,"캡":5050,"캣":5051,"캤":5052,"캥":5053,"캨":5054,"캬":5055,"캭":5056,"캴":5057,"캿":5058,"컀":5059,"컁":5060,"컄":5061,"커":5062,"컥":5063,"컨":5064,"컫":5065,"컬":5066,"컴":5067,"컵":5068,"컷":5069,"컸":5070,"컹":5071,"컼":5072,"컽":5073,"컾":5074,"케":5075,"켁":5076,"켄":5077,"켈":5078,"켐":5079,"켑":5080,"켓":5081,"켔":5082,"켕":5083,"켘":5084,"켜":5085,"켝":5086,"켠":5087,"켤":5088,"켬":5089,"켭":5090,"켯":5091,"켰":5092,"켱":5093,"켴":5094,"켸":5095,"코":5096,"콕":5097,"콘":5098,"콜":5099,"콤":5100,"콥":5101,"콧":5102,"콩":5103,"콬":5104,"콰":5105,"콱":5106,"콴":5107,"콸":5108,"쾃":5109,"쾅":5110,"쾌":5111,"쾡":5112,"쾨":5113,"쾰":5114,"쿄":5115,"쿅":5116,"쿕":5117,"쿗":5118,"쿙":5119,"쿜":5120,"쿠":5121,"쿡":5122,"쿤":5123,"쿨":5124,"쿰":5125,"쿱":5126,"쿳":5127,"쿵":5128,"쿸":5129,"쿼":5130,"퀀":5131,"퀄":5132,"퀏":5133,"퀘":5134,"퀭":5135,"퀴":5136,"퀵":5137,"퀸":5138,"퀼":5139,"큅":5140,"큇":5141,"큉":5142,"큐":5143,"큔":5144,"큘":5145,"큠":5146,"큡":5147,"큥":5148,"큨":5149,"큩":5150,"크":5151,"큭":5152,"큰":5153,"클":5154,"큼":5155,"큽":5156,"큿":5157,"킁":5158,"킄":5159,"킅":5160,"킈":5161,"킝":5162,"키":5163,"킥":5164,"킨":5165,"킬":5166,"킴":5167,"킵":5168,"킷":5169,"킹":5170,"킼":5171,"킿":5172,"타":5173,"탁":5174,"탂":5175,"탄":5176,"탆":5177,"탇":5178,"탈":5179,"탉":5180,"탐":5181,"탑":5182,"탓":5183,"탔":5184,"탕":5185,"탖":5186,"탘":5187,"탙":5188,"탛":5189,"태":5190,"택":5191,"탠":5192,"탣":5193,"탤":5194,"탬":5195,"탭":5196,"탯":5197,"탰":5198,"탱":5199,"탴":5200,"탸":5201,"탹":5202,"턍":5203,"터":5204,"턱":5205,"턴":5206,"털":5207,"텀":5208,"텁":5209,"텃":5210,"텄":5211,"텅":5212,"텆":5213,"텈":5214,"테":5215,"텍":5216,"텐":5217,"텓":5218,"텔":5219,"템":5220,"텝":5221,"텟":5222,"텡":5223,"텤":5224,"텨":5225,"텻":5226,"텼":5227,"텽":5228,"톄":5229,"톈":5230,"토":5231,"톡":5232,"톤":5233,"톧":5234,"톨":5235,"톰":5236,"톱":5237,"톳":5238,"통":5239,"톸":5240,"톺":5241,"톼":5242,"퇄":5243,"퇘":5244,"퇴":5245,"퇵":5246,"퇼":5247,"툇":5248,"툐":5249,"툥":5250,"투":5251,"툭":5252,"툰":5253,"툴":5254,"툼":5255,"툽":5256,"퉁":5257,"퉄":5258,"퉈":5259,"퉜":5260,"퉤":5261,"퉷":5262,"튀":5263,"튄":5264,"튈":5265,"튐":5266,"튕":5267,"튜":5268,"튠":5269,"튤":5270,"튬":5271,"튭":5272,"튱":5273,"트":5274,"특":5275,"튼":5276,"튽":5277,"튿":5278,"틀":5279,"틈":5280,"틉":5281,"틋":5282,"틍":5283,"틐":5284,"틑":5285,"틔":5286,"틧":5287,"티":5288,"틱":5289,"틴":5290,"틷":5291,"틸":5292,"팀":5293,"팁":5294,"팃":5295,"팅":5296,"팈":5297,"파":5298,"팍":5299,"팎":5300,"판":5301,"팓":5302,"팔":5303,"팜":5304,"팝":5305,"팟":5306,"팠":5307,"팡":5308,"팢":5309,"팤":5310,"팥":5311,"팦":5312,"팧":5313,"패":5314,"팩":5315,"팬":5316,"팯":5317,"팰":5318,"팸":5319,"팹":5320,"팻":5321,"팼":5322,"팽":5323,"퍀":5324,"퍄":5325,"퍅":5326,"퍈":5327,"퍙":5328,"퍼":5329,"퍽":5330,"펀":5331,"펄":5332,"펌":5333,"펍":5334,"펏":5335,"펐":5336,"펑":5337,"펔":5338,"페":5339,"펙":5340,"펜":5341,"펠":5342,"펨":5343,"펩":5344,"펫":5345,"펭":5346,"펰":5347,"펴":5348,"편":5349,"펼":5350,"폄":5351,"폇":5352,"폈":5353,"평":5354,"폐":5355,"폔":5356,"포":5357,"폭":5358,"폰":5359,"폴":5360,"폼":5361,"폽":5362,"폿":5363,"퐁":5364,"퐄":5365,"퐈":5366,"퐉":5367,"퐝":5368,"푀":5369,"표":5370,"푠":5371,"푯":5372,"푱":5373,"푴":5374,"푸":5375,"푹":5376,"푼":5377,"풀":5378,"풂":5379,"품":5380,"풉":5381,"풋":5382,"풍":5383,"풓":5384,"풔":5385,"풰":5386,"풱":5387,"퓌":5388,"퓔":5389,"퓨":5390,"퓬":5391,"퓰":5392,"퓸":5393,"퓽":5394,"픂":5395,"프":5396,"픅":5397,"픈":5398,"플":5399,"픔":5400,"픕":5401,"픙":5402,"픜":5403,"픟":5404,"픠":5405,"피":5406,"픽":5407,"핀":5408,"핃":5409,"필":5410,"핌":5411,"핍":5412,"핏":5413,"핑":5414,"핔":5415,"핗":5416,"하":5417,"학":5418,"한":5419,"핝":5420,"핞":5421,"핟":5422,"할":5423,"핡":5424,"핢":5425,"핥":5426,"핧":5427,"함":5428,"합":5429,"핫":5430,"핬":5431,"항":5432,"핮":5433,"핰":5434,"핱":5435,"핳":5436,"해":5437,"핵":5438,"핶":5439,"핸":5440,"핻":5441,"핼":5442,"햄":5443,"햅":5444,"햇":5445,"했":5446,"행":5447,"햊":5448,"햌":5449,"햍":5450,"햎":5451,"햏":5452,"햐":5453,"햑":5454,"햔":5455,"햘":5456,"햝":5457,"햠":5458,"햣":5459,"햤":5460,"향":5461,"햨":5462,"햬":5463,"햿":5464,"헀":5465,"허":5466,"헉":5467,"헌":5468,"헏":5469,"헐":5470,"헑":5471,"헗":5472,"험":5473,"헙":5474,"헛":5475,"헝":5476,"헠":5477,"헡":5478,"헣":5479,"헤":5480,"헥":5481,"헨":5482,"헬":5483,"헴":5484,"헵":5485,"헷":5486,"헸":5487,"헹":5488,"헼":5489,"헿":5490,"혀":5491,"혁":5492,"현":5493,"혈":5494,"혐":5495,"협":5496,"혓":5497,"혔":5498,"형":5499,"혘":5500,"혜":5501,"호":5502,"혹":5503,"혼":5504,"혿":5505,"홀":5506,"홈":5507,"홉":5508,"홋":5509,"홍":5510,"홐":5511,"홑":5512,"홓":5513,"화":5514,"확":5515,"환":5516,"홛":5517,"활":5518,"홤":5519,"홥":5520,"홧":5521,"황":5522,"홬":5523,"홯":5524,"홰":5525,"홱":5526,"횃":5527,"회":5528,"획":5529,"횐":5530,"횔":5531,"횟":5532,"횡":5533,"횤":5534,"효":5535,"횬":5536,"횸":5537,"횻":5538,"횽":5539,"훃":5540,"후":5541,"훅":5542,"훈":5543,"훌":5544,"훑":5545,"훔":5546,"훕":5547,"훗":5548,"훙":5549,"훜":5550,"훟":5551,"훠":5552,"훤":5553,"훨":5554,"훵":5555,"훼":5556,"휀":5557,"휑":5558,"휘":5559,"휙":5560,"휜":5561,"휠":5562,"휨":5563,"휩":5564,"휫":5565,"휭":5566,"휴":5567,"휵":5568,"휸":5569,"휼":5570,"흄":5571,"흉":5572,"흌":5573,"흏":5574,"흐":5575,"흑":5576,"흔":5577,"흗":5578,"흘":5579,"흙":5580,"흠":5581,"흡":5582,"흣":5583,"흥":5584,"흨":5585,"흩":5586,"흫":5587,"희":5588,"흰":5589,"흴":5590,"흼":5591,"힁":5592,"힇":5593,"히":5594,"힉":5595,"힌":5596,"힐":5597,"힘":5598,"힙":5599,"힛":5600,"힜":5601,"힝":5602,"힞":5603,"힠":5604,"힢":5605,"힣":5606,"金":5607,"羅":5608,"樂":5609,"落":5610,"亂":5611,"蘭":5612,"冷":5613,"勞":5614,"盧":5615,"老":5616,"綠":5617,"論":5618,"樂":5619,"寧":5620,"率":5621,"復":5622,"不":5623,"沈":5624,"兩":5625,"梁":5626,"良":5627,"量":5628,"女":5629,"旅":5630,"年":5631,"聯":5632,"蓮":5633,"連":5634,"令":5635,"瑩":5636,"靈":5637,"禮":5638,"遼":5639,"龍":5640,"劉":5641,"柳":5642,"流":5643,"六":5644,"陸":5645,"律":5646,"利":5647,"李":5648,"梨":5649,"理":5650,"離":5651,"林":5652,"臨":5653,"立":5654,"茶":5655,"宅":5656,"暴":5657,"︎":5658,"️":5659,"︠":5660,"︡":5661,"︿":5662,"﹏":5663,"！":5664,"＂":5665,"＃":5666,"％":5667,"＆":5668,"＇":5669,"（":5670,"）":5671,"＊":5672,"＋":5673,"，":5674,"－":5675,"．":5676,"０":5677,"１":5678,"２":5679,"：":5680,"＜":5681,"＝":5682,"＞":5683,"？":5684,"＼":5685,"＾":5686,"＿":5687,"｀":5688,"ｇ":5689,"ｍ":5690,"ｔ":5691,"ｗ":5692,"｜":5693,"～":5694,"｡":5695,"･":5696,"ｦ":5697,"ﾉ":5698,"ﾟ":5699,"￣":5700,"￼":5701,"𐌅":5702,"𐨛":5703,"𓂃":5704,"𓂭":5705,"𓂻":5706,"𖤐":5707,"𝒮":5708,"𝒶":5709,"𝒷":5710,"𝒾":5711,"𝓁":5712,"𝕊":5713,"𝘼":5714,"𝘽":5715,"𝘾":5716,"𝙃":5717,"𝙄":5718,"𝙅":5719,"𝙇":5720,"𝙈":5721,"𝙉":5722,"𝙊":5723,"𝙎":5724,"𝙖":5725,"𝙣":5726,"𝙤":5727,"🅲":5728,"🅷":5729,"🅸":5730,"🅼":5731,"🅽":5732,"🇦":5733,"🇧":5734,"🇰":5735,"🇲":5736,"🇷":5737,"🇸":5738,"🇺":5739,"🌀":5740,"🌈":5741,"🌊":5742,"🌙":5743,"🌚":5744,"🌝":5745,"🌞":5746,"🌟":5747,"🌱":5748,"🌶":5749,"🌷":5750,"🌸":5751,"🌹":5752,"🌺":5753,"🌻":5754,"🌼":5755,"🌿":5756,"🍀":5757,"🍂":5758,"🍃":5759,"🍆":5760,"🍇":5761,"🍊":5762,"🍎":5763,"🍏":5764,"🍑":5765,"🍒":5766,"🍓":5767,"🍔":5768,"🍕":5769,"🍗":5770,"🍚":5771,"🍠":5772,"🍦":5773,"🍫":5774,"🍯":5775,"🍳":5776,"🍺":5777,"🍻":5778,"🎀":5779,"🎁":5780,"🎂":5781,"🎄":5782,"🎅":5783,"🎈":5784,"🎉":5785,"🎊":5786,"🎤":5787,"🎨":5788,"🎵":5789,"🎶":5790,"🏃":5791,"🏻":5792,"🏼":5793,"🏽":5794,"🏿":5795,"🐈":5796,"🐍":5797,"🐒":5798,"🐔":5799,"🐕":5800,"🐖":5801,"🐝":5802,"🐟":5803,"🐣":5804,"🐥":5805,"🐦":5806,"🐬":5807,"🐯":5808,"🐰":5809,"🐱":5810,"🐶":5811,"🐷":5812,"🐸":5813,"🐻":5814,"🐽":5815,"👀":5816,"👁":5817,"👇":5818,"👈":5819,"👉":5820,"👊":5821,"👋":5822,"👌":5823,"👍":5824,"👎":5825,"👏":5826,"👐":5827,"👤":5828,"👥":5829,"👦":5830,"👧":5831,"👨":5832,"👩":5833,"👶":5834,"👻":5835,"💃":5836,"💋":5837,"💌":5838,"💎":5839,"💏":5840,"💐":5841,"💓":5842,"💕":5843,"💖":5844,"💗":5845,"💘":5846,"💙":5847,"💚":5848,"💛":5849,"💜":5850,"💝":5851,"💞":5852,"💟":5853,"💡":5854,"💢":5855,"💤":5856,"💥":5857,"💦":5858,"💧":5859,"💨":5860,"💩":5861,"💪":5862,"💫":5863,"💯":5864,"💰":5865,"💸":5866,"📌":5867,"📍":5868,"📚":5869,"📝":5870,"📢":5871,"📣":5872,"🔊":5873,"🔥":5874,"🔪":5875,"🔫":5876,"🕺":5877,"🖐":5878,"🖕":5879,"🖤":5880,"🗣":5881,"😀":5882,"😁":5883,"😂":5884,"😃":5885,"😄":5886,"😅":5887,"😆":5888,"😇":5889,"😈":5890,"😉":5891,"😊":5892,"😋":5893,"😌":5894,"😍":5895,"😎":5896,"😏":5897,"😐":5898,"😑":5899,"😒":5900,"😓":5901,"😔":5902,"😕":5903,"😖":5904,"😗":5905,"😘":5906,"😙":5907,"😚":5908,"😛":5909,"😜":5910,"😝":5911,"😞":5912,"😟":5913,"😠":5914,"😡":5915,"😢":5916,"😣":5917,"😤":5918,"😥":5919,"😦":5920,"😧":5921,"😨":5922,"😩":5923,"😪":5924,"😫":5925,"😬":5926,"😭":5927,"😮":5928,"😯":5929,"😰":5930,"😱":5931,"😲":5932,"😳":5933,"😴":5934,"😵":5935,"😶":5936,"😷":5937,"😹":5938,"😻":5939,"😽":5940,"😿":5941,"🙀":5942,"🙁":5943,"🙂":5944,"🙃":5945,"🙄":5946,"🙅":5947,"🙆":5948,"🙇":5949,"🙈":5950,"🙉":5951,"🙊":5952,"🙋":5953,"🙌":5954,"🙏":5955,"🚢":5956,"🚨":5957,"🚰":5958,"🛳":5959,"🤍":5960,"🤎":5961,"🤑":5962,"🤓":5963,"🤔":5964,"🤗":5965,"🤘":5966,"🤙":5967,"🤚":5968,"🤝":5969,"🤟":5970,"🤢":5971,"🤣":5972,"🤤":5973,"🤥":5974,"🤦":5975,"🤧":5976,"🤨":5977,"🤩":5978,"🤪":5979,"🤫":5980,"🤬":5981,"🤭":5982,"🤮":5983,"🤯":5984,"🤷":5985,"🤸":5986,"🥊":5987,"🥔":5988,"🥕":5989,"🥰":5990,"🥱":5991,"🥲":5992,"🥳":5993,"🥴":5994,"🥵":5995,"🥶":5996,"🥺":5997,"🦅":5998,"🦊":5999,"🦟":6000,"🦦":6001,"🦲":6002,"🧐":6003,"🧚":6004,"🧡":6005,"🧸":6006,"##착":6007,"##하":6008,"##ㄱ":6009,"##병":6010,"##통":6011,"##현":6012,"##진":6013,"##좀":6014,"##생":6015,"##증":6016,"##주":6017,"##선":6018,"##필":6019,"##승":6020,"##대":6021,"##구":6022,"##리":6023,"##2":6024,"##0":6025,"##칼":6026,"##로":6027,"##먹":6028,"##쳐":6029,"##놧":6030,"##어":6031,"##서":6032,"##ㆍ":6033,"##토":6034,"##론":6035,"##논":6036,"##술":6037,"##기":6038,"##반":6039,"##내":6040,"##신":6041,"##싸":6042,"##가":6043,"##지":6044,"##ㅎ":6045,"##터":6046,"##덕":6047,"##덜":6048,"##1":6049,"##5":6050,"##4":6051,"##만":6052,"##명":6053,"##싴":6054,"##ㅋ":6055,"##래":6056,"##스":6057,"##트":6058,"##롤":6059,"##점":6060,"##풀":6061,"##행":6062,"##인":6063,"##넷":6064,"##관":6065,"##사":6066,"##같":6067,"##이":6068,"##볼":6069,"##수":6070,"##잇":6071,"##면":6072,"##ㅇ":6073,"##건":6074,"##뭐":6075,"##잘":6076,"##했":6077,"##개":6078,"##떡":6079,"##봉":6080,"##정":6081,"##린":6082,"##상":6083,"##업":6084,"##시":6085,"##설":6086,"##문":6087,"##효":6088,"##씨":6089,"##T":6090,"##B":6091,"##C":6092,"##방":6093,"##송":6094,"##당":6095,"##ㅠ":6096,"##나":6097,"##도":6098,"##고":6099,"##싶":6100,"##다":6101,"##장":6102,"##풍":6103,"##습":6104,"##큰":6105,"##것":6106,"##비":6107,"##ㅜ":6108,"##전":6109,"##거":6110,"##언":6111,"##제":6112,"##되":6113,"##ㅛ":6114,"##녀":6115,"##오":6116,"##갯":6117,"##낰":6118,"##와":6119,"##갈":6120,"##있":6121,"##디":6122,"##긴":6123,"##버":6124,"##안":6125,"##국":6126,"##학":6127,"##금":6128,"##f":6129,"##8":6130,"##l":6131,"##a":6132,"##절":6133,"##척":6134,"##추":6135,"##양":6136,"##얘":6137,"##M":6138,"##J":6139,"##케":6140,"##팅":6141,"##보":6142,"##라":6143,"##광":6144,"##A":6145,"##등":6146,"##급":6147,"##퓨":6148,"##과":6149,"##계":6150,"##열":6151,"##야":6152,"##모":6153,"##히":6154,"##6":6155,"##쁘":6156,"##갔":6157,"##온":6158,"##후":6159,"##박":6160,"##립":6161,"##마":6162,"##니":6163,"##위":6164,"##조":6165,"##아":6166,"##닐":6167,"##껄":6168,"##칸":6169,"##자":6170,"##동":6171,"##차":6172,"##성":6173,"##종":6174,"##력":6175,"##잉":6176,"##크":6177,"##분":6178,"##표":6179,"##능":6180,"##르":6181,"##쪽":6182,"##락":6183,"##해":6184,"##봣":6185,"##는":6186,"##유":6187,"##군":6188,"##저":6189,"##게":6190,"##3":6191,"##v":6192,"##괜":6193,"##춘":6194,"##한":6195,"##데":6196,"##회":6197,"##프":6198,"##그":6199,"##램":6200,"##져":6201,"##봐":6202,"##알":6203,"##싼":6204,"##셕":6205,"##씀":6206,"##ㅅ":6207,"##묶":6208,"##음":6209,"##본":6210,"##부":6211,"##낭":6212,"##e":6213,"##p":6214,"##s":6215,"##h":6216,"##i":6217,"##n":6218,"##k":6219,"##y":6220,"##번":6221,"##즈":6222,"##준":6223,"##못":6224,"##영":6225,"##찮":6226,"##눼":6227,"##젴":6228,"##짜":6229,"##피":6230,"##곧":6231,"##키":6232,"##세":6233,"##요":6234,"##귀":6235,"##→":6236,"##럼":6237,"##뒤":6238,"##려":6239,"##7":6240,"##9":6241,"##근":6242,"##페":6243,"##역":6244,"##우":6245,"##체":6246,"##런":6247,"##치":6248,"##러":6249,"##u":6250,"##노":6251,"##공":6252,"##궁":6253,"##화":6254,"##베":6255,"##특":6256,"##형":6257,"##납":6258,"##품":6259,"##띠":6260,"##바":6261,"##앙":6262,"##원":6263,"##두":6264,"##를":6265,"##갱":6266,"##냄":6267,"##새":6268,"##흥":6269,"##여":6270,"##단":6271,"##협":6272,"##의":6273,"##교":6274,"##뺘":6275,"##잣":6276,"##밥":6277,"##너":6278,"##무":6279,"##멍":6280,"##뭉":6281,"##맛":6282,"##용":6283,"##쓸":6284,"##꺼":6285,"##겠":6286,"##산":6287,"##강":6288,"##남":6289,"##중":6290,"##벤":6291,"##뷰":6292,"##센":6293,"##할":6294,"##울":6295,"##난":6296,"##났":6297,"##블":6298,"##드":6299,"##X":6300,"##옹":6301,"##깐":6302,"##들":6303,"##쪄":6304,"##홉":6305,"##달":6306,"##네":6307,"##견":6308,"##켕":6309,"##운":6310,"##적":6311,"##뷔":6312,"##곤":6313,"##레":6314,"##독":6315,"##천":6316,"##닝":6317,"##말":6318,"##D":6319,"##재":6320,"##랰":6321,"##멀":6322,"##포":6323,"##밍":6324,"##돈":6325,"##림":6326,"##싿":6327,"##둥":6328,"##소":6329,"##땡":6330,"##까":6331,"##G":6332,"##껴":6333,"##써":6334,"##발":6335,"##획":6336,"##총":6337,"##빠":6338,"##믹":6339,"##삼":6340,"##법":6341,"##커":6342,"##때":6343,"##매":6344,"##더":6345,"##댐":6346,"##흑":6347,"##돼":6348,"##염":6349,"##망":6350,"##물":6351,"##억":6352,"##옴":6353,"##에":6354,"##큐":6355,"##티":6356,"##브":6357,"##켓":6358,"##복":6359,"##굴":6360,"##ㅓ":6361,"##q":6362,"##z":6363,"##r":6364,"##괴":6365,"##움":6366,"##짤":6367,"##왓":6368,"##출":6369,"##판":6370,"##규":6371,"##글":6372,"##쁜":6373,"##뽑":6374,"##앗":6375,"##던":6376,"##속":6377,"##돌":6378,"##료":6379,"##ㅡ":6380,"##슷":6381,"##듯":6382,"##왔":6383,"##섭":6384,"##챗":6385,"##챠":6386,"##책":6387,"##줄":6388,"##쭉":6389,"##몰":6390,"##캡":6391,"##펔":6392,"##객":6393,"##임":6394,"##갉":6395,"##픈":6396,"##껀":6397,"##따":6398,"##곰":6399,"##감":6400,"##d":6401,"##뛸":6402,"##챙":6403,"##겨":6404,"##E":6405,"##워":6406,"##간":6407,"##픽":6408,"##타":6409,"##각":6410,"##없":6411,"##애":6412,"##완":6413,"##윈":6414,"##짭":6415,"##♡":6416,"##함":6417,"##ㄲ":6418,"##쿼":6419,"##연":6420,"##맹":6421,"##메":6422,"##빈":6423,"##된":6424,"##힘":6425,"##넴":6426,"##투":6427,"##ㅏ":6428,"##민":6429,"##환":6430,"##받":6431,"##＋":6432,"##즁":6433,"##일":6434,"##릴":6435,"##붙":6436,"##넣":6437,"##ㅐ":6438,"##루":6439,"##험":6440,"##ㅑ":6441,"##미":6442,"##직":6443,"##걱":6444,"##월":6445,"##콘":6446,"##퍼":6447,"##벽":6448,"##줘":6449,"##실":6450,"##컵":6451,"##릉":6452,"##낱":6453,"##머":6454,"##엄":6455,"##청":6456,"##살":6457,"##른":6458,"##웃":6459,"##곀":6460,"##묭":6461,"##늦":6462,"##변":6463,"##경":6464,"##창":6465,"##잌":6466,"##탑":6467,"##긱":6468,"##년":6469,"##호":6470,"##색":6471,"##멘":6472,"##느":6473,"##낌":6474,"##파":6475,"##먼":6476,"##푸":6477,"##손":6478,"##질":6479,"##택":6480,"##떳":6481,"##ㅌ":6482,"##또":6483,"##층":6484,"##걸":6485,"##o":6486,"##m":6487,"##째":6488,"##ㅔ":6489,"##갖":6490,"##충":6491,"##든":6492,"##빵":6493,"##김":6494,"##턱":6495,"##휴":6496,"##캬":6497,"##집":6498,"##팔":6499,"##으":6500,"##약":6501,"##친":6502,"##L":6503,"##K":6504,"##b":6505,"##맞":6506,"##춰":6507,"##끈":6508,"##랭":6509,"##존":6510,"##쇼":6511,"##핑":6512,"##왕":6513,"##참":6514,"##육":6515,"##곸":6516,"##즘":6517,"##헐":6518,"##∼":6519,"##겡":6520,"##듣":6521,"##낀":6522,"##텐":6523,"##츠":6524,"##떠":6525,"##날":6526,"##떄":6527,"##잠":6528,"##엿":6529,"##탄":6530,"##접":6531,"##식":6532,"##측":6533,"##췄":6534,"##카":6535,"##잡":6536,"##얔":6537,"##범":6538,"##쓰":6539,"##왜":6540,"##똥":6541,"##태":6542,"##잦":6543,"##끝":6544,"##섯":6545,"##빚":6546,"##닉":6547,"##넹":6548,"##철":6549,"##븐":6550,"##눈":6551,"##올":6552,"##엠":6553,"##처":6554,"##례":6555,"##빔":6556,"##곳":6557,"##텔":6558,"##쉐":6559,"##뎃":6560,"##배":6561,"##밌":6562,"##초":6563,"##꼬":6564,"##🔥":6565,"##t":6566,"##렇":6567,"##편":6568,"##패":6569,"##댕":6570,"##떨":6571,"##엔":6572,"##냐":6573,"##얼":6574,"##권":6575,"##😥":6576,"##슴":6577,"##졌":6578,"##럽":6579,"##팸":6580,"##삿":6581,"##똑":6582,"##팩":6583,"##떤":6584,"##합":6585,"##졋":6586,"##욬":6587,"##평":6588,"##냥":6589,"##순":6590,"##입":6591,"##닌":6592,"##랬":6593,"##덩":6594,"##밖":6595,"##떻":6596,"##농":6597,"##길":6598,"##짝":6599,"##쥬":6600,"##탈":6601,"##펄":6602,"##칭":6603,"##O":6604,"##목":6605,"##줬":6606,"##ㅊ":6607,"##별":6608,"##테":6609,"##멜":6610,"##축":6611,"##향":6612,"##쩡":6613,"##랐":6614,"##벅":6615,"##탐":6616,"##넘":6617,"##룡":6618,"##띤":6619,"##웅":6620,"##찍":6621,"##웟":6622,"##㎡":6623,"##깜":6624,"##켄":6625,"##갓":6626,"##웹":6627,"##툰":6628,"##멋":6629,"##북":6630,"##작":6631,"##끼":6632,"##썽":6633,"##팀":6634,"##액":6635,"##솥":6636,"##링":6637,"##앖":6638,"##록":6639,"##균":6640,"##닮":6641,"##뱡":6642,"##클":6643,"##릭":6644,"##ｔ":6645,"##검":6646,"##찹":6647,"##률":6648,"##셨":6649,"##채":6650,"##널":6651,"##슬":6652,"##뜨":6653,"##킈":6654,"##션":6655,"##많":6656,"##닼":6657,"##암":6658,"##멉":6659,"##취":6660,"##람":6661,"##깃":6662,"##털":6663,"##죽":6664,"##셈":6665,"##랑":6666,"##찡":6667,"##ㅣ":6668,"##예":6669,"##냑":6670,"##햇":6671,"##됐":6672,"##댱":6673,"##낚":6674,"##담":6675,"##쌤":6676,"##름":6677,"##윤":6678,"##숙":6679,"##봄":6680,"##템":6681,"##딸":6682,"##란":6683,"##찬":6684,"##심":6685,"##왘":6686,"##빧":6687,"##렌":6688,"##Y":6689,"##R":6690,"##c":6691,"##킹":6692,"##뜬":6693,"##격":6694,"##윗":6695,"##석":6696,"##눠":6697,"##섬":6698,"##켰":6699,"##찢":6700,"##섹":6701,"##돨":6702,"##ㅆ":6703,"##팜":6704,"##ㄷ":6705,"##＝":6706,"##뭘":6707,"##죠":6708,"##탁":6709,"##량":6710,"##몀":6711,"##셜":6712,"##슐":6713,"##뼈":6714,"##↑":6715,"##걷":6716,"##튀":6717,"##럭":6718,"##갤":6719,"##벌":6720,"##놓":6721,"##탕":6722,"##확":6723,"##압":6724,"##핵":6725,"##썰":6726,"##뀌":6727,"##딱":6728,"##코":6729,"##첨":6730,"##벼":6731,"##결":6732,"##옌":6733,"##폰":6734,"##귄":6735,"##꾸":6736,"##쌩":6737,"##쿠":6738,"##ㄴ":6739,"##닭":6740,"##캐":6741,"##막":6742,"##껌":6743,"##땐":6744,"##잔":6745,"##빅":6746,"##낼":6747,"##꿈":6748,"##응":6749,"##쉬":6750,"##U":6751,"##융":6752,"##덤":6753,"##g":6754,"##w":6755,"##랫":6756,"##렸":6757,"##V":6758,"##둔":6759,"##슨":6760,"##쪼":6761,"##꿔":6762,"##누":6763,"##웠":6764,"##최":6765,"##괄":6766,"##십":6767,"##쟤":6768,"##솔":6769,"##빡":6770,"##침":6771,"##텍":6772,"##I":6773,"##첬":6774,"##었":6775,"##맙":6776,"##몇":6777,"##을":6778,"##뻑":6779,"##켜":6780,"##봤":6781,"##댘":6782,"##띰":6783,"##됨":6784,"##쮸":6785,"##높":6786,"##불":6787,"##팰":6788,"##좌":6789,"##맨":6790,"##빼":6791,"##롱":6792,"##류":6793,"##뜸":6794,"##딘":6795,"##흐":6796,"##♥":6797,"##땅":6798,"##끄":6799,"##뀐":6800,"##맂":6801,"##뎈":6802,"##튜":6803,"##븡":6804,"##띵":6805,"##앰":6806,"##웍":6807,"##㈜":6808,"##플":6809,"##족":6810,"##늘":6811,"##쫌":6812,"##ㄹ":6813,"##뭔":6814,"##읁":6815,"##곱":6816,"##x":6817,"##촌":6818,"##짘":6819,"##뿌":6820,"##햄":6821,"##줌":6822,"##혼":6823,"##딩":6824,"##랍":6825,"##엑":6826,"##윌":6827,"##낙":6828,"##ㅕ":6829,"##틀":6830,"##뒈":6831,"##킬":6832,"##엌":6833,"##둨":6834,"##핀":6835,"##찻":6836,"##컴":6837,"##렉":6838,"##찾":6839,"##ㅁ":6840,"##촨":6841,"##샹":6842,"##겤":6843,"##짆":6844,"##득":6845,"##홍":6846,"##놈":6847,"##렀":6848,"##첫":6849,"##맬":6850,"##밴":6851,"##쿵":6852,"##푼":6853,"##셔":6854,"##셀":6855,"##쌀":6856,"##됏":6857,"##뇌":6858,"##죄":6859,"##은":6860,"##밀":6861,"##ㅈ":6862,"##얄":6863,"##곶":6864,"##됫":6865,"##욕":6866,"##극":6867,"##골":6868,"##놨":6869,"##뻔":6870,"##맥":6871,"##엇":6872,"##뎅":6873,"##외":6874,"##좋":6875,"##렴":6876,"##멸":6877,"##쳤":6878,"##혜":6879,"##익":6880,"##읹":6881,"##곡":6882,"##뻐":6883,"##슉":6884,"##령":6885,"##꽃":6886,"##퇴":6887,"##둘":6888,"##셋":6889,"##섴":6890,"##쵸":6891,"##찰":6892,"##숭":6893,"##ㅍ":6894,"##값":6895,"##쟁":6896,"##옵":6897,"##룩":6898,"##흗":6899,"##H":6900,"##옜":6901,"##륵":6902,"##ㅒ":6903,"##겁":6904,"##톡":6905,"##빨":6906,"##렬":6907,"##얌":6908,"##율":6909,"##F":6910,"##헤":6911,"##뿅":6912,"##싯":6913,"##겟":6914,"##뮤":6915,"##컬":6916,"##징":6917,"##허":6918,"##뚕":6919,"##샀":6920,"##냠":6921,"##님":6922,"##깅":6923,"##슺":6924,"##맵":6925,"##돔":6926,"##뛰":6927,"##펀":6928,"##랜":6929,"##럴":6930,"##떼":6931,"##❤":6932,"##😭":6933,"##졸":6934,"##큼":6935,"##묜":6936,"##옥":6937,"##잨":6938,"##춥":6939,"##촬":6940,"##콩":6941,"##혐":6942,"##뽕":6943,"##앤":6944,"##희":6945,"##련":6946,"##옆":6947,"##딴":6948,"##찌":6949,"##앨":6950,"##샤":6951,"##쯔":6952,"##듀":6953,"##깔":6954,"##웤":6955,"##넬":6956,"##될":6957,"##항":6958,"##혀":6959,"##쿨":6960,"##ㅂ":6961,"##갑":6962,"##놐":6963,"##몬":6964,"##챔":6965,"##묵":6966,"##밤":6967,"##혁":6968,"##싄":6969,"##헀":6970,"##넌":6971,"##탛":6972,"##녜":6973,"##답":6974,"##폴":6975,"##댄":6976,"##짐":6977,"##렘":6978,"##️":6979,"##콜":6980,"##롬":6981,"##젠":6982,"##킨":6983,"##됴":6984,"##넝":6985,"##꾹":6986,"##멈":6987,"##샵":6988,"##켘":6989,"##념":6990,"##끌":6991,"##깨":6992,"##웋":6993,"##쳣":6994,"##뜰":6995,"##뮬":6996,"##숴":6997,"##돜":6998,"##⚡":6999,"##✋":7000,"##컷":7001,"##뿐":7002,"##Q":7003,"##활":7004,"##힌":7005,"##젱":7006,"##쨔":7007,"##엽":7008,"##됌":7009,"##톨":7010,"##훔":7011,"##뱃":7012,"##겻":7013,"##숑":7014,"##앸":7015,"##렙":7016,"##녁":7017,"##옸":7018,"##톤":7019,"##둬":7020,"##🙂":7021,"##헿":7022,"##짓":7023,"##썹":7024,"##😍":7025,"##붕":7026,"##줭":7027,"##뵛":7028,"##곽":7029,"##뀰":7030,"##쏘":7031,"##벙":7032,"##였":7033,"##쒀":7034,"##밸":7035,"##줰":7036,"##혈":7037,"##♀":7038,"##앞":7039,"##홀":7040,"##릇":7041,"##켯":7042,"##̆":7043,"##̈":7044,"##략":7045,"##뤼":7046,"##찝":7047,"##줔":7048,"##쨀":7049,"##▷":7050,"##됮":7051,"##Z":7052,"##팡":7053,"##릿":7054,"##랏":7055,"##맣":7056,"##닠":7057,"##녹":7058,"##았":7059,"##숱":7060,"##힞":7061,"##j":7062,"##햌":7063,"##삶":7064,"##틱":7065,"##㎜":7066,"##P":7067,"##쓴":7068,"##롭":7069,"##믿":7070,"##졍":7071,"##눌":7072,"##엉":7073,"##컨":7074,"##킥":7075,"##슥":7076,"##롣":7077,"##깻":7078,"##댜":7079,"##엘":7080,"##즙":7081,"##싫":7082,"##껍":7083,"##룹":7084,"##웨":7085,"##꽈":7086,"##헌":7087,"##닫":7088,"##흘":7089,"##며":7090,"##읽":7091,"##겅":7092,"##왤":7093,"##픟":7094,"##쑴":7095,"##찐":7096,"##댓":7097,"##킵":7098,"##깤":7099,"##촉":7100,"##뎔":7101,"##찜":7102,"##👍":7103,"##욱":7104,"##놀":7105,"##삐":7106,"##N":7107,"##끓":7108,"##백":7109,"##훈":7110,"##렛":7111,"##므":7112,"##옿":7113,"##께":7114,"##룽":7115,"##델":7116,"##잼":7117,"##뺀":7118,"##봅":7119,"##밐":7120,"##💗":7121,"##넼":7122,"##넥":7123,"##갠":7124,"##굿":7125,"##옼":7126,"##됩":7127,"##냉":7128,"##㎞":7129,"##먄":7130,"##힐":7131,"##냨":7132,"##홈":7133,"##꿧":7134,"##풔":7135,"##궈":7136,"##섶":7137,"##랔":7138,"##폼":7139,"##깊":7140,"##몸":7141,"##빳":7142,"##쉴":7143,"##쩐":7144,"##㎒":7145,"##녕":7146,"##앆":7147,"##빌":7148,"##닏":7149,"##탔":7150,"##봥":7151,"##쩜":7152,"##뉑":7153,"##킼":7154,"##앜":7155,"##헝":7156,"##☺":7157,"##긐":7158,"##푹":7159,"##쿄":7160,"##쿜":7161,"##꿀":7162,"##팁":7163,"##썸":7164,"##몽":7165,"##짱":7166,"##츙":7167,"##첵":7168,"##앚":7169,"##뚝":7170,"##빜":7171,"##땨":7172,"##홥":7173,"##겔":7174,"##S":7175,"##헷":7176,"##긍":7177,"##퀴":7178,"##쩍":7179,"##껏":7180,"##돞":7181,"##악":7182,"##썩":7183,"##걔":7184,"##갸":7185,"##²":7186,"##엥":7187,"##겼":7188,"##팠":7189,"##뤄":7190,"##뒀":7191,"##혓":7192,"##롴":7193,"##췌":7194,"##뉴":7195,"##닦":7196,"##턴":7197,"##옷":7198,"##닙":7199,"##㏊":7200,"##혹":7201,"##랄":7202,"##뀨":7203,"##핳":7204,"##냈":7205,"##걍":7206,"##횟":7207,"##볶":7208,"##뱅":7209,"##밬":7210,"##탸":7211,"##깉":7212,"##뺌":7213,"##퉁":7214,"##겸":7215,"##삭":7216,"##팟":7217,"##렷":7218,"##횡":7219,"##늠":7220,"##쌍":7221,"##탯":7222,"##롯":7223,"##홑":7224,"##귕":7225,"##덥":7226,"##벵":7227,"##얇":7228,"##닾":7229,"##짹":7230,"##헬":7231,"##멧":7232,"##쭘":7233,"##💕":7234,"##❣":7235,"##맑":7236,"##ᆢ":7237,"##×":7238,"##깟":7239,"##뤈":7240,"##😇":7241,"##콕":7242,"##꼇":7243,"##잖":7244,"##렵":7245,"##즌":7246,"##썬":7247,"##✨":7248,"##💪":7249,"##갗":7250,"##땽":7251,"##렼":7252,"##쭁":7253,"##뷱":7254,"##닥":7255,"##딧":7256,"##잏":7257,"##놔":7258,"##썼":7259,"##겄":7260,"##냘":7261,"##🥕":7262,"##츌":7263,"##딜":7264,"##씸":7265,"##줴":7266,"##쳥":7267,"##잊":7268,"##귝":7269,"##갬":7270,"##밭":7271,"##칠":7272,"##굼":7273,"##😆":7274,"##캠":7275,"##졈":7276,"##쿡":7277,"##냡":7278,"##뚜":7279,"##찔":7280,"##힝":7281,"##쑥":7282,"##な":7283,"##っ":7284,"##て":7285,"##く":7286,"##섞":7287,"##웡":7288,"##싣":7289,"##췃":7290,"##섵":7291,"##떵":7292,"##얀":7293,"##펜":7294,"##듬":7295,"##죱":7296,"##앟":7297,"##빙":7298,"##눔":7299,"##뽀":7300,"##땜":7301,"##쩔":7302,"##㉻":7303,"##뵈":7304,"##낸":7305,"##ㅗ":7306,"##묘":7307,"##칮":7308,"##깍":7309,"##왂":7310,"##돚":7311,"##랳":7312,"##렁":7313,"##둑":7314,"##윳":7315,"##냅":7316,"##읻":7317,"##챌":7318,"##헣":7319,"##궛":7320,"##셉":7321,"##뢰":7322,"##̑":7323,"##씌":7324,"##뺄":7325,"##밟":7326,"##쓔":7327,"##랙":7328,"##햐":7329,"##룸":7330,"##첩":7331,"##쌈":7332,"##썜":7333,"##굣":7334,"##늗":7335,"##엨":7336,"##④":7337,"##샷":7338,"##딥":7339,"##칙":7340,"##웈":7341,"##젼":7342,"##갰":7343,"##황":7344,"##뜩":7345,"##뭏":7346,"##폐":7347,"##쇄":7348,"##뗘":7349,"##늕":7350,"##맡":7351,"##휘":7352,"##★":7353,"##앵":7354,"##텅":7355,"##샥":7356,"##끔":7357,"##멷":7358,"##돋":7359,"##👊":7360,"##🏻":7361,"##랗":7362,"##ㅚ":7363,"##낔":7364,"##뺴":7365,"##흠":7366,"##닷":7367,"##짴":7368,"##텼":7369,"##렿":7370,"##쪙":7371,"##츤":7372,"##츈":7373,"##덴":7374,"##왁":7375,"##폭":7376,"##킴":7377,"##겈":7378,"##눙":7379,"##쑤":7380,"##읍":7381,"##꼴":7382,"##픔":7383,"##묯":7384,"##줚":7385,"##¸":7386,"##엎":7387,"##븉":7388,"##뚫":7389,"##밑":7390,"##팝":7391,"##앉":7392,"##낄":7393,"##틈":7394,"##셤":7395,"##숟":7396,"##툴":7397,"##쩌":7398,"##샌":7399,"##핫":7400,"##벗":7401,"##욜":7402,"##잤":7403,"##뺑":7404,"##잎":7405,"##긶":7406,"##읗":7407,"##벨":7408,"##슝":7409,"##쟝":7410,"##핰":7411,"##댴":7412,"##늬":7413,"##쟈":7414,"##싱":7415,"##숏":7416,"##쵝":7417,"##칩":7418,"##겹":7419,"##콤":7420,"##숨":7421,"##펌":7422,"##땀":7423,"##쌔":7424,"##쌰":7425,"##н":7426,"##а":7427,"##ч":7428,"##ь":7429,"##т":7430,"##е":7431,"##ᆞ":7432,"##쐈":7433,"##읶":7434,"##섷":7435,"##휩":7436,"##챈":7437,"##굔":7438,"##흔":7439,"##흰":7440,"##슌":7441,"##텀":7442,"##겜":7443,"##W":7444,"##엳":7445,"##🥰":7446,"##젖":7447,"##멕":7448,"##핸":7449,"##랩":7450,"##옄":7451,"##륜":7452,"##펏":7453,"##낮":7454,"##딤":7455,"##훤":7456,"##맘":7457,"##괘":7458,"##븜":7459,"##팬":7460,"##솨":7461,"##촤":7462,"##퀏":7463,"##뎌":7464,"##씩":7465,"##쁠":7466,"##팥":7467,"##쉽":7468,"##흉":7469,"##춍":7470,"##떰":7471,"##슈":7472,"##헨":7473,"##늑":7474,"##뤠":7475,"##긁":7476,"##낫":7477,"##숲":7478,"##｜":7479,"##△":7480,"##췬":7481,"##깆":7482,"##쥰":7483,"##쾌":7484,"##묻":7485,"##둠":7486,"##씹":7487,"##룰":7488,"##😓":7489,"##핟":7490,"##셰":7491,"##줫":7492,"##슙":7493,"##덬":7494,"##봨":7495,"##💖":7496,"##깬":7497,"##팢":7498,"##ට":7499,"##텁":7500,"##욘":7501,"##않":7502,"##꽉":7503,"##갚":7504,"##낳":7505,"##샘":7506,"##딬":7507,"##칫":7508,"##깝":7509,"##쥐":7510,"##잭":7511,"##ｇ":7512,"##젝":7513,"##🥲":7514,"##옇":7515,"##쌉":7516,"##펴":7517,"##틴":7518,"##걘":7519,"##샃":7520,"##넫":7521,"##욤":7522,"##😢":7523,"##꿋":7524,"##퓽":7525,"##♤":7526,"##뗭":7527,"##쉘":7528,"##쎀":7529,"##㎖":7530,"##앀":7531,"##텨":7532,"##앎":7533,"##뾰":7534,"##˘":7535,"##͈":7536,"##🧡":7537,"##팤":7538,"##춤":7539,"##흡":7540,"##얍":7541,"##냇":7542,"##얒":7543,"##귿":7544,"##믄":7545,"##갘":7546,"##륙":7547,"##ㅉ":7548,"##삘":7549,"##🥺":7550,"##됭":7551,"##떈":7552,"##닁":7553,"##튼":7554,"##겎":7555,"##욮":7556,"##늙":7557,"##끊":7558,"##캨":7559,"##뷴":7560,"##녑":7561,"##얻":7562,"##㎥":7563,"##쎈":7564,"##볃":7565,"##밋":7566,"##씻":7567,"##츄":7568,"##빛":7569,"##젇":7570,"##숩":7571,"##뜌":7572,"##떱":7573,"##쉰":7574,"##얗":7575,"##닺":7576,"##겪":7577,"##깁":7578,"##훼":7579,"##듐":7580,"##녓":7581,"##퀄":7582,"##멤":7583,"##젤":7584,"##맀":7585,"##듈":7586,"##틍":7587,"##샛":7588,"##넨":7589,"##깡":7590,"##똔":7591,"##숫":7592,"##～":7593,"##썻":7594,"##엡":7595,"##쭈":7596,"##꾼":7597,"##켈":7598,"##톱":7599,"##샅":7600,"##탱":7601,"##붘":7602,"##릎":7603,"##💛":7604,"##💚":7605,"##🤤":7606,"##짠":7607,"##잫":7608,"##뿔":7609,"##쫓":7610,"##콧":7611,"##💜":7612,"##삽":7613,"##븁":7614,"##댁":7615,"##젓":7616,"##퀘":7617,"##껑":7618,"##쯤":7619,"##줗":7620,"##릐":7621,"##뇨":7622,"##몈":7623,"##짖":7624,"##엏":7625,"##럿":7626,"##👏":7627,"##뤡":7628,"##⁺":7629,"##🤸":7630,"##곹":7631,"##쐴":7632,"##㎢":7633,"##꿰":7634,"##꽁":7635,"##죴":7636,"##쫄":7637,"##랠":7638,"##랴":7639,"##뤀":7640,"##꼭":7641,"##욥":7642,"##녔":7643,"##밧":7644,"##ｍ":7645,"##밨":7646,"##맄":7647,"##즐":7648,"##텈":7649,"##ㅙ":7650,"##젘":7651,"##뵤":7652,"##ㄸ":7653,"##쪘":7654,"##샴":7655,"##잃":7656,"##밈":7657,"##틸":7658,"##탓":7659,"##뽄":7660,"##킷":7661,"##렝":7662,"##뮈":7663,"##멓":7664,"##툼":7665,"##💓":7666,"##랼":7667,"##쿤":7668,"##뎀":7669,"##짬":7670,"##굳":7671,"##혿":7672,"##왱":7673,"##딕":7674,"##왠":7675,"##줜":7676,"##젊":7677,"##쿰":7678,"##렐":7679,"##긋":7680,"##궂":7681,"##쭝":7682,"##얏":7683,"##좔":7684,"##쎄":7685,"##꼼":7686,"##귴":7687,"##싷":7688,"##😯":7689,"##엪":7690,"##▼":7691,"##쫀":7692,"##룐":7693,"##긔":7694,"##츼":7695,"##듕":7696,"##칰":7697,"##🙆":7698,"##♂":7699,"##묨":7700,"##댔":7701,"##🤭":7702,"##룬":7703,"##쯉":7704,"##̎":7705,"##̊":7706,"##̌":7707,"##̄":7708,"##̐":7709,"##㎚":7710,"##릠":7711,"##퍄":7712,"##뇽":7713,"##に":7714,"##◆":7715,"##🙃":7716,"##넙":7717,"##⫬":7718,"##펑":7719,"##↗":7720,"##왴":7721,"##넛":7722,"##씯":7723,"##😳":7724,"##햊":7725,"##넵":7726,"##쥼":7727,"##캌":7728,"##툇":7729,"##헙":7730,"##햏":7731,"##뺏":7732,"##꼰":7733,"##맷":7734,"##갇":7735,"##윅":7736,"##핱":7737,"##럄":7738,"##궐":7739,"##텝":7740,"##팼":7741,"##슘":7742,"##뜻":7743,"##펠":7744,"##돾":7745,"##핬":7746,"##뎆":7747,"##슼":7748,"##🌸":7749,"##튕":7750,"##빴":7751,"##숰":7752,"##ㄺ":7753,"##랲":7754,"##맠":7755,"##쭙":7756,"##넜":7757,"##셌":7758,"##샸":7759,"##퓸":7760,"##쳑":7761,"##с":7762,"##벚":7763,"##뚀":7764,"##꽄":7765,"##빆":7766,"##맴":7767,"##뱌":7768,"##끗":7769,"##늄":7770,"##쓱":7771,"##😘":7772,"##뱍":7773,"##옮":7774,"##😖":7775,"##겆":7776,"##뽖":7777,"##탆":7778,"##꼈":7779,"##뎄":7780,"##및":7781,"##뚱":7782,"##뚬":7783,"##씡":7784,"##궄":7785,"##됬":7786,"##젋":7787,"##늉":7788,"##겢":7789,"##é":7790,"##즄":7791,"##튭":7792,"##떙":7793,"##롷":7794,"##탠":7795,"##핏":7796,"##덮":7797,"##좆":7798,"##꼽":7799,"##깈":7800,"##쌋":7801,"##쁨":7802,"##셩":7803,"##쟠":7804,"##쟘":7805,"##ㅢ":7806,"##껔":7807,"##숀":7808,"##샄":7809,"##륨":7810,"##헉":7811,"##뷸":7812,"##뀸":7813,"##꺽":7814,"##녾":7815,"##햣":7816,"##녘":7817,"##㎍":7818,"##캔":7819,"##㎏":7820,"##🐽":7821,"##🤮":7822,"##🤢":7823,"##뒹":7824,"##틷":7825,"##솰":7826,"##믐":7827,"##ᅵ":7828,"##ᄌ":7829,"##ᅡ":7830,"##ᆨ":7831,"##ᄒ":7832,"##ᅢ":7833,"##ᄇ":7834,"##ᅩ":7835,"##훌":7836,"##륭":7837,"##＞":7838,"##ど":7839,"##こ":7840,"##え":7841,"##い":7842,"##る":7843,"##쨩":7844,"##홧":7845,"##😄":7846,"##먿":7847,"##꿨":7848,"##퍽":7849,"##놩":7850,"##닽":7851,"##쉑":7852,"##옛":7853,"##쟜":7854,"##쏠":7855,"##놏":7856,"##꽤":7857,"##🚰":7858,"##뎡":7859,"##꿐":7860,"##뇹":7861,"##쾅":7862,"##뜯":7863,"##땁":7864,"##짇":7865,"##싹":7866,"##꽂":7867,"##뭄":7868,"##큘":7869,"##훟":7870,"##훅":7871,"##럇":7872,"##쳨":7873,"##돕":7874,"##빗":7875,"##😡":7876,"##쌐":7877,"##읋":7878,"##탭":7879,"##⃫":7880,"##겧":7881,"##훙":7882,"##맇":7883,"##쉼":7884,"##˝":7885,"##쳌":7886,"##뻣":7887,"##듄":7888,"##¯":7889,"##띄":7890,"##땈":7891,"##㎎":7892,"##겐":7893,"##뺐":7894,"##숌":7895,"##혔":7896,"##ㅘ":7897,"##닞":7898,"##쓐":7899,"##쐬":7900,"##샇":7901,"##캤":7902,"##쏴":7903,"##🥴":7904,"##😋":7905,"##셍":7906,"##앝":7907,"##🙏":7908,"##쑈":7909,"##깠":7910,"##햎":7911,"##🍒":7912,"##푀":7913,"##굽":7914,"##녈":7915,"##🌝":7916,"##봇":7917,"##넚":7918,"##の":7919,"##か":7920,"##も":7921,"##し":7922,"##ら":7923,"##ん":7924,"##몫":7925,"##윻":7926,"##텟":7927,"##쬐":7928,"##ℓ":7929,"##씬":7930,"##씁":7931,"##쨍":7932,"##텻":7933,"##훵":7934,"##벳":7935,"##껰":7936,"##짛":7937,"##옶":7938,"##쌓":7939,"##읈":7940,"##덟":7941,"##챴":7942,"##왈":7943,"##닿":7944,"##뭬":7945,"##핥":7946,"##뎋":7947,"##р":7948,"##о":7949,"##п":7950,"##л":7951,"##и":7952,"##뉸":7953,"##궆":7954,"##엫":7955,"##텤":7956,"##셬":7957,"##딪":7958,"##졔":7959,"##퀵":7960,"##궤":7961,"##둿":7962,"##싳":7963,"##▲":7964,"##쥥":7965,"##쟐":7966,"##뿡":7967,"##팍":7968,"##륑":7969,"##🙋":7970,"##곺":7971,"##딨":7972,"##う":7973,"##き":7974,"##뺨":7975,"##듓":7976,"##쀼":7977,"##렜":7978,"##얹":7979,"##퀸":7980,"##😉":7981,"##쉨":7982,"##젺":7983,"##퀼":7984,"##쯰":7985,"##웰":7986,"##힉":7987,"##쓕":7988,"##돛":7989,"##😊":7990,"##헥":7991,"##빤":7992,"##깽":7993,"##샐":7994,"##÷":7995,"##딛":7996,"##춴":7997,"##🎊":7998,"##꿘":7999,"##넉":8000,"##∙":8001,"##▶":8002,"##뻥":8003,"##굶":8004,"##😁":8005,"##넿":8006,"##돵":8007,"##곈":8008,"##룍":8009,"##싲":8010,"##릅":8011,"##캄":8012,"##볕":8013,"##녴":8014,"##귈":8015,"##횽":8016,"##읐":8017,"##흩":8018,"##뱝":8019,"##섣":8020,"##섀":8021,"##둗":8022,"##솤":8023,"##μ":8024,"##늖":8025,"##졀":8026,"##늌":8027,"##됑":8028,"##훗":8029,"##쿸":8030,"##뎉":8031,"##헛":8032,"##싀":8033,"##덱":8034,"##윙":8035,"##🐷":8036,"##땃":8037,"##💙":8038,"##읔":8039,"##숍":8040,"##멩":8041,"##㎾":8042,"##㎝":8043,"##칟":8044,"##곻":8045,"##쯧":8046,"##쭌":8047,"##👁":8048,"##댑":8049,"##눗":8050,"##츨":8051,"##팈":8052,"##챱":8053,"##뇸":8054,"##퐁":8055,"##즤":8056,"##땬":8057,"##°":8058,"##̥":8059,"##ω":8060,"##｀":8061,"##햤":8062,"##닻":8063,"##봬":8064,"##죻":8065,"##ਰ":8066,"##ਲ":8067,"##ੇ":8068,"##햬":8069,"##쫙":8070,"##붐":8071,"##좟":8072,"##뉨":8073,"##캣":8074,"##휙":8075,"##쌘":8076,"##봈":8077,"##쁀":8078,"##펨":8079,"##흣":8080,"##쥴":8081,"##젬":8082,"##펍":8083,"##됀":8084,"##죙":8085,"##탖":8086,"##랃":8087,"##뭣":8088,"##쟌":8089,"##젭":8090,"##깎":8091,"##쟀":8092,"##😜":8093,"##맺":8094,"##➡":8095,"##땟":8096,"##챵":8097,"##듷":8098,"##쏟":8099,"##밪":8100,"##륻":8101,"##뎠":8102,"##뭇":8103,"##웝":8104,"##륄":8105,"##뵬":8106,"##○":8107,"##뜀":8108,"##쏭":8109,"##닛":8110,"##윸":8111,"##쟄":8112,"##뒷":8113,"##듸":8114,"##℃":8115,"##첞":8116,"##돤":8117,"##럾":8118,"##꿍":8119,"##렄":8120,"##꺗":8121,"##웄":8122,"##얶":8123,"##꼐":8124,"##흙":8125,"##젛":8126,"##룜":8127,"##럌":8128,"##꺾":8129,"##🤣":8130,"##댈":8131,"##냌":8132,"##뿍":8133,"##ㅃ":8134,"##웢":8135,"##씽":8136,"##킁":8137,"##짯":8138,"##윜":8139,"##밯":8140,"##뿟":8141,"##쎘":8142,"##덯":8143,"##🙌":8144,"##🤔":8145,"##춧":8146,"##걀":8147,"##켁":8148,"##믕":8149,"##쭸":8150,"##긷":8151,"##낯":8152,"##뚠":8153,"##잿":8154,"##핮":8155,"##컸":8156,"##궜":8157,"##렏":8158,"##㎛":8159,"##잽":8160,"##뤵":8161,"##낵":8162,"##덨":8163,"##죸":8164,"##엣":8165,"##짧":8166,"##늨":8167,"##뗀":8168,"##엗":8169,"##빢":8170,"##□":8171,"##깢":8172,"##섳":8173,"##ー":8174,"##켑":8175,"##뽐":8176,"##턍":8177,"##겉":8178,"##앱":8179,"##푠":8180,"##뻠":8181,"##쩨":8182,"##렆":8183,"##굵":8184,"##놬":8185,"##솟":8186,"##ㄻ":8187,"##✈":8188,"##ㅞ":8189,"##듦":8190,"##핃":8191,"##읒":8192,"##췤":8193,"##롸":8194,"##줠":8195,"##윰":8196,"##봊":8197,"##텃":8198,"##퓰":8199,"##걌":8200,"##툐":8201,"##퇘":8202,"##왼":8203,"##웁":8204,"##빋":8205,"##봠":8206,"##헹":8207,"##샙":8208,"##밝":8209,"##뎁":8210,"##뱀":8211,"##떴":8212,"##핍":8213,"##뉰":8214,"##꺄":8215,"##す":8216,"##찯":8217,"##땤":8218,"##핻":8219,"##갷":8220,"##웸":8221,"##쇠":8222,"##멱":8223,"##핶":8224,"##쪗":8225,"##짚":8226,"##륽":8227,"##텡":8228,"##씈":8229,"##큨":8230,"##뉘":8231,"##뢌":8232,"##ﾟ":8233,"##츅":8234,"##쥔":8235,"##딫":8236,"##튬":8237,"##숔":8238,"##쉭":8239,"##믜":8240,"##ᅮ":8241,"##ᆫ":8242,"##벋":8243,"##ᅣ":8244,"##ᆼ":8245,"##ᄉ":8246,"##ᄋ":8247,"##뇬":8248,"##햅":8249,"##쪾":8250,"##셖":8251,"##홰":8252,"##욯":8253,"##🍀":8254,"##덧":8255,"##웜":8256,"##Ⅱ":8257,"##🐥":8258,"##닊":8259,"##첼":8260,"##늣":8261,"##홬":8262,"##폿":8263,"##눕":8264,"##텄":8265,"##츰":8266,"##떽":8267,"##뻡":8268,"##뉜":8269,"##쨋":8270,"##깰":8271,"##톧":8272,"##톈":8273,"##벆":8274,"##큔":8275,"##엩":8276,"##쬬":8277,"##럈":8278,"##𝙤":8279,"##😂":8280,"##㏈":8281,"##뽁":8282,"##둣":8283,"##뭥":8284,"##펙":8285,"##잍":8286,"##☆":8287,"##ㅤ":8288,"##짙":8289,"##룻":8290,"##ෆ":8291,"##훨":8292,"##ᅧ":8293,"##ᅯ":8294,"##ᅦ":8295,"##옦":8296,"##ᅥ":8297,"##ᆯ":8298,"##ᄀ":8299,"##ᆻ":8300,"##ᄃ":8301,"##굑":8302,"##땠":8303,"##넓":8304,"##빻":8305,"##뎊":8306,"##걑":8307,"##엤":8308,"##엊":8309,"##웧":8310,"##뎬":8311,"##컀":8312,"##☹":8313,"##퀭":8314,"##칑":8315,"##쨰":8316,"##휫":8317,"##봒":8318,"##읏":8319,"##돗":8320,"##볏":8321,"##븀":8322,"##챀":8323,"##↘":8324,"##🎶":8325,"##햠":8326,"##캉":8327,"##쮜":8328,"##윽":8329,"##퓌":8330,"##읎":8331,"##됔":8332,"##쿱":8333,"##뮥":8334,"##왛":8335,"##︎":8336,"##횤":8337,"##풱":8338,"##땸":8339,"##콰":8340,"##죵":8341,"##귤":8342,"##쭐":8343,"##겇":8344,"##핌":8345,"##찟":8346,"##찼":8347,"##쩝":8348,"##ᅳ":8349,"##🐯":8350,"##∇":8351,"##ㅝ":8352,"##뻬":8353,"##³":8354,"##쎅":8355,"##잰":8356,"##읊":8357,"##끜":8358,"##뗴":8359,"##섰":8360,"##왑":8361,"##🤬":8362,"##😔":8363,"##😌":8364,"##꼥":8365,"##갂":8366,"##👤":8367,"##👥":8368,"##띾":8369,"##뗐":8370,"##뢔":8371,"##돟":8372,"##끅":8373,"##껭":8374,"##ュ":8375,"##뽝":8376,"##젯":8377,"##읕":8378,"##튿":8379,"##캘":8380,"##꙼":8381,"##샠":8382,"##엾":8383,"##읆":8384,"##💥":8385,"##됗":8386,"##콥":8387,"##펫":8388,"##삥":8389,"##풋":8390,"##㏄":8391,"##걐":8392,"##얷":8393,"##긩":8394,"##싐":8395,"##휼":8396,"##싰":8397,"##뮌":8398,"##뜍":8399,"##밎":8400,"##핡":8401,"##눞":8402,"##얕":8403,"##😛":8404,"##츕":8405,"##🙈":8406,"##톼":8407,"##◯":8408,"##뻗":8409,"##❓":8410,"##빸":8411,"##뎤":8412,"##잗":8413,"##꽝":8414,"##켭":8415,"##뽜":8416,"##ヲ":8417,"##𐨛":8418,"##훠":8419,"##튐":8420,"##챡":8421,"##듴":8422,"##㎿":8423,"##컄":8424,"##틔":8425,"##뭨":8426,"##랸":8427,"##껩":8428,"##뻘":8429,"##겍":8430,"##갼":8431,"##낑":8432,"##㎉":8433,"##칀":8434,"##ㅀ":8435,"##얃":8436,"##깥":8437,"##😀":8438,"##👶":8439,"##릏":8440,"##ち":8441,"##と":8442,"##㎧":8443,"##댠":8444,"##꺘":8445,"##첸":8446,"##😏":8447,"##갛":8448,"##は":8449,"##솜":8450,"##눅":8451,"##횐":8452,"##즉":8453,"##ま":8454,"##⅓":8455,"##🎵":8456,"##②":8457,"##봏":8458,"##씾":8459,"##샂":8460,"##깼":8461,"##ᆸ":8462,"##ᄂ":8463,"##깋":8464,"##쇽":8465,"##㎸":8466,"##룟":8467,"##쳇":8468,"##𓂻":8469,"##𓂭":8470,"##톸":8471,"##듭":8472,"##냩":8473,"##췟":8474,"##쬘":8475,"##잴":8476,"##ᅭ":8477,"##쎔":8478,"##씃":8479,"##🖐":8480,"##랖":8481,"##짰":8482,"##렺":8483,"##탹":8484,"##앋":8485,"##숯":8486,"##´":8487,"##😚":8488,"##㎽":8489,"##딍":8490,"##삵":8491,"##썡":8492,"##붓":8493,"##☘":8494,"##🍃":8495,"##🎄":8496,"##🌱":8497,"##빽":8498,"##つ":8499,"##だ":8500,"##け":8501,"##🏿":8502,"##👌":8503,"##🏽":8504,"##젹":8505,"##읺":8506,"##ᄐ":8507,"##ᄅ":8508,"##슫":8509,"##휠":8510,"##얖":8511,"##먕":8512,"##쨜":8513,"##쨥":8514,"##멐":8515,"##풰":8516,"##쩅":8517,"##₩":8518,"##귐":8519,"##힛":8520,"##ㄶ":8521,"##뚤":8522,"##톰":8523,"##낡":8524,"##뫄":8525,"##롄":8526,"##첳":8527,"##꿎":8528,"##뎇":8529,"##웬":8530,"##랟":8531,"##첮":8532,"##좐":8533,"##룠":8534,"##좁":8535,"##❌":8536,"##™":8537,"##깧":8538,"##🤎":8539,"##🖤":8540,"##🤍":8541,"##💞":8542,"##💟":8543,"##💝":8544,"##💘":8545,"##뿨":8546,"##맏":8547,"##찓":8548,"##뜹":8549,"##쥄":8550,"##ᴗ":8551,"##≖":8552,"##몉":8553,"##쫏":8554,"##놋":8555,"##뉩":8556,"##쏵":8557,"##즛":8558,"##챕":8559,"##👀":8560,"##댇":8561,"##뭍":8562,"##졐":8563,"##퍙":8564,"##👋":8565,"##캅":8566,"##쩟":8567,"##🙇":8568,"##끙":8569,"##줏":8570,"##떔":8571,"##곁":8572,"##헠":8573,"##🙄":8574,"##칵":8575,"##앳":8576,"##폈":8577,"##헸":8578,"##떘":8579,"##닸":8580,"##봔":8581,"##뭠":8582,"##맍":8583,"##넠":8584,"##괌":8585,"##😶":8586,"##③":8587,"##뫼":8588,"##쌌":8589,"##맟":8590,"##텽":8591,"##뇠":8592,"##튄":8593,"##ㅖ":8594,"##튱":8595,"##닣":8596,"##±":8597,"##쒸":8598,"##팽":8599,"##딯":8600,"##ㄳ":8601,"##ㅟ":8602,"##쯍":8603,"##쯩":8604,"##씰":8605,"##흌":8606,"##👻":8607,"##튤":8608,"##냏":8609,"##쁭":8610,"##쑹":8611,"##땄":8612,"##짅":8613,"##껬":8614,"##😎":8615,"##❗":8616,"##돽":8617,"##걋":8618,"##🎉":8619,"##럳":8620,"##쉿":8621,"##픂":8622,"##삔":8623,"##짢":8624,"##틐":8625,"##겝":8626,"##귣":8627,"##옅":8628,"##옫":8629,"##둡":8630,"##˃":8631,"##̣":8632,"##⭐":8633,"##쩃":8634,"##🤯":8635,"##쭤":8636,"##앓":8637,"##췻":8638,"##돝":8639,"##👈":8640,"##킄":8641,"##랕":8642,"##🗣":8643,"##📣":8644,"##겣":8645,"##믈":8646,"##뻨":8647,"##Ⅲ":8648,"##씅":8649,"##뱄":8650,"##쳔":8651,"##🤦":8652,"##똬":8653,"##빱":8654,"##뮷":8655,"##챳":8656,"##솝":8657,"##묠":8658,"##홐":8659,"##쏙":8660,"##뉭":8661,"##굡":8662,"##쫑":8663,"##힙":8664,"##끠":8665,"##죤":8666,"##햔":8667,"##м":8668,"##к":8669,"##뱔":8670,"##＾":8671,"##컼":8672,"##녇":8673,"##펭":8674,"##곘":8675,"##깇":8676,"##뵙":8677,"##밷":8678,"##삮":8679,"##껜":8680,"##쯕":8681,"##🔫":8682,"##🐶":8683,"##툥":8684,"##횸":8685,"##젆":8686,"##셐":8687,"##봌":8688,"##븨":8689,"##퐈":8690,"##몆":8691,"##촘":8692,"##뙈":8693,"##럅":8694,"##팎":8695,"##훑":8696,"##엷":8697,"##챃":8698,"##뤗":8699,"##콬":8700,"##쉉":8701,"##꿑":8702,"##븅":8703,"##놉":8704,"##봫":8705,"##쉅":8706,"##쉣":8707,"##┃":8708,"##ö":8709,"##쏰":8710,"##£":8711,"##갞":8712,"##뼉":8713,"##쪜":8714,"##눨":8715,"##맼":8716,"##픙":8717,"##쉔":8718,"##괔":8719,"##낲":8720,"##핼":8721,"##샨":8722,"##뛴":8723,"##힠":8724,"##뽂":8725,"##픕":8726,"##쁍":8727,"##젔":8728,"##쉡":8729,"##켤":8730,"##힣":8731,"##괭":8732,"##곜":8733,"##껳":8734,"##ᄎ":8735,"##𝙣":8736,"##𝙖":8737,"##뎐":8738,"##닢":8739,"##퉤":8740,"##🍇":8741,"##븟":8742,"##슾":8743,"##랂":8744,"##먐":8745,"##뱈":8746,"##짔":8747,"##붑":8748,"##𐌅":8749,"##쨌":8750,"##넽":8751,"##샬":8752,"##맜":8753,"##켬":8754,"##컥":8755,"##벜":8756,"##Ⅰ":8757,"##렢":8758,"##냔":8759,"##밓":8760,"##챦":8761,"##흫":8762,"##뱉":8763,"##눜":8764,"##쟉":8765,"##쫒":8766,"##눀":8767,"##ᄆ":8768,"##냣":8769,"##씐":8770,"##멬":8771,"##귱":8772,"##😤":8773,"##⑥":8774,"##ι":8775,"##촐":8776,"##쯥":8777,"##졷":8778,"##숄":8779,"##졉":8780,"##핞":8781,"##Д":8782,"##А":8783,"##😰":8784,"##컹":8785,"##얽":8786,"##옐":8787,"##뉍":8788,"##펩":8789,"##큽":8790,"##욌":8791,"##썅":8792,"##깸":8793,"##빰":8794,"##얺":8795,"##죳":8796,"##몃":8797,"##딹":8798,"##볻":8799,"##😃":8800,"##셴":8801,"##옙":8802,"##삣":8803,"##슛":8804,"##굇":8805,"##뫃":8806,"##툭":8807,"##샜":8808,"##긑":8809,"##뎟":8810,"##줍":8811,"##좍":8812,"##쥭":8813,"##옻":8814,"##뮨":8815,"##볍":8816,"##뀬":8817,"##🐖":8818,"##틉":8819,"##팧":8820,"##죰":8821,"##떢":8822,"##얭":8823,"##겋":8824,"##눳":8825,"##큡":8826,"##똘":8827,"##🤩":8828,"##😅":8829,"##듳":8830,"##툽":8831,"##닪":8832,"##엍":8833,"##앛":8834,"##챤":8835,"##쫃":8836,"##닜":8837,"##쿙":8838,"##◇":8839,"##켐":8840,"##흏":8841,"##뿜":8842,"##댛":8843,"##껨":8844,"##팃":8845,"##벡":8846,"##🤗":8847,"##룝":8848,"##뛔":8849,"##😙":8850,"##곯":8851,"##벱":8852,"##쪌":8853,"##읰":8854,"##＜":8855,"##롹":8856,"##풉":8857,"##뻤":8858,"##ト":8859,"##ᅬ":8860,"##읂":8861,"##🇦":8862,"##😈":8863,"##혘":8864,"##퐄":8865,"##れ":8866,"##た":8867,"##캇":8868,"##𖤐":8869,"##で":8870,"##펼":8871,"##귯":8872,"##홓":8873,"##욪":8874,"##엮":8875,"##겥":8876,"##팯":8877,"##룔":8878,"##탬":8879,"##쎙":8880,"##곃":8881,"##봑":8882,"##몄":8883,"##쎵":8884,"##홤":8885,"##벎":8886,"##샏":8887,"##셸":8888,"##퉈":8889,"##뒁":8890,"##뒝":8891,"##녤":8892,"##렂":8893,"##꼳":8894,"##✌":8895,"##😬":8896,"##왚":8897,"##↓":8898,"##쏩":8899,"##в":8900,"##й":8901,"##я":8902,"##낟":8903,"##😴":8904,"##엋":8905,"##ေ":8906,"##ာ":8907,"##့":8908,"##်":8909,"##း":8910,"##쥨":8911,"##겓":8912,"##놕":8913,"##📢":8914,"##긓":8915,"##쳄":8916,"##🔪":8917,"##쳒":8918,"##촥":8919,"##멨":8920,"##뗫":8921,"##옽":8922,"##똨":8923,"##옂":8924,"##💨":8925,"##🏃":8926,"##핢":8927,"##뒙":8928,"##😻":8929,"##💫":8930,"##쑝":8931,"##쯈":8932,"##퇄":8933,"##わ":8934,"##잋":8935,"##켔":8936,"##핧":8937,"##폔":8938,"##좃":8939,"##웦":8940,"##홛":8941,"##쎠":8942,"##짞":8943,"##먀":8944,"##닯":8945,"##윕":8946,"##뙤":8947,"##끛":8948,"##잆":8949,"##휸":8950,"##뎨":8951,"##즠":8952,"##♬":8953,"##겯":8954,"##뀜":8955,"##렠":8956,"##ᅴ":8957,"##좡":8958,"##🐰":8959,"##꾜":8960,"##쑨":8961,"##쫘":8962,"##밉":8963,"##겦":8964,"##슁":8965,"##☀":8966,"##삻":8967,"##삑":8968,"##읾":8969,"##뽈":8970,"##쮀":8971,"##쉥":8972,"##⠀":8973,"##봘":8974,"##돠":8975,"##쟛":8976,"##셯":8977,"##톳":8978,"##껐":8979,"##큭":8980,"##킿":8981,"##쫩":8982,"##쑬":8983,"##늫":8984,"##긎":8985,"##똒":8986,"##꺵":8987,"##쩰":8988,"##쳉":8989,"##픜":8990,"##넏":8991,"##🎤":8992,"##봡":8993,"##굉":8994,"##춉":8995,"##◀":8996,"##렫":8997,"##뢋":8998,"##잧":8999,"##깄":9000,"##🌿":9001,"##🍂":9002,"##💐":9003,"##🌷":9004,"##🌹":9005,"##🌺":9006,"##🌼":9007,"##🌻":9008,"##닡":9009,"##꼉":9010,"##Ⅵ":9011,"##끕":9012,"##붜":9013,"##쒔":9014,"##🦅":9015,"##🕺":9016,"##췐":9017,"##볾":9018,"##탤":9019,"##뀽":9020,"##🎅":9021,"##앍":9022,"##샢":9023,"##よ":9024,"##ろ":9025,"##삳":9026,"##띡":9027,"##멎":9028,"##멂":9029,"##뗌":9030,"##폄":9031,"##쿗":9032,"##쫠":9033,"##쌕":9034,"##욷":9035,"##벧":9036,"##빝":9037,"##₃":9038,"##ü":9039,"##듁":9040,"##춋":9041,"##퀀":9042,"##Ⅳ":9043,"##꿉":9044,"##퉄":9045,"##젷":9046,"##넺":9047,"##픠":9048,"##쥠":9049,"##뒉":9050,"##띁":9051,"##곷":9052,"##쳰":9053,"##뺭":9054,"##얜":9055,"##궇":9056,"##랱":9057,"##핝":9058,"##쨘":9059,"##∧":9060,"##릳":9061,"##🤓":9062,"##뀔":9063,"##짗":9064,"##훃":9065,"##캎":9066,"##굥":9067,"##욨":9068,"##씪":9069,"##め":9070,"##붛":9071,"##뢈":9072,"##놘":9073,"##뢀":9074,"##껠":9075,"##띨":9076,"##맸":9077,"##넄":9078,"##쐰":9079,"##읜":9080,"##쥡":9081,"##줙":9082,"##😞":9083,"##솬":9084,"##탘":9085,"##똭":9086,"##𝙈":9087,"##𝙄":9088,"##𝘾":9089,"##𝙃":9090,"##𝙉":9091,"##놯":9092,"##갹":9093,"##홯":9094,"##똫":9095,"##줅":9096,"##웩":9097,"##😫":9098,"##둉":9099,"##팻":9100,"##뺼":9101,"##렦":9102,"##뭌":9103,"##㎘":9104,"##캑":9105,"##훜":9106,"##쯘":9107,"##늩":9108,"##뉠":9109,"##챸":9110,"##뉵":9111,"##졓":9112,"##긬":9113,"##씼":9114,"##쬽":9115,"##뤃":9116,"##⇒":9117,"##댤":9118,"##˚":9119,"##촠":9120,"##곗":9121,"##옝":9122,"##뼛":9123,"##낞":9124,"##뫀":9125,"##폇":9126,"##왐":9127,"##옘":9128,"##갭":9129,"##⑦":9130,"##뭅":9131,"##😦":9132,"##🏼":9133,"##럐":9134,"##햍":9135,"##쏼":9136,"##앴":9137,"##ᆺ":9138,"##읅":9139,"##뚭":9140,"##슿":9141,"##㎓":9142,"##덷":9143,"##🍺":9144,"##🍻":9145,"##걈":9146,"##💦":9147,"##찎":9148,"##갴":9149,"##줕":9150,"##눤":9151,"##곴":9152,"##륀":9153,"##랚":9154,"##튠":9155,"##🤚":9156,"##댬":9157,"##꺠":9158,"##냤":9159,"##뗏":9160,"##쨉":9161,"##껫":9162,"##́":9163,"##д":9164,"##з":9165,"##펐":9166,"##햨":9167,"##꼌":9168,"##콴":9169,"##푯":9170,"##퓬":9171,"##볌":9172,"##왬":9173,"##が":9174,"##🍊":9175,"##늡":9176,"##떧":9177,"##칬":9178,"##☏":9179,"##눟":9180,"##켠":9181,"##😣":9182,"##븝":9183,"##뉼":9184,"##😨":9185,"##맆":9186,"##싈":9187,"##😒":9188,"##먗":9189,"##쯜":9190,"##😕":9191,"##😟":9192,"##굘":9193,"##럤":9194,"##뤘":9195,"##ロ":9196,"##■":9197,"##솓":9198,"##챨":9199,"##🥳":9200,"##굨":9201,"##🎂":9202,"##←":9203,"##횻":9204,"##릊":9205,"##빕":9206,"##쵹":9207,"##릌":9208,"##깦":9209,"##빘":9210,"##짼":9211,"##궅":9212,"##홋":9213,"##🌊":9214,"##궝":9215,"##떸":9216,"##먾":9217,"##➰":9218,"##쪕":9219,"##켴":9220,"##낍":9221,"##쏨":9222,"##①":9223,"##큉":9224,"##믽":9225,"##톄":9226,"##긏":9227,"##솩":9228,"##챋":9229,"##굄":9230,"##🍚":9231,"##🍑":9232,"##짶":9233,"##↔":9234,"##🤷":9235,"##🌈":9236,"##룤":9237,"##앧":9238,"##괸":9239,"##켱":9240,"##땋":9241,"##픅":9242,"##ル":9243,"##끽":9244,"##쟨":9245,"##갵":9246,"##웽":9247,"##댚":9248,"##춚":9249,"##슄":9250,"##Ⅶ":9251,"##흨":9252,"##늏":9253,"##⑤":9254,"##읭":9255,"##꺜":9256,"##콸":9257,"##썯":9258,"##✅":9259,"##💯":9260,"##붉":9261,"##😷":9262,"##숳":9263,"##윾":9264,"##ε":9265,"##왭":9266,"##촴":9267,"##윷":9268,"##►":9269,"##푴":9270,"##늪":9271,"##둰":9272,"##🐈":9273,"##싑":9274,"##쨈":9275,"##믖":9276,"##겊":9277,"##놰":9278,"##촛":9279,"##죔":9280,"##쫍":9281,"##➿":9282,"##렣":9283,"##イ":9284,"##쐇":9285,"##뿤":9286,"##ੱ":9287,"##ਸ":9288,"##큅":9289,"##😑":9290,"##욀":9291,"##붖":9292,"##쎜":9293,"##됄":9294,"##짲":9295,"##쪈":9296,"##큥":9297,"##큩":9298,"##옃":9299,"##퇼":9300,"##뵌":9301,"##쎂":9302,"##믓":9303,"##휜":9304,"##쏜":9305,"##빟":9306,"##쒜":9307,"##뇩":9308,"##꺅":9309,"##좈":9310,"##を":9311,"##쟙":9312,"##㎐":9313,"##솽":9314,"##볐":9315,"##탂":9316,"##샾":9317,"##똡":9318,"##릥":9319,"##쟼":9320,"##칞":9321,"##🐕":9322,"##💋":9323,"##헼":9324,"##횔":9325,"##긘":9326,"##ᆷ":9327,"##そ":9328,"##🐣":9329,"##탉":9330,"##볔":9331,"##컾":9332,"##삯":9333,"##붸":9334,"##솧":9335,"##먈":9336,"##븤":9337,"##😩":9338,"##숮":9339,"##г":9340,"##ࡇ":9341,"##뵹":9342,"##쥑":9343,"##닳":9344,"##욋":9345,"##먁":9346,"##옳":9347,"##옠":9348,"##₂":9349,"##컁":9350,"##잩":9351,"##쮹":9352,"##걵":9353,"##💤":9354,"##훕":9355,"##믁":9356,"##썀":9357,"##냊":9358,"##눵":9359,"##됰":9360,"##틋":9361,"##뿝":9362,"##쨬":9363,"##떫":9364,"##🍠":9365,"##읃":9366,"##꾀":9367,"##줃":9368,"##쌜":9369,"##☜":9370,"##몹":9371,"##㎃":9372,"##お":9373,"##😿":9374,"##싘":9375,"##핗":9376,"##옾":9377,"##쓤":9378,"##😱":9379,"##휀":9380,"##댂":9381,"##찤":9382,"##챰":9383,"##쎗":9384,"##윔":9385,"##쒹":9386,"##탴":9387,"##쇤":9388,"##즇":9389,"##붇":9390,"##낏":9391,"##묫":9392,"##믺":9393,"##🍏":9394,"##뭡":9395,"##쳫":9396,"##😲":9397,"##넢":9398,"##꽇":9399,"##츔":9400,"##땔":9401,"##댯":9402,"##륌":9403,"##🦲":9404,"##👎":9405,"##얾":9406,"##🙅":9407,"##늒":9408,"##탙":9409,"##룀":9410,"##퍈":9411,"##😝":9412,"##🤪":9413,"##믱":9414,"##꺌":9415,"##👇":9416,"##듑":9417,"##뢩":9418,"##헑":9419,"##α":9420,"##볓":9421,"##ิ":9422,"##쎌":9423,"##🔊":9424,"##✔":9425,"##폽":9426,"##뇰":9427,"##펰":9428,"##묀":9429,"##돴":9430,"##덛":9431,"##줨":9432,"##뚯":9433,"##뺸":9434,"##슽":9435,"##쁩":9436,"##쁌":9437,"##욧":9438,"##긌":9439,"##띈":9440,"##쫜":9441,"##튽":9442,"##̵":9443,"##˂":9444,"##탇":9445,"##콱":9446,"##튈":9447,"##넸":9448,"##셒":9449,"##앏":9450,"##꿩":9451,"##쩧":9452,"##🍓":9453,"##즹":9454,"##뢴":9455,"##ば":9456,"##🇲":9457,"##🇷":9458,"##🇸":9459,"##🇺":9460,"##🇧":9461,"##🇰":9462,"##틑":9463,"##웆":9464,"##깩":9465,"##뼘":9466,"##♭":9467,"##㎗":9468,"##힁":9469,"##⊙":9470,"##●":9471,"##⋅":9472,"##냫":9473,"##쾃":9474,"##섦":9475,"##솸":9476,"##냬":9477,"##│":9478,"##륩":9479,"##쑵":9480,"##❄":9481,"##캿":9482,"##읖":9483,"##㉪":9484,"##귬":9485,"##😹":9486,"##뗄":9487,"##쬭":9488,"##곂":9489,"##🤨":9490,"##☔":9491,"##뵐":9492,"##쎼":9493,"##땍":9494,"##덞":9495,"##ノ":9496,"##ス":9497,"##귘":9498,"##👨":9499,"##👩":9500,"##👧":9501,"##뷁":9502,"##⃣":9503,"##괼":9504,"##ヽ":9505,"##👉":9506,"##뱐":9507,"##롰":9508,"##꽹":9509,"##쒘":9510,"##🍎":9511,"##댸":9512,"##퐝":9513,"##큠":9514,"##죨":9515,"##딲":9516,"##뤌":9517,"##춌":9518,"##슭":9519,"##촏":9520,"##젲":9521,"##귓":9522,"##뾱":9523,"##쟎":9524,"##ㅄ":9525,"##댭":9526,"##💡":9527,"##◈":9528,"##괨":9529,"##걉":9530,"##톺":9531,"##✊":9532,"##찧":9533,"##샆":9534,"##😧":9535,"##뒨":9536,"##햘":9537,"##뇐":9538,"##섲":9539,"##♪":9540,"##🌶":9541,"##🌀":9542,"##쬔":9543,"##뜁":9544,"##뷘":9545,"##¹":9546,"##볽":9547,"##█":9548,"##╬":9549,"##😗":9550,"##🤟":9551,"##꼿":9552,"##싵":9553,"##햑":9554,"##꿇":9555,"##∀":9556,"##줓":9557,"##킅":9558,"##뚸":9559,"##쁑":9560,"##◟":9561,"##췍":9562,"##멶":9563,"##쒯":9564,"##뮐":9565,"##ｦ":9566,"##춈":9567,"##묾":9568,"##싪":9569,"##탰":9570,"##🐍":9571,"##짷":9572,"##셧":9573,"##쨐":9574,"##돳":9575,"##냪":9576,"##👦":9577,"##촹":9578,"##┊":9579,"##━":9580,"##볗":9581,"##뽱":9582,"##랒":9583,"##잒":9584,"##퐉":9585,"##눴":9586,"##⢀":9587,"##⣿":9588,"##쓩":9589,"##💃":9590,"##뵨":9591,"##좇":9592,"##읓":9593,"##됳":9594,"##즨":9595,"##햿":9596,"##뻇":9597,"##💩":9598,"##촵":9599,"##껒":9600,"##죡":9601,"##캭":9602,"##🙊":9603,"##곪":9604,"##샊":9605,"##덪":9606,"##쨕":9607,"##🚨":9608,"##쩖":9609,"##せ":9610,"##り":9611,"##갲":9612,"##켝":9613,"##쥽":9614,"##ᅪ":9615,"##꾿":9616,"##や":9617,"##쑉":9618,"##꺀":9619,"##▮":9620,"##듘":9621,"##꽌":9622,"##뵜":9623,"##뤱":9624,"##츀":9625,"##힜":9626,"##귾":9627,"##낢":9628,"##🐸":9629,"##☞":9630,"##𝕊":9631,"##뒄":9632,"##죌":9633,"##˙":9634,"##셥":9635,"##🐟":9636,"##뜽":9637,"##쬰":9638,"##솦":9639,"##엶":9640,"##좊":9641,"##듥":9642,"##붤":9643,"##💎":9644,"##띔":9645,"##♧":9646,"##끋":9647,"##됙":9648,"##쳬":9649,"##줳":9650,"##🦟":9651,"##у":9652,"##뙇":9653,"##🛳":9654,"##🚢":9655,"##⚓":9656,"##⛴":9657,"##ꉂ":9658,"##さ":9659,"##맗":9660,"##숸":9661,"##𝘼":9662,"##𝙇":9663,"##푱":9664,"##🌟":9665,"##캥":9666,"##넋":9667,"##켸":9668,"##깹":9669,"##뵘":9670,"##덖":9671,"##ы":9672,"##썪":9673,"##컫":9674,"##🧚":9675,"##꺙":9676,"##썌":9677,"##ⓐ":9678,"##팹":9679,"##헵":9680,"##쥣":9681,"##ン":9682,"##뢍":9683,"##퍀":9684,"##됍":9685,"##☃":9686,"##쀄":9687,"##롲":9688,"##앻":9689,"##횃":9690,"##돰":9691,"##잀":9692,"##녚":9693,"##딮":9694,"##텓":9695,"##ᄑ":9696,"##쟣":9697,"##뵀":9698,"##옭":9699,"##꾾":9700,"##뮹":9701,"##좨":9702,"##뱁":9703,"##¥":9704,"##뗑":9705,"##벛":9706,"##삡":9707,"##®":9708,"##벹":9709,"##🤝":9710,"##겾":9711,"##◡":9712,"##뼝":9713,"##≠":9714,"##쩄":9715,"##┓":9716,"##릔":9717,"##⅔":9718,"##짵":9719,"##̂":9720,"##̃":9721,"##̤":9722,"##̫":9723,"##̮":9724,"##🧸":9725,"##쾨":9726,"##벟":9727,"##̻":9728,"##춐":9729,"##뤽":9730,"##뺵":9731,"##뮴":9732,"##맻":9733,"##٩":9734,"##웎":9735,"##얬":9736,"##춬":9737,"##럣":9738,"##꿴":9739,"##💧":9740,"##굠":9741,"##🐻":9742,"##죈":9743,"##뜡":9744,"##믾":9745,"##̛":9746,"##🌙":9747,"##🍕":9748,"##뺙":9749,"##０":9750,"##퉜":9751,"##쫭":9752,"##왯":9753,"##갊":9754,"##멥":9755,"##쳡":9756,"##꾺":9757,"##맒":9758,"##롑":9759,"##칡":9760,"##휵":9761,"##옧":9762,"##욐":9763,"##あ":9764,"##낶":9765,"##녠":9766,"##뗬":9767,"##딋":9768,"##짣":9769,"##츱":9770,"##뫈":9771,"##🐔":9772,"##퇵":9773,"##윱":9774,"##㎠":9775,"##횬":9776,"##📚":9777,"##じ":9778,"##쭵":9779,"##❛":9780,"##춫":9781,"##띱":9782,"##쿕":9783,"##줒":9784,"##롼":9785,"##힢":9786,"##욭":9787,"##탣":9788,"##쓋":9789,"##핔":9790,"##쥘":9791,"##🐱":9792,"##췸":9793,"##덫":9794,"##똣":9795,"##늼":9796,"##쒕":9797,"##눚":9798,"##힇":9799,"##😠":9800,"##쾰":9801,"##β":9802,"##몯":9803,"##벘":9804,"##⑨":9805,"##볜":9806,"##슠":9807,"##🐬":9808,"##🅼":9809,"##🅸":9810,"##🅲":9811,"##🅷":9812,"##🅽":9813,"##み":9814,"##왖":9815,"##붗":9816,"##∥":9817,"##갣":9818,"##͙":9819,"##꺴":9820,"##뫠":9821,"##촙":9822,"##엧":9823,"##꽐":9824,"##녱":9825,"##헴":9826,"##ੁ":9827,"##ਨ":9828,"##ਕ":9829,"##쉈":9830,"##딷":9831,"##㏜":9832,"##⍤":9833,"##⃝":9834,"##옺":9835,"##🦊":9836,"##꺳":9837,"##웂":9838,"##◎":9839,"##멏":9840,"##팓":9841,"##뷜":9842,"##뜜":9843,"##둫":9844,"##๑":9845,"##☎":9846,"##🎁":9847,"##🦦":9848,"##ᄁ":9849,"##늰":9850,"##꽥":9851,"##쿅":9852,"##뭑":9853,"##킝":9854,"##⑪":9855,"##윀":9856,"##댙":9857,"##̀":9858,"##😮":9859,"##😵":9860,"##삠":9861,"##풓":9862,"##̯":9863,"##욛":9864,"##쎃":9865,"##욍":9866,"##👐":9867,"##💌":9868,"##흄":9869,"##롶":9870,"##ʕ":9871,"##̈́":9872,"##̾":9873,"##͂":9874,"##̍":9875,"##̓":9876,"##͗":9877,"##̓":9878,"##͋":9879,"##͛":9880,"##̅":9881,"##̀":9882,"##͌":9883,"##͊":9884,"##͠":9885,"##̕":9886,"##͒":9887,"##͆":9888,"##͘":9889,"##̿":9890,"##̏":9891,"##̇":9892,"##͐":9893,"##͑":9894,"##̚":9895,"##́":9896,"##͝":9897,"##̋":9898,"##̔":9899,"##͎":9900,"##̼":9901,"##̩":9902,"##̜":9903,"##̠":9904,"##̭":9905,"##̘":9906,"##̢":9907,"##̳":9908,"##̱":9909,"##͕":9910,"##̨":9911,"##̡":9912,"##̰":9913,"##̞":9914,"##̹":9915,"##͚":9916,"##̲":9917,"##̗":9918,"##͔":9919,"##ͅ":9920,"##̟":9921,"##̝":9922,"##͓":9923,"##̺":9924,"##̬":9925,"##͇":9926,"##̧":9927,"##̖":9928,"##̦":9929,"##̪":9930,"##͜":9931,"##̙":9932,"##͍":9933,"##͖":9934,"##͉":9935,"##̉":9936,"##̴":9937,"##̒":9938,"##̽":9939,"##◑":9940,"##줐":9941,"##͡":9942,"##췩":9943,"##꺆":9944,"##ਦ":9945,"##⌑":9946,"##걺":9947,"##낻":9948,"##╯":9949,"##췽":9950,"##좝":9951,"##묽":9952,"##⠄":9953,"##😐":9954,"##🍗":9955,"##ˀ":9956,"##ね":9957,"##휑":9958,"##쳘":9959,"##왝":9960,"##🥔":9961,"##🎈":9962,"##⬇":9963,"##첟":9964,"##꿱":9965,"##똠":9966,"##땝":9967,"##２":9968,"##˵":9969,"##ღ":9970,"##묹":9971,"##뵥":9972,"##🙁":9973,"##좠":9974,"##᷄":9975,"##⌓":9976,"##᷅":9977,"##🧐":9978,"##챘":9979,"##̷":9980,"##텆":9981,"##큿":9982,"##삉":9983,"##퉷":9984,"##🍆":9985,"##긿":9986,"##🥊":9987,"##됒":9988,"##Н":9989,"##앺":9990,"##됸":9991,"##𝙎":9992,"##𝘽":9993,"##쿳":9994,"##🍫":9995,"##뤙":9996,"##쮝":9997,"##솼":9998,"##🙉":9999,"##◞":10000,"##캴":10001,"##🤘":10002,"##끵":10003,"##웻":10004,"##🤧":10005,"##풂":10006,"##얎":10007,"##✧":10008,"##🎀":10009,"##￣":10010,"##뭊":10011,"##쇳":10012,"##헗":10013,"##줸":10014,"##찿":10015,"##◉":10016,"##ﾉ":10017,"##돡":10018,"##솎":10019,"##쐐":10020,"##뜷":10021,"##뀩":10022,"##─":10023,"##̶":10024,"##📌":10025,"##뚁":10026,"##꽅":10027,"##꼮":10028,"##☕":10029,"##뇻":10030,"##놑":10031,"##벰":10032,"##똗":10033,"##븍":10034,"##🍳":10035,"##🥱":10036,"##🥶":10037,"##🥵":10038,"##🤑":10039,"##🤫":10040,"##팦":10041,"##⚾":10042,"##☝":10043,"##캍":10044,"##헡":10045,"##뜝":10046,"##１":10047,"##흴":10048,"##춪":10049,"##￼":10050,"##🌚":10051,"##귗":10052,"##긂":10053,"##짊":10054,"##🌞":10055,"##궃":10056,"##큇":10057,"##뫙":10058,"##쥉":10059,"##얐":10060,"##တ":10061,"##π":10062,"##쾡":10063,"##🍔":10064,"##💏":10065,"##츳":10066,"##ユ":10067,"##💸":10068,"##⭕":10069,"##🎨":10070,"##⑧":10071,"##뤔":10072,"##⁼":10073,"##ᵒ":10074,"##쳠":10075,"##휨":10076,"##븥":10077,"##햝":10078,"##🐒":10079,"##📝":10080,"##녭":10081,"##쬠":10082,"##쭊":10083,"##ʰ":10084,"##ʸ":10085,"##▾":10086,"##◍":10087,"##😪":10088,"##㎦":10089,"##뀝":10090,"##흼":10091,"##∨":10092,"##껙":10093,"##퍅":10094,"##🙀":10095,"##띌":10096,"##씉":10097,"##눋":10098,"##휭":10099,"##╹":10100,"##⑫":10101,"##틧":10102,"##⑩":10103,"##괮":10104,"##꾱":10105,"##쫗":10106,"##㈔":10107,"##즥":10108,"##넒":10109,"##맫":10110,"##💢":10111,"##웉":10112,"##😽":10113,"##뀼":10114,"##็":10115,"##뺍":10116,"##🤙":10117,"##้":10118,"##⣀":10119,"##◠":10120,"##밞":10121,"##죗":10122,"##🍦":10123,"##ࠅ":10124,"##🖕":10125,"##⚠":10126,"##괞":10127,"##▽":10128,"##◐":10129,"##쟬":10130,"##녬":10131,"##퓔":10132,"##챂":10133,"##긇":10134,"##Δ":10135,"##뻈":10136,"##🐝":10137,"##Ⅴ":10138,"##뉌":10139,"##ヮ":10140,"##┈":10141,"##묏":10142,"##ᵕ":10143,"##ਾ":10144,"##🤥":10145,"##짦":10146,"##͟":10147,"##̸":10148,"##㉡":10149,"##💰":10150,"##ⓒ":10151,"##🐦":10152,"##ੋ":10153,"##췅":10154,"##걜":10155,"##뭦":10156,"##ᗜ":10157,"##ᵔ":10158,"##▣":10159,"##늅":10160,"##쓍":10161,"##ƪ":10162,"##욺":10163,"##🍯":10164,"##𝙊":10165,"##©":10166,"##깪":10167,"##쏀":10168,"##ഃ":10169,"##뭫":10170,"##컽":10171,"##ʔ":10172,"##㉯":10173,"##잚":10174,"##홱":10175,"##헏":10176,"##뜐":10177,"##▪":10178,"##◔":10179,"##ຶ":10180,"##뽷":10181,"##͞":10182,"##ⓝ":10183,"##솅":10184,"##♣":10185,"##و":10186,"##놂":10187,"##얆":10188,"##ʖ":10189,"##췜":10190,"##끆":10191,"##√":10192,"##ਯ":10193,"##½":10194,"##ｗ":10195,"##ᕙ":10196,"##ਿ":10197,"##⬜":10198,"##ⓑ":10199,"##◦":10200,"##ง":10201,"##𝒾":10202,"##𝒷":10203,"##𝒶":10204,"##𝓁":10205,"##ᩚ":10206,"##゜":10207,"##▒":10208,"##𓂃":10209,"##📍":10210,"##ʚ":10211,"##얠":10212,"##◾":10213,"##┌":10214,"##ᕕ":10215,"##웓":10216,"##☑":10217,"##샒":10218,"##왒":10219,"##❁":10220,"##⌔":10221,"##⊼":10222,"##𝙅":10223,"##ᐛ":10224,"##𝒮":10225,"##︡":10226,"##︠":10227,"##═":10228,"##ㅋㅋ":10229,"##ㅋㅋㅋㅋ":10230,"으로":10231,"에서":10232,"##ㅋㅋㅋㅋㅋㅋㅋㅋ":10233,"는데":10234,"##00":10235,"한다":10236,"아니":10237,"ㅋㅋㅋ":10238,"까지":10239,"ㅋㅋㅋㅋㅋ":10240,"##ㅠㅠ":10241,"지만":10242,"라고":10243,"면서":10244,"사람":10245,"20":10246,"ㅋㅋㅋㅋㅋㅋㅋㅋㅋ":10247,"##니다":10248,"우리":10249,"그래":10250,"다고":10251,"지난":10252,"다는":10253,"근데":10254,"생각":10255,"ㅋㅋ":10256,"부터":10257,"진짜":10258,"에게":10259,"##ㅋㅋㅋ":10260,"사진":10261,"한국":10262,"지금":10263,"해야":10264,"라는":10265,"대한":10266,"너무":10267,"10":10268,"보다":10269,"으면":10270,"된다":10271,"오늘":10272,"그런":10273,"그러":10274,"위해":10275,"ㅋㅋㅋㅋ":10276,"ㅎㅎ":10277,"해서":10278,"어서":10279,"ㅠㅠ":10280,"때문":10281,"그냥":10282,"201":10283,"이번":10284,"니까":10285,"많이":10286,"문제":10287,"그렇":10288,"서울":10289,"지역":10290,"아이":10291,"이제":10292,"통해":10293,"200":10294,"이나":10295,"이상":10296,"다른":10297,"대해":10298,"더라":10299,"인데":10300,"이런":10301,"다가":10302,"하나":10303,"들어":10304,"대표":10305,"가능":10306,"그럼":10307,"함께":10308,"19":10309,"시간":10310,"정부":10311,"만들":10312,"##만원":10313,"##ㅎㅎ":10314,"경우":10315,"경기":10316,"##시간":10317,"습니다":10318,"그리":10319,"시작":10320,"한테":10321,"##통령":10322,"그래서":10323,"12":10324,"사업":10325,"대통령":10326,"##니까":10327,"다시":10328,"어요":10329,"필요":10330,"밝혔":10331,"정도":10332,"미국":10333,"아서":10334,"교육":10335,"아직":10336,"11":10337,"따라":10338,"처럼":10339,"자기":10340,"지원":10341,"도록":10342,"은데":10343,"ㅋㅋㅋㅋㅋㅋ":10344,"위한":10345,"30":10346,"##위원":10347,"가장":10348,"는다":10349,"후보":10350,"관계":10351,"모르":10352,"중국":10353,"사실":10354,"ㅇㅇ":10355,"##지만":10356,"의원":10357,"관련":10358,"이랑":10359,"그거":10360,"학생":10361,"프로":10362,"##000":10363,"세계":10364,"대구":10365,"같이":10366,"지난해":10367,"자신":10368,"사회":10369,"어야":10370,"학교":10371,"ㅜㅜ":10372,"올해":10373,"하지만":10374,"엄마":10375,"이후":10376,"일본":10377,"친구":10378,"이어":10379,"최근":10380,"그리고":10381,"어디":10382,"기업":10383,"15":10384,"특히":10385,"이름":10386,"진행":10387,"국민":10388,"상황":10389,"모두":10390,"경제":10391,"ㅠㅠㅠ":10392,"아닌":10393,"현재":10394,"교수":10395,"여기":10396,"는지":10397,"##학교":10398,"##억원":10399,"계속":10400,"이거":10401,"거나":10402,"국내":10403,"라며":10404,"어떻":10405,"##렇게":10406,"이날":10407,"남자":10408,"마음":10409,"시장":10410,"##대로":10411,"ㅋㅋㅋㅋㅋㅋㅋ":10412,"인가":10413,"##기업":10414,"영화":10415,"나오":10416,"여자":10417,"##ㅋㅋㅋㅋㅋ":10418,"##라고":10419,"대학":10420,"계획":10421,"내일":10422,"바로":10423,"민주":10424,"다양":10425,"##스트":10426,"괜찮":10427,"만나":10428,"을까":10429,"이미":10430,"결과":10431,"##시장":10432,"##ㅜㅜ":10433,"사용":10434,"처음":10435,"운영":10436,"언니":10437,"못하":10438,"알려":10439,"사랑":10440,"##ㅋㅋㅋㅋㅋㅋㅋㅋㅋㅋㅋㅋㅋㅋㅋㅋ":10441,"얼마":10442,"이유":10443,"정치":10444,"해주":10445,"##거같":10446,"관계자":10447,"얘기":10448,"아무":10449,"예정":10450,"전문":10451,"사이":10452,"어떤":10453,"최고":10454,"이야":10455,"선수":10456,"##사업":10457,"공부":10458,"일단":10459,"국가":10460,"다음":10461,"문화":10462,"준비":10463,"언제":10464,"새로":10465,"##다고":10466,"##나라":10467,"어떻게":10468,"중요":10469,"##운데":10470,"가지":10471,"거기":10472,"이용":10473,"자리":10474,"추진":10475,"설명":10476,"해도":10477,"참여":10478,"이렇게":10479,"보이":10480,"##0년":10481,"100":10482,"감독":10483,"엄청":10484,"삼성":10485,"18":10486,"회사":10487,"##어나":10488,"ㅋㅋㅋㅋㅋㅋㅋㅋ":10489,"보여":10490,"대상":10491,"힘들":10492,"한번":10493,"시민":10494,"그래도":10495,"운동":10496,"##교육":10497,"어려":10498,"모습":10499,"##가지":10500,"기대":10501,"합니다":10502,"##요일":10503,"투자":10504,"16":10505,"보내":10506,"려고":10507,"국회":10508,"그러나":10509,"관심":10510,"그렇게":10511,"##정도":10512,"평가":10513,"어제":10514,"##레이":10515,"하루":10516,"개발":10517,"13":10518,"내용":10519,"##그램":10520,"25":10521,"기록":10522,"##비스":10523,"요즘":10524,"연구":10525,"여성":10526,"전화":10527,"조금":10528,"전국":10529,"이라고":10530,"만큼":10531,"이야기":10532,"##지역":10533,"##센터":10534,"잖아":10535,"맛있":10536,"##시아":10537,"##ㅋㅋㅋㅋㅋㅋ":10538,"확인":10539,"한다는":10540,"해보":10541,"오빠":10542,"주장":10543,"북한":10544,"결정":10545,"역시":10546,"활동":10547,"모든":10548,"나가":10549,"##인다":10550,"무슨":10551,"거든":10552,"라도":10553,"주민":10554,"감사":10555,"웅웅":10556,"물론":10557,"직접":10558,"당시":10559,"발표":10560,"50":10561,"지방":10562,"으며":10563,"정말":10564,"돌아":10565,"##랜드":10566,"인터":10567,"14":10568,"##동안":10569,"오후":10570,"##위원회":10571,"##ㄱㅋ":10572,"가운데":10573,"조사":10574,"따르":10575,"마련":10576,"현대":10577,"시키":10578,"17":10579,"고민":10580,"##소리":10581,"라면":10582,"다면":10583,"저녁":10584,"마다":10585,"떨어":10586,"한데":10587,"수업":10588,"최대":10589,"국제":10590,"지적":10591,"동안":10592,"과정":10593,"인지":10594,"##이트":10595,"가족":10596,"가격":10597,"선거":10598,"그게":10599,"정책":10600,"나타":10601,"경찰":10602,"##ㅠㅠㅠㅠ":10603,"입니다":10604,"##스타":10605,"##자기":10606,"##다는":10607,"나요":10608,"상대":10609,"응응":10610,"한거":10611,"회장":10612,"일부":10613,"##위기":10614,"구나":10615,"이해":10616,"아야":10617,"##아니":10618,"인천":10619,"스타":10620,"머리":10621,"올라":10622,"행사":10623,"방송":10624,"일반":10625,"금융":10626,"기준":10627,"##머니":10628,"없이":10629,"##문화":10630,"노력":10631,"새로운":10632,"안되":10633,"수준":10634,"개인":10635,"빨리":10636,"던데":10637,"프로그램":10638,"경쟁":10639,"거의":10640,"관리":10641,"여러":10642,"발생":10643,"느낌":10644,"원래":10645,"전체":10646,"피해":10647,"입장":10648,"##마트":10649,"연락":10650,"요구":10651,"제품":10652,"##자리":10653,"환경":10654,"포함":10655,"다니":10656,"성공":10657,"건강":10658,"40":10659,"또한":10660,"한편":10661,"도시":10662,"강조":10663,"완전":10664,"##부터":10665,"드라":10666,"기술":10667,"부산":10668,"안전":10669,"이러":10670,"인사":10671,"밖에":10672,"##해서":10673,"먼저":10674,"찾아":10675,"내년":10676,"##거리":10677,"들어가":10678,"세요":10679,"##부분":10680,"24":10681,"##사람":10682,"아침":10683,"제공":10684,"##개월":10685,"누구":10686,"ㅋㅋㅋㅋㅋㅋㅋㅋㅋㅋ":10687,"##이스":10688,"나온":10689,"##산업":10690,"의미":10691,"생활":10692,"##은행":10693,"배우":10694,"광주":10695,"기억":10696,"한다고":10697,"혼자":10698,"구성":10699,"어느":10700,"어도":10701,"아요":10702,"21":10703,"정보":10704,"열린":10705,"효과":10706,"그건":10707,"##ㅋㅋㅋㅋㅋㅋㅋ":10708,"예상":10709,"그때":10710,"아파":10711,"외국":10712,"민주당":10713,"성장":10714,"해외":10715,"얼굴":10716,"전망":10717,"##없이":10718,"중심":10719,"병원":10720,"22":10721,"부분":10722,"결국":10723,"시험":10724,"판매":10725,"선택":10726,"분석":10727,"거같":10728,"혹시":10729,"공개":10730,"기자":10731,"기다":10732,"피부":10733,"##단체":10734,"실제":10735,"추가":10736,"역사":10737,"ㅋㅋㅋㅋㅋㅋㅋㅋㅋㅋㅋㅋㅋㅋㅋㅋㅋ":10738,"확대":10739,"인정":10740,"사건":10741,"##지막":10742,"상태":10743,"활용":10744,"공동":10745,"산업":10746,"##심히":10747,"시켜":10748,"규모":10749,"##연구":10750,"예산":10751,"내려":10752,"걱정":10753,"갑자기":10754,"해결":10755,"시즌":10756,"자연":10757,"##기관":10758,"지나":10759,"증가":10760,"더니":10761,"자유":10762,"##사회":10763,"나왔":10764,"신청":10765,"현장":10766,"더욱":10767,"##의원":10768,"결혼":10769,"##진다":10770,"마지막":10771,"행복":10772,"작품":10773,"서비스":10774,"그것":10775,"보인다":10776,"##8년":10777,"못했":10778,"아빠":10779,"23":10780,"강화":10781,"특별":10782,"검찰":10783,"집중":10784,"고마":10785,"뭔가":10786,"주변":10787,"으니까":10788,"어린":10789,"##스템":10790,"방법":10791,"책임":10792,"비롯":10793,"##지원":10794,"자체":10795,"오전":10796,"방문":10797,"##관리":10798,"생산":10799,"부담":10800,"아님":10801,"그럴":10802,"미래":10803,"##조사":10804,"조성":10805,"오래":10806,"##와서":10807,"노래":10808,"ㅋㅋㅋㅋㅋㅋㅋㅋㅋㅋㅋ":10809,"역할":10810,"##학년":10811,"제대로":10812,"##한다":10813,"대부분":10814,"##주의":10815,"여행":10816,"##시설":10817,"공연":10818,"네요":10819,"대로":10820,"소리":10821,"몰라":10822,"사장":10823,"설치":10824,"##업체":10825,"정상":10826,"잘못":10827,"1년":10828,"사고":10829,"추천":10830,"발전":10831,"어렵":10832,"다행":10833,"직원":10834,"##2년":10835,"적극":10836,"##대표":10837,"##도시":10838,"소비":10839,"별로":10840,"노동":10841,"##스크":10842,"대전":10843,"##라인":10844,"관광":10845,"반대":10846,"나이":10847,"위원":10848,"##리아":10849,"세상":10850,"##동차":10851,"언론":10852,"선정":10853,"얼마나":10854,"도착":10855,"기존":10856,"분야":10857,"대회":10858,"26":10859,"분위기":10860,"평균":10861,"끝나":10862,"##그래":10863,"의견":10864,"영어":10865,"도움":10866,"정신":10867,"대해서":10868,"##정부":10869,"27":10870,"에선":10871,"##5년":10872,"경험":10873,"라서":10874,"현실":10875,"##경제":10876,"이게":10877,"기간":10878,"드러":10879,"##전자":10880,"저거":10881,"##공사":10882,"##7년":10883,"경영":10884,"기회":10885,"점심":10886,"변화":10887,"##경기":10888,"건설":10889,"##이크":10890,"인기":10891,"제주":10892,"경북":10893,"##대회":10894,"##으며":10895,"비슷":10896,"영향":10897,"##레스":10898,"유지":10899,"기본":10900,"28":10901,"개선":10902,"##운동":10903,"당연":10904,"검색":10905,"무엇":10906,"인터넷":10907,"이뤄":10908,"안하":10909,"그치":10910,"가져":10911,"기분":10912,"그니까":10913,"##야지":10914,"ㅎㅎㅎ":10915,"##4년":10916,"##아아":10917,"부모":10918,"목표":10919,"냐고":10920,"실시":10921,"주요":10922,"##너지":10923,"궁금":10924,"서로":10925,"##BS":10926,"수사":10927,"음식":10928,"나라":10929,"화장":10930,"고객":10931,"지속":10932,"바람":10933,"부족":10934,"우선":10935,"중앙":10936,"우리나라":10937,"성적":10938,"지지":10939,"그만":10940,"비판":10941,"롯데":10942,"청소":10943,"##환경":10944,"그랬":10945,"##무원":10946,"##9년":10947,"##디어":10948,"아파트":10949,"그런데":10950,"우려":10951,"##6년":10952,"아주":10953,"##개발":10954,"ㅋㅋㅋㅋㅋㅋㅋㅋㅋㅋㅋㅋ":10955,"차이":10956,"##하나":10957,"방식":10958,"##리그":10959,"위해서":10960,"스러":10961,"이전":10962,"으니":10963,"음악":10964,"대신":10965,"해당":10966,"다르":10967,"누가":10968,"참석":10969,"해요":10970,"열심히":10971,"연기":10972,"나중":10973,"고려":10974,"##린다":10975,"##1년":10976,"버스":10977,"스트":10978,"##활동":10979,"##3년":10980,"약간":10981,"아냐":10982,"그동안":10983,"스럽":10984,"보도":10985,"전문가":10986,"##라이":10987,"일찍":10988,"거리":10989,"제일":10990,"업체":10991,"6월":10992,"선물":10993,"지하":10994,"미안":10995,"사무":10996,"가까":10997,"표현":10998,"행정":10999,"치료":11000,"3월":11001,"업무":11002,"개최":11003,"만든":11004,"제작":11005,"##수있":11006,"출신":11007,"소개":11008,"##회의":11009,"##학기":11010,"대비":11011,"카페":11012,"주말":11013,"확보":11014,"29":11015,"대박":11016,"판단":11017,"적용":11018,"##누리":11019,"##진짜":11020,"려는":11021,"지난달":11022,"##생활":11023,"졸업":11024,"60":11025,"방안":11026,"재밌":11027,"##의회":11028,"이사":11029,"##버지":11030,"각각":11031,"5월":11032,"취업":11033,"199":11034,"##인트":11035,"##그룹":11036,"2년":11037,"드라마":11038,"상품":11039,"##친구":11040,"4월":11041,"##학생":11042,"질문":11043,"우승":11044,"스마트":11045,"##워서":11046,"중소":11047,"##가능":11048,"##병원":11049,"상승":11050,"조선":11051,"차지":11052,"가치":11053,"##와대":11054,"통합":11055,"##등학교":11056,"논란":11057,"게임":11058,"그런거":11059,"청와대":11060,"##어난":11061,"시행":11062,"기타":11063,"의사":11064,"계약":11065,"전시":11066,"아마":11067,"커피":11068,"지도":11069,"브랜드":11070,"달리":11071,"시대":11072,"느냐":11073,"고마워":11074,"참가":11075,"##리스":11076,"9월":11077,"충분":11078,"##스로":11079,"아까":11080,"선보":11081,"구조":11082,"인간":11083,"경기도":11084,"##이지":11085,"울산":11086,"앞서":11087,"##히려":11088,"여름":11089,"유럽":11090,"선생":11091,"전했":11092,"공격":11093,"오히려":11094,"##로벌":11095,"더라고":11096,"못한":11097,"ㄹㅇ":11098,"희망":11099,"출발":11100,"ㅎㅎㅎㅎ":11101,"제기":11102,"목소리":11103,"안나":11104,"각종":11105,"으려":11106,"##자인":11107,"려면":11108,"수출":11109,"로서":11110,"##어지":11111,"7월":11112,"##림픽":11113,"SK":11114,"할까":11115,"유명":11116,"시스템":11117,"한나라":11118,"LG":11119,"비교":11120,"도입":11121,"보고":11122,"새누리":11123,"1위":11124,"3년":11125,"반면":11126,"약속":11127,"위험":11128,"영상":11129,"무대":11130,"일정":11131,"기능":11132,"12월":11133,"선발":11134,"신경":11135,"더라도":11136,"##는데":11137,"공간":11138,"자주":11139,"10월":11140,"작가":11141,"퇴근":11142,"##세대":11143,"ㅋㅋㅋㅋㅋㅋㅋㅋㅋㅋㅋㅋㅋㅋㅋㅋㅋㅋㅋㅋㅋㅋㅋㅋㅋ":11144,"보통":11145,"글로벌":11146,"##회사":11147,"체험":11148,"맨날":11149,"대화":11150,"스스로":11151,"그런가":11152,"8월":11153,"##이어":11154,"##선거":11155,"##프로":11156,"달라":11157,"한나라당":11158,"작년":11159,"똑같":11160,"##달러":11161,"올리":11162,"논의":11163,"따른":11164,"비해":11165,"벌써":11166,"##근혜":11167,"전략":11168,"겨울":11169,"장관":11170,"어린이":11171,"##서관":11172,"대선":11173,"교통":11174,"다녀":11175,"대형":11176,"유치":11177,"아프":11178,"##포츠":11179,"##er":11180,"핵심":11181,"과거":11182,"등록":11183,"인생":11184,"그대로":11185,"환자":11186,"회의":11187,"1월":11188,"공공":11189,"조직":11190,"##려서":11191,"나와":11192,"##기간":11193,"작업":11194,"안정":11195,"제시":11196,"주목":11197,"재미":11198,"의료":11199,"카드":11200,"##ㄱㅋㄱㅋ":11201,"자동차":11202,"출근":11203,"본인":11204,"미친":11205,"높이":11206,"건가":11207,"##위원장":11208,"로부터":11209,"이동":11210,"ㅋㅋㅋㅋㅋㅋㅋㅋㅋㅋㅋㅋㅋ":11211,"정리":11212,"박근혜":11213,"위치":11214,"##단지":11215,"이하":11216,"이건":11217,"경남":11218,"스타일":11219,"70":11220,"공급":11221,"이것":11222,"으면서":11223,"할때":11224,"해봐":11225,"상당":11226,"##스터":11227,"##정책":11228,"##ㄱㄱ":11229,"해줘":11230,"##카드":11231,"절대":11232,"일어나":11233,"##BC":11234,"처리":11235,"외국인":11236,"에요":11237,"검사":11238,"도전":11239,"단체":11240,"##동산":11241,"은행":11242,"홍보":11243,"##20":11244,"인상":11245,"전통":11246,"매출":11247,"2월":11248,"밥먹":11249,"가입":11250,"넘어":11251,"공사":11252,"위기":11253,"여명":11254,"제도":11255,"마을":11256,"고생":11257,"승리":11258,"소속":11259,"일자리":11260,"와서":11261,"협력":11262,"##관계":11263,"위원장":11264,"반영":11265,"##조건":11266,"공무원":11267,"어려운":11268,"##기술":11269,"안돼":11270,"사례":11271,"헤헤":11272,"##정보":11273,"##이터":11274,"##반기":11275,"그걸":11276,"주인":11277,"11월":11278,"움직":11279,"ㅡㅡ":11280,"보였":11281,"안보":11282,"수도":11283,"31":11284,"합의":11285,"나타났":11286,"자료":11287,"1만":11288,"과제":11289,"중간":11290,"청년":11291,"동시":11292,"교사":11293,"##본부":11294,"보험":11295,"##민국":11296,"수원":11297,"할인":11298,"소비자":11299,"##운드":11300,"솔직":11301,"불편":11302,"혐의":11303,"진출":11304,"만드":11305,"최종":11306,"카톡":11307,"항상":11308,"보여주":11309,"본격":11310,"시설":11311,"능력":11312,"주택":11313,"##공원":11314,"##대학":11315,"해야지":11316,"공식":11317,"국정":11318,"봐야":11319,"전남":11320,"수익":11321,"##생각":11322,"최소":11323,"확실":11324,"해지":11325,"성과":11326,"투표":11327,"매우":11328,"##무리":11329,"전기":11330,"아시아":11331,"주제":11332,"전혀":11333,"디자인":11334,"주문":11335,"대한민국":11336,"##과정":11337,"오른":11338,"구축":11339,"##계획":11340,"출연":11341,"최초":11342,"##000원":11343,"아하":11344,"복지":11345,"여부":11346,"맞춰":11347,"예전":11348,"불안":11349,"바라":11350,"##수록":11351,"잘하":11352,"귀여":11353,"강의":11354,"전달":11355,"이곳":11356,"매일":11357,"##발전":11358,"##준다":11359,"으러":11360,"정확":11361,"3일":11362,"기획":11363,"##ㅠㅠㅠ":11364,"불법":11365,"##in":11366,"알바":11367,"아예":11368,"대책":11369,"야지":11370,"##간다":11371,"축구":11372,"아들":11373,"건물":11374,"이명":11375,"개정":11376,"제출":11377,"##회장":11378,"알려졌":11379,"지켜":11380,"독일":11381,"모델":11382,"연대":11383,"##차피":11384,"대출":11385,"할거":11386,"활성":11387,"우수":11388,"시청":11389,"영업":11390,"장애":11391,"서울시":11392,"연결":11393,"미리":11394,"느끼":11395,"##on":11396,"의혹":11397,"저번":11398,"존재":11399,"이루":11400,"대응":11401,"부동산":11402,"기사":11403,"비싸":11404,"35":11405,"사라":11406,"2차":11407,"강남":11408,"ㅠㅠㅠㅠ":11409,"##연합":11410,"포기":11411,"열리":11412,"80":11413,"지정":11414,"##아가":11415,"종합":11416,"##ㅌㅌ":11417,"여전":11418,"##으나":11419,"동아":11420,"검토":11421,"영국":11422,"##으면":11423,"상관":11424,"방침":11425,"는가":11426,"##문제":11427,"반응":11428,"거래":11429,"제외":11430,"그림":11431,"따로":11432,"되게":11433,"세종":11434,"##평가":11435,"분양":11436,"수능":11437,"순간":11438,"알아":11439,"민간":11440,"차량":11441,"중소기업":11442,"##00원":11443,"아버지":11444,"길래":11445,"##로나":11446,"총리":11447,"주식":11448,"피곤":11449,"오랜":11450,"ㅋㅋㅋㅋㅋㅋㅋㅋㅋㅋㅋㅋㅋㅋ":11451,"또는":11452,"여론":11453,"##영상":11454,"가정":11455,"수술":11456,"어차피":11457,"##들어":11458,"##복지":11459,"##30":11460,"안해":11461,"##호사":11462,"내놓":11463,"이끌":11464,"자꾸":11465,"가진":11466,"포인트":11467,"대체":11468,"현지":11469,"예술":11470,"신고":11471,"2008년":11472,"할게":11473,"마무리":11474,"평소":11475,"비용":11476,"##마자":11477,"예약":11478,"학원":11479,"수학":11480,"확정":11481,"이따":11482,"오키":11483,"10년":11484,"고용":11485,"1일":11486,"##주일":11487,"##마을":11488,"아름":11489,"나서":11490,"는디":11491,"기관":11492,"신기":11493,"회원":11494,"어쩌":11495,"##고기":11496,"보수":11497,"2012년":11498,"시기":11499,"##보험":11500,"수상":11501,"시절":11502,"어케":11503,"건데":11504,"보호":11505,"##자체":11506,"자세":11507,"##주택":11508,"스트레스":11509,"##른다":11510,"마치":11511,"광고":11512,"##드컵":11513,"생기":11514,"덧붙":11515,"청소년":11516,"불과":11517,"연애":11518,"학부":11519,"등장":11520,"이르":11521,"기초":11522,"내부":11523,"프랑":11524,"이명박":11525,"##러스":11526,"남성":11527,"히히":11528,"구만":11529,"촬영":11530,"과학":11531,"분명":11532,"전공":11533,"기다리":11534,"##ㅇㅇ":11535,"사과":11536,"직장":11537,"오르":11538,"에너지":11539,"발견":11540,"어머니":11541,"도로":11542,"날씨":11543,"방향":11544,"ㅇㅋ":11545,"안좋":11546,"자고":11547,"바꾸":11548,"정권":11549,"요청":11550,"연속":11551,"이런거":11552,"진심":11553,"예비":11554,"재정":11555,"설립":11556,"장기":11557,"인해":11558,"심각":11559,"다만":11560,"물어":11561,"5년":11562,"인식":11563,"##난다":11564,"##아들":11565,"안먹":11566,"배고":11567,"감소":11568,"바이":11569,"공정":11570,"매력":11571,"원인":11572,"아도":11573,"30분":11574,"제안":11575,"아닐":11576,"성격":11577,"앞두":11578,"못해":11579,"의지":11580,"실제로":11581,"강원":11582,"프리":11583,"혁신":11584,"무서":11585,"아아":11586,"댓글":11587,"##지사":11588,"원장":11589,"취소":11590,"나온다":11591,"##규모":11592,"3개":11593,"2010년":11594,"토론":11595,"5일":11596,"상담":11597,"구매":11598,"대구시":11599,"아닌가":11600,"고양":11601,"##스코":11602,"기념":11603,"훈련":11604,"아래":11605,"근무":11606,"출시":11607,"마시":11608,"##다가":11609,"으로서":11610,"담당":11611,"안가":11612,"전자":11613,"##것같":11614,"지급":11615,"##일보":11616,"저런":11617,"스포츠":11618,"꾸준":11619,"##어들":11620,"통한":11621,"행동":11622,"인근":11623,"어때":11624,"솔직히":11625,"가슴":11626,"니깐":11627,"동생":11628,"##후보":11629,"발언":11630,"시도":11631,"##사고":11632,"나갈":11633,"##가구":11634,"당선":11635,"조치":11636,"소통":11637,"##건데":11638,"##10":11639,"##투자":11640,"프랑스":11641,"고자":11642,"무료":11643,"힘든":11644,"짜증":11645,"시켰":11646,"여전히":11647,"##00만":11648,"고기":11649,"창업":11650,"##우스":11651,"무조건":11652,"##때문":11653,"호텔":11654,"대기업":11655,"2009년":11656,"평화":11657,"수입":11658,"느껴":11659,"##페이지":11660,"대중":11661,"##어났":11662,"이미지":11663,"거쳐":11664,"단순":11665,"통화":11666,"감정":11667,"부정":11668,"회복":11669,"올랐":11670,"구체":11671,"덧붙였":11672,"##건설":11673,"노조":11674,"##선수":11675,"전환":11676,"통과":11677,"올려":11678,"간다":11679,"실패":11680,"할머니":11681,"KBS":11682,"10일":11683,"##50":11684,"##아지":11685,"##협회":11686,"면접":11687,"2011년":11688,"에어":11689,"온라인":11690,"규제":11691,"규정":11692,"소득":11693,"코스":11694,"공감":11695,"자마자":11696,"근로":11697,"##전거":11698,"##져서":11699,"정당":11700,"198":11701,"새벽":11702,"나올":11703,"다리":11704,"충남":11705,"바뀌":11706,"눈물":11707,"비율":11708,"##영화":11709,"재판":11710,"연출":11711,"자랑":11712,"빠르":11713,"짜리":11714,"남북":11715,"##이드":11716,"제한":11717,"TV":11718,"챙겨":11719,"자는":11720,"나머":11721,"인터뷰":11722,"대단":11723,"나섰":11724,"##노동":11725,"을지":11726,"10시":11727,"교과":11728,"소재":11729,"##나가":11730,"다며":11731,"##or":11732,"사전":11733,"15일":11734,"##페인":11735,"##버스":11736,"1차":11737,"##화점":11738,"차례":11739,"인거":11740,"치킨":11741,"세월":11742,"매년":11743,"##근데":11744,"불러":11745,"훨씬":11746,"축제":11747,"##이팅":11748,"만족":11749,"4대":11750,"2014년":11751,"인도":11752,"통일":11753,"학습":11754,"몇시":11755,"4일":11756,"스마트폰":11757,"##세계":11758,"부탁":11759,"갈등":11760,"MBC":11761,"잘했":11762,"귀찮":11763,"##en":11764,"중단":11765,"##해야":11766,"시킨":11767,"당장":11768,"##00만원":11769,"아닌데":11770,"전해":11771,"안된":11772,"20일":11773,"코로나":11774,"KT":11775,"수요":11776,"그룹":11777,"9시":11778,"조심":11779,"##이션":11780,"##다니":11781,"떨어지":11782,"6시":11783,"러시아":11784,"방금":11785,"외교":11786,"##an":11787,"해줄":11788,"##금융":11789,"##관광":11790,"겁나":11791,"향후":11792,"##천원":11793,"##젝트":11794,"떠나":11795,"나머지":11796,"4년":11797,"남친":11798,"스러운":11799,"계기":11800,"마스크":11801,"7시":11802,"인물":11803,"##이브":11804,"사태":11805,"안타":11806,"일까":11807,"조합":11808,"##나무":11809,"2일":11810,"출전":11811,"##거래":11812,"했었":11813,"저기":11814,"자격":11815,"##지구":11816,"따뜻":11817,"내리":11818,"ㅋㅋㅋㅋㅋㅋㅋㅋㅋㅋㅋㅋㅋㅋㅋ":11819,"마자":11820,"버리":11821,"더불":11822,"도와":11823,"펼쳐":11824,"36":11825,"한달":11826,"지하철":11827,"서울대":11828,"봉사":11829,"##드리":11830,"국회의원":11831,"2개":11832,"목적":11833,"공장":11834,"타이":11835,"기반":11836,"편의":11837,"2013년":11838,"노인":11839,"예방":11840,"나선":11841,"바꿔":11842,"2007년":11843,"패션":11844,"이래":11845,"ㄴㄴ":11846,"해볼":11847,"##공항":11848,"군대":11849,"출마":11850,"##시대":11851,"했으며":11852,"진정":11853,"##om":11854,"단계":11855,"이번주":11856,"7일":11857,"아름다":11858,"##피스":11859,"어여":11860,"운전":11861,"파악":11862,"진보":11863,"##토리":11864,"유통":11865,"오오":11866,"##그러":11867,"##연구원":11868,"투입":11869,"전쟁":11870,"제2":11871,"인수":11872,"강력":11873,"자녀":11874,"어야지":11875,"##같이":11876,"##예술":11877,"##거운":11878,"만약":11879,"##체육":11880,"보장":11881,"자전거":11882,"야당":11883,"완성":11884,"지키":11885,"##안전":11886,"45":11887,"##디오":11888,"한가":11889,"1000":11890,"귀엽":11891,"원내":11892,"여야":11893,"조차":11894,"야구":11895,"제발":11896,"##드시":11897,"8일":11898,"주도":11899,"##텐츠":11900,"##ㅅㅇ":11901,"말씀":11902,"인구":11903,"둘러":11904,"천안":11905,"마저":11906,"12일":11907,"사망":11908,"##부장":11909,"남편":11910,"학부모":11911,"##분기":11912,"생명":11913,"##텐데":11914,"한다면":11915,"공유":11916,"##벤트":11917,"조정":11918,"##통신":11919,"입주":11920,"바탕":11921,"##니스":11922,"수정":11923,"연습":11924,"일주일":11925,"조아":11926,"차원":11927,"문재":11928,"관한":11929,"경주":11930,"부르":11931,"느라":11932,"동영상":11933,"##이상":11934,"25일":11935,"으나":11936,"신뢰":11937,"충분히":11938,"삼성전자":11939,"애기":11940,"선배":11941,"##방송":11942,"자금":11943,"##단계":11944,"점수":11945,"9일":11946,"누나":11947,"16일":11948,"이쁘":11949,"가르":11950,"##재단":11951,"14일":11952,"##규직":11953,"11일":11954,"본다":11955,"범죄":11956,"연계":11957,"달성":11958,"어쩔":11959,"얼른":11960,"##리즈":11961,"골프":11962,"가을":11963,"주차":11964,"해야하":11965,"독립":11966,"올림픽":11967,"##민주":11968,"##시민":11969,"22일":11970,"바다":11971,"##성장":11972,"할지":11973,"1인":11974,"당연히":11975,"관객":11976,"주로":11977,"키우":11978,"6일":11979,"지자체":11980,"포항":11981,"몰랐":11982,"90":11983,"##대책":11984,"경쟁력":11985,"홈페이지":11986,"형태":11987,"편하":11988,"32":11989,"부상":11990,"##소득":11991,"##도로":11992,"보유":11993,"17일":11994,"받아들":11995,"불구":11996,"이어지":11997,"으로써":11998,"4개":11999,"##만명":12000,"걸로":12001,"하락":12002,"##서비스":12003,"매장":12004,"두개":12005,"으로부터":12006,"국토":12007,"어려움":12008,"건축":12009,"##려야":12010,"##at":12011,"23일":12012,"일상":12013,"19일":12014,"충격":12015,"굳이":12016,"24일":12017,"나눠":12018,"합격":12019,"소식":12020,"제1":12021,"생일":12022,"택시":12023,"18일":12024,"연장":12025,"반드시":12026,"##자치":12027,"11시":12028,"돌아가":12029,"무리":12030,"13일":12031,"프로젝트":12032,"##보이":12033,"변호사":12034,"2015년":12035,"33":12036,"헤어":12037,"실력":12038,"나무":12039,"조건":12040,"월드컵":12041,"21일":12042,"##자금":12043,"따라서":12044,"가끔":12045,"줄이":12046,"이벤트":12047,"장난":12048,"요리":12049,"확산":12050,"김정":12051,"브라":12052,"유일":12053,"해왔":12054,"##시즌":12055,"26일":12056,"##사진":12057,"동네":12058,"##등급":12059,"비중":12060,"인권":12061,"혜택":12062,"##산물":12063,"언급":12064,"잠깐":12065,"끼리":12066,"차별":12067,"27일":12068,"좋아":12069,"국방":12070,"##게임":12071,"전반":12072,"##ar":12073,"불리":12074,"##이익":12075,"8시":12076,"##조원":12077,"1천":12078,"##시지":12079,"개웃":12080,"##머리":12081,"##회견":12082,"속도":12083,"오바":12084,"여보":12085,"##0년대":12086,"##조정":12087,"단지":12088,"28일":12089,"마찬":12090,"##봐야":12091,"꾸준히":12092,"선언":12093,"외부":12094,"##정치":12095,"둘다":12096,"시각":12097,"ㅇㅅㅇ":12098,"전력":12099,"집가":12100,"육성":12101,"아쉬":12102,"모아":12103,"34":12104,"빠져":12105,"특정":12106,"걸리":12107,"공약":12108,"배경":12109,"공천":12110,"유리":12111,"##구나":12112,"거부":12113,"이달":12114,"협상":12115,"뉴스":12116,"부문":12117,"신규":12118,"미치":12119,"마찬가지":12120,"잘해":12121,"기부":12122,"대변":12123,"네이":12124,"제조":12125,"주인공":12126,"생겼":12127,"##직원":12128,"현상":12129,"##건가":12130,"##ㅋㅋㅋㅋㅋㅋㅋㅋㅋ":12131,"옛날":12132,"여수":12133,"##전문":12134,"문자":12135,"##리카":12136,"알리":12137,"##이너":12138,"만난":12139,"그려":12140,"협의":12141,"특성":12142,"총선":12143,"라니":12144,"밝혀":12145,"수비":12146,"가구":12147,"블랙":12148,"여유":12149,"창원":12150,"살아":12151,"500":12152,"##프트":12153,"결제":12154,"만날":12155,"기자회견":12156,"화장실":12157,"##제도":12158,"##구역":12159,"달러":12160,"##라리":12161,"새누리당":12162,"기여":12163,"국립":12164,"학점":12165,"금리":12166,"더라구":12167,"노동자":12168,"하이":12169,"들어오":12170,"장소":12171,"##행사":12172,"##경찰":12173,"##공단":12174,"안내":12175,"직업":12176,"나누":12177,"인증":12178,"알려주":12179,"실적":12180,"자원":12181,"지식":12182,"##지어":12183,"반발":12184,"대기":12185,"시킬":12186,"텐데":12187,"5개":12188,"피해자":12189,"##al":12190,"에이":12191,"장면":12192,"절차":12193,"케이":12194,"##반도":12195,"쪽지":12196,"보냈":12197,"절반":12198,"인재":12199,"난리":12200,"인한":12201,"##케팅":12202,"미술":12203,"사상":12204,"완벽":12205,"촉구":12206,"도서관":12207,"##레기":12208,"##과학":12209,"##사자":12210,"비상":12211,"##메달":12212,"그린":12213,"강한":12214,"초반":12215,"휴대":12216,"대표팀":12217,"3명":12218,"생긴":12219,"심사":12220,"##바일":12221,"가수":12222,"쇼핑":12223,"모집":12224,"상상":12225,"300":12226,"아무리":12227,"특징":12228,"##다른":12229,"최선":12230,"30일":12231,"2위":12232,"활약":12233,"##아냐":12234,"그러면":12235,"##버리":12236,"신촌":12237,"모양":12238,"동의":12239,"한화":12240,"입학":12241,"##시험":12242,"정해":12243,"##너무":12244,"잠시":12245,"신문":12246,"위반":12247,"당신":12248,"##제품":12249,"##자원":12250,"##지방":12251,"준다":12252,"창출":12253,"부지":12254,"배치":12255,"##프라":12256,"최대한":12257,"연예":12258,"##란다":12259,"금방":12260,"뭐하":12261,"승부":12262,"웃음":12263,"김치":12264,"행위":12265,"하늘":12266,"##조합":12267,"라구":12268,"##릭터":12269,"설계":12270,"##나오":12271,"요새":12272,"어울":12273,"변경":12274,"사무실":12275,"총장":12276,"휴가":12277,"해석":12278,"##메라":12279,"로운":12280,"오픈":12281,"38":12282,"최저":12283,"토요일":12284,"응원":12285,"늘어나":12286,"과목":12287,"##아파":12288,"##퓨터":12289,"5시":12290,"2명":12291,"신용":12292,"걸어":12293,"ㅋㅋㅋㅋㅋㅋㅋㅋㅋㅋㅋㅋㅋㅋㅋㅋ":12294,"##검사":12295,"채용":12296,"들여":12297,"점점":12298,"근거":12299,"체결":12300,"즐기":12301,"우리집":12302,"평생":12303,"인력":12304,"의무":12305,"노트":12306,"무시":12307,"예쁘":12308,"올렸":12309,"이모":12310,"해소":12311,"지사":12312,"근처":12313,"전용":12314,"##법원":12315,"수행":12316,"부럽":12317,"아쉽":12318,"구입":12319,"##아이":12320,"눈치":12321,"판결":12322,"향상":12323,"통신":12324,"##보내":12325,"##차례":12326,"고통":12327,"다이":12328,"베이":12329,"맥주":12330,"20대":12331,"수시":12332,"세종시":12333,"##연구소":12334,"소화":12335,"##번호":12336,"심지어":12337,"배달":12338,"모바일":12339,"세대":12340,"관광객":12341,"법원":12342,"지구":12343,"그녀":12344,"구속":12345,"그나":12346,"##청장":12347,"돌려":12348,"멤버":12349,"권력":12350,"##기준":12351,"려나":12352,"접근":12353,"다이어":12354,"연말":12355,"##서트":12356,"금액":12357,"잘생":12358,"캐릭터":12359,"##어진":12360,"보건":12361,"철저":12362,"##증권":12363,"시원":12364,"##처리":12365,"라이":12366,"장점":12367,"##여행":12368,"아내":12369,"##교통":12370,"29일":12371,"컬러":12372,"동물":12373,"일대":12374,"불가능":12375,"##주년":12376,"데뷔":12377,"실천":12378,"개혁":12379,"작성":12380,"한게":12381,"##신청":12382,"할수":12383,"미쳤":12384,"세금":12385,"벌이":12386,"##가족":12387,"관람":12388,"애플":12389,"임대":12390,"식당":12391,"살펴":12392,"하고":12393,"금지":12394,"비정":12395,"두산":12396,"펀드":12397,"친환경":12398,"일으":12399,"형성":12400,"202":12401,"원내대표":12402,"##리어":12403,"##세요":12404,"답변":12405,"필수":12406,"생태":12407,"항공":12408,"구미":12409,"원칙":12410,"개막":12411,"다운":12412,"##야하":12413,"##대상":12414,"긴장":12415,"그러니까":12416,"심리":12417,"##워크":12418,"##온다":12419,"오랜만":12420,"2만":12421,"##교육청":12422,"지요":12423,"진단":12424,"2시":12425,"나타나":12426,"##많이":12427,"37":12428,"세월호":12429,"##이이":12430,"아니면":12431,"문재인":12432,"덕분":12433,"모여":12434,"컴퓨터":12435,"##시스템":12436,"##통합":12437,"김영":12438,"빠른":12439,"의심":12440,"셔서":12441,"연간":12442,"해달":12443,"이틀":12444,"돼야":12445,"된다는":12446,"##라도":12447,"부부":12448,"##능력":12449,"올라가":12450,"##기구":12451,"빠지":12452,"우울":12453,"못할":12454,"오호":12455,"반복":12456,"다구":12457,"##TV":12458,"모임":12459,"두번":12460,"눈길":12461,"집행":12462,"업계":12463,"수강":12464,"교체":12465,"2006년":12466,"조언":12467,"후반":12468,"허용":12469,"누군":12470,"##터리":12471,"현금":12472,"대충":12473,"4대강":12474,"인스타":12475,"마니":12476,"흔들":12477,"메이":12478,"돼지":12479,"##축제":12480,"된다고":12481,"폐지":12482,"애초":12483,"만났":12484,"12시":12485,"계산":12486,"##연대":12487,"불가":12488,"##준비":12489,"##식품":12490,"강제":12491,"상처":12492,"긍정":12493,"1억":12494,"10분":12495,"담주":12496,"##st":12497,"한반도":12498,"##바로":12499,"개념":12500,"##파크":12501,"가득":12502,"의장":12503,"##가락":12504,"했으나":12505,"핸드":12506,"선진":12507,"##피언":12508,"##지컬":12509,"가까운":12510,"자산":12511,"맛잇":12512,"유튜":12513,"##천시":12514,"##ㅜㅜㅜㅜ":12515,"1시간":12516,"공모":12517,"역대":12518,"투수":12519,"ㅇㅈ":12520,"어깨":12521,"##상품":12522,"##협력":12523,"임금":12524,"계절":12525,"ㄷㄷ":12526,"이재":12527,"가방":12528,"냄새":12529,"##전화":12530,"맞춤":12531,"비싼":12532,"에타":12533,"나름":12534,"전부":12535,"당하":12536,"이른":12537,"##물관":12538,"점검":12539,"아름다운":12540,"전면":12541,"##노조":12542,"##신문":12543,"명예":12544,"콘텐츠":12545,"금요일":12546,"미디어":12547,"이기":12548,"조용":12549,"효율":12550,"허리":12551,"3시":12552,"##tt":12553,"그날":12554,"39":12555,"##회담":12556,"키로":12557,"적당":12558,"##ou":12559,"차라리":12560,"고교":12561,"자율":12562,"측면":12563,"실수":12564,"55":12565,"##호선":12566,"찾아보":12567,"##중앙":12568,"비행":12569,"봐도":12570,"라인":12571,"대학생":12572,"크리스":12573,"##올림픽":12574,"##다리":12575,"동기":12576,"고맙":12577,"##사랑":12578,"감동":12579,"그만큼":12580,"참고":12581,"거듭":12582,"##구조":12583,"조기":12584,"수영":12585,"접수":12586,"##라운드":12587,"부인":12588,"##겠다":12589,"대규모":12590,"##걸로":12591,"비난":12592,"아동":12593,"지방선거":12594,"자동":12595,"무섭":12596,"197":12597,"독서":12598,"##이사":12599,"##경영":12600,"대리":12601,"박사":12602,"4시":12603,"##주시":12604,"소설":12605,"감안":12606,"간단":12607,"무상":12608,"제주도":12609,"특수":12610,"전형":12611,"마케팅":12612,"시점":12613,"흑흑":12614,"예요":12615,"끝내":12616,"밝히":12617,"##ㅎㅎㅎㅎ":12618,"베트":12619,"##사이":12620,"체계":12621,"고등학교":12622,"표정":12623,"오케":12624,"##해지":12625,"차단":12626,"걸쳐":12627,"것같":12628,"저희":12629,"##게요":12630,"헌법":12631,"확실히":12632,"4명":12633,"극복":12634,"화려":12635,"이란":12636,"##금리":12637,"사실상":12638,"건립":12639,"센터":12640,"월급":12641,"##던데":12642,"노무":12643,"해놓":12644,"추억":12645,"시위":12646,"##어어":12647,"응답":12648,"의해":12649,"정의":12650,"##고사":12651,"한국인":12652,"##축구":12653,"경선":12654,"48":12655,"안양":12656,"플레이":12657,"리더":12658,"2016년":12659,"##국제":12660,"농업":12661,"카메라":12662,"KB":12663,"데이터":12664,"##저씨":12665,"전북":12666,"##마리":12667,"##오오":12668,"보단":12669,"보상":12670,"김씨":12671,"##바이":12672,"##지도":12673,"한명":12674,"웃기":12675,"벗어나":12676,"다하":12677,"집단":12678,"공항":12679,"정기":12680,"##어날":12681,"##가스":12682,"발굴":12683,"비밀":12684,"후원":12685,"##야구":12686,"배출":12687,"ㅠㅠㅠㅠㅠ":12688,"복귀":12689,"들어갔":12690,"##공간":12691,"##장애":12692,"축하":12693,"동아리":12694,"그나마":12695,"영양":12696,"흐름":12697,"##문학":12698,"거든요":12699,"메뉴":12700,"상위":12701,"가보":12702,"다소":12703,"보낸":12704,"연주":12705,"전년":12706,"논리":12707,"끝났":12708,"이탈":12709,"이익":12710,"재산":12711,"초기":12712,"출범":12713,"##행위":12714,"한지":12715,"##11":12716,"슈퍼":12717,"##려주":12718,"장학":12719,"##it":12720,"##계약":12721,"쓰레기":12722,"해라":12723,"가까이":12724,"자본":12725,"그정도":12726,"소송":12727,"추석":12728,"##교수":12729,"여서":12730,"갈까":12731,"기계":12732,"부장":12733,"계열":12734,"듯이":12735,"서민":12736,"ㅠㅠㅠㅠㅠㅠㅠ":12737,"영역":12738,"##년간":12739,"포장":12740,"라면서":12741,"ㅜㅜㅜ":12742,"##TA":12743,"진로":12744,"6개월":12745,"법률":12746,"우린":12747,"##치료":12748,"한계":12749,"할듯":12750,"국무":12751,"##안하":12752,"답답":12753,"단어":12754,"마감":12755,"베트남":12756,"뉴욕":12757,"와이":12758,"##스티":12759,"달려":12760,"42":12761,"전세":12762,"의도":12763,"해봤":12764,"던지":12765,"식사":12766,"자극":12767,"사이트":12768,"이사장":12769,"##ㅋㅋㅋㅋㅋㅋㅋㅋㅋㅋ":12770,"##국장":12771,"##ㅅㅋ":12772,"##지수":12773,"##자동차":12774,"##연금":12775,"##얘기":12776,"시선":12777,"제목":12778,"힘내":12779,"고급":12780,"어용":12781,"현대차":12782,"##럼프":12783,"1명":12784,"이뤄지":12785,"는다는":12786,"다섯":12787,"취지":12788,"과연":12789,"새롭":12790,"실험":12791,"생리":12792,"##담회":12793,"내세":12794,"##웨이":12795,"산책":12796,"##대학교":12797,"단일":12798,"안했":12799,"IT":12800,"지상":12801,"초등학교":12802,"전날":12803,"##바지":12804,"여친":12805,"취임":12806,"암튼":12807,"저렴":12808,"##ic":12809,"는다고":12810,"어떡":12811,"결승":12812,"물리":12813,"해온":12814,"일요일":12815,"치열":12816,"##학원":12817,"##라스":12818,"다이어트":12819,"아이폰":12820,"모자":12821,"지내":12822,"증상":12823,"곳곳":12824,"뿌리":12825,"군사":12826,"사퇴":12827,"##가격":12828,"괜히":12829,"대변인":12830,"려구":12831,"키워":12832,"##자료":12833,"고양이":12834,"해양":12835,"아웃":12836,"설정":12837,"이승":12838,"실현":12839,"##IA":12840,"별도":12841,"오리":12842,"수석":12843,"압박":12844,"그래야":12845,"커지":12846,"놀라":12847,"펼치":12848,"체육":12849,"과장":12850,"바르":12851,"누리":12852,"##따라":12853,"어이":12854,"##투표":12855,"신설":12856,"는구나":12857,"태도":12858,"혹은":12859,"냐는":12860,"밝힌":12861,"##le":12862,"##언니":12863,"공대":12864,"65":12865,"즐길":12866,"com":12867,"상관없":12868,"상징":12869,"완화":12870,"##사무":12871,"당초":12872,"종목":12873,"신발":12874,"대답":12875,"바닥":12876,"이내":12877,"150":12878,"경력":12879,"살짝":12880,"기울":12881,"대안":12882,"2000":12883,"웃겨":12884,"화제":12885,"대우":12886,"해졌":12887,"ㅇㅇㅇ":12888,"수용":12889,"물건":12890,"네이버":12891,"사항":12892,"외모":12893,"번호":12894,"##그런":12895,"유튜브":12896,"##40":12897,"맞추":12898,"구단":12899,"부여":12900,"##비용":12901,"##플레이":12902,"##가요":12903,"근육":12904,"##수업":12905,"주거":12906,"교회":12907,"##러운":12908,"위협":12909,"죽음":12910,"야권":12911,"남녀":12912,"바쁘":12913,"어려워":12914,"##천히":12915,"결론":12916,"공직":12917,"수치":12918,"##결과":12919,"##오늘":12920,"##리트":12921,"챔피언":12922,"입시":12923,"성남":12924,"한시간":12925,"노무현":12926,"열정":12927,"거짓":12928,"##만나":12929,"바란다":12930,"실질":12931,"아닐까":12932,"까진":12933,"구래":12934,"화이팅":12935,"이웃":12936,"존나":12937,"여당":12938,"아무것":12939,"법안":12940,"이성":12941,"미세":12942,"##디션":12943,"희생":12944,"##ing":12945,"이자":12946,"보고서":12947,"##실장":12948,"1시":12949,"심하":12950,"##으니":12951,"아르":12952,"##NS":12953,"굉장":12954,"담배":12955,"해준":12956,"구하":12957,"모으":12958,"사정":12959,"##협의회":12960,"상반기":12961,"재수":12962,"##훈련":12963,"예쁜":12964,"갖추":12965,"앨범":12966,"선호":12967,"요금":12968,"##걸리":12969,"양성":12970,"##그럼":12971,"처벌":12972,"적절":12973,"무기":12974,"##ttp":12975,"구간":12976,"을까요":12977,"건지":12978,"소중":12979,"##이크업":12980,"##수수":12981,"편의점":12982,"될까":12983,"통계":12984,"위주":12985,"채권":12986,"나쁜":12987,"갖춘":12988,"하반기":12989,"어른":12990,"##트워크":12991,"비대":12992,"##체험":12993,"임시":12994,"47":12995,"##주민":12996,"http":12997,"##카오":12998,"강원도":12999,"일제":13000,"떨어진":13001,"직후":13002,"올린":13003,"##ww":13004,"프리미":13005,"고속":13006,"##공업":13007,"2주":13008,"심심":13009,"##끝나":13010,"##볶이":13011,"오바마":13012,"강하":13013,"연예인":13014,"서류":13015,"추정":13016,"깨끗":13017,"43":13018,"성인":13019,"원전":13020,"완료":13021,"월요일":13022,"##보호":13023,"초대":13024,"사주":13025,"2005년":13026,"진입":13027,"살리":13028,"##re":13029,"트럼프":13030,"##항공":13031,"정원":13032,"폭력":13033,"팀장":13034,"데려":13035,"46":13036,"##시티":13037,"레이":13038,"##러워":13039,"아픈":13040,"고향":13041,"문학":13042,"이정":13043,"광역":13044,"##사일":13045,"44":13046,"체력":13047,"천천히":13048,"각자":13049,"콘서트":13050,"뭐먹":13051,"찾아가":13052,"체제":13053,"화장품":13054,"근로자":13055,"##법인":13056,"뮤지컬":13057,"##세기":13058,"공기":13059,"##000만원":13060,"75":13061,"내렸":13062,"저자":13063,"충전":13064,"끌어":13065,"한마":13066,"택배":13067,"6개":13068,"##모르":13069,"안들":13070,"소장":13071,"유도":13072,"움직임":13073,"##데이":13074,"5명":13075,"생겨":13076,"소유":13077,"정비":13078,"홈런":13079,"확장":13080,"스토리":13081,"고위":13082,"내내":13083,"크기":13084,"헬스":13085,"##줄게":13086,"종류":13087,"시청자":13088,"##he":13089,"주가":13090,"투자자":13091,"##올리":13092,"##개혁":13093,"던가":13094,"41":13095,"##아리":13096,"언어":13097,"증거":13098,"적응":13099,"초등":13100,"의식":13101,"초청":13102,"정규":13103,"노트북":13104,"##로그":13105,"수수":13106,"어우":13107,"불만":13108,"피자":13109,"메이크업":13110,"중도":13111,"자살":13112,"##학습":13113,"금메달":13114,"손해":13115,"##공장":13116,"52":13117,"##오르":13118,"##업계":13119,"보조":13120,"##람회":13121,"##리오":13122,"메시지":13123,"www":13124,"골라":13125,"어머":13126,"식품":13127,"역량":13128,"뛰어":13129,"49":13130,"A씨":13131,"든지":13132,"##종합":13133,"##세트":13134,"아이템":13135,"아우":13136,"알아보":13137,"폭발":13138,"##이래":13139,"ㅠㅜ":13140,"리그":13141,"##교사":13142,"##차이":13143,"백화점":13144,"##전략":13145,"고요":13146,"##철수":13147,"##의료":13148,"##쳐서":13149,"인하":13150,"중학교":13151,"끝난":13152,"진료":13153,"트위":13154,"지시":13155,"##폭력":13156,"검증":13157,"태양":13158,"교육감":13159,"싸우":13160,"호주":13161,"용인":13162,"##총장":13163,"늘리":13164,"##지금":13165,"거주":13166,"기다려":13167,"작용":13168,"당일":13169,"개성":13170,"1개":13171,"자라":13172,"##봉사":13173,"열린다":13174,"굉장히":13175,"나와서":13176,"##러리":13177,"송도":13178,"##000억원":13179,"아이디어":13180,"인듯":13181,"##학과":13182,"인제":13183,"##티브":13184,"여론조사":13185,"##대출":13186,"의문":13187,"활발":13188,"수많":13189,"##총리":13190,"##국가":13191,"어떠":13192,"완전히":13193,"##감독":13194,"상임":13195,"##감사":13196,"과외":13197,"줄어들":13198,"배려":13199,"녹색":13200,"##크림":13201,"3개월":13202,"아울":13203,"##조선":13204,"다음주":13205,"31일":13206,"##타임":13207,"페미":13208,"집안":13209,"유니":13210,"느낄":13211,"귀여워":13212,"대북":13213,"배고파":13214,"##전형":13215,"##친다":13216,"포스코":13217,"##❤️":13218,"3만":13219,"누워":13220,"진실":13221,"##작용":13222,"##12":13223,"강아지":13224,"##급식":13225,"연세대":13226,"한건":13227,"##마스":13228,"부진":13229,"며칠":13230,"##ㅏㅏ":13231,"나쁘":13232,"주관":13233,"애매":13234,"김성":13235,"구경":13236,"복합":13237,"이쁜":13238,"해본":13239,"구글":13240,"민주주의":13241,"비정규직":13242,"당국":13243,"옮겨":13244,"영남":13245,"티켓":13246,"2번":13247,"네여":13248,"법인":13249,"##래도":13250,"##우리":13251,"연봉":13252,"딱히":13253,"김태":13254,"인공":13255,"체크":13256,"ㄱㅊ":13257,"파업":13258,"저렇게":13259,"종교":13260,"흥미":13261,"196":13262,"당했":13263,"2시간":13264,"경고":13265,"##운영":13266,"신한":13267,"대사":13268,"다수":13269,"SNS":13270,"미니":13271,"##효과":13272,"kr":13273,"연극":13274,"인줄":13275,"후회":13276,"지분":13277,"디지":13278,"가리":13279,"바라보":13280,"##km":13281,"예측":13282,"떨어졌":13283,"예고":13284,"##모델":13285,"##엄마":13286,"SBS":13287,"의회":13288,"기소":13289,"창조":13290,"예비후보":13291,"돌리":13292,"찬성":13293,"동료":13294,"인정받":13295,"시내":13296,"동원":13297,"계란":13298,"권리":13299,"가로":13300,"단독":13301,"##국수":13302,"위안":13303,"움직이":13304,"득점":13305,"와우":13306,"인원":13307,"제3":13308,"##시안":13309,"신입":13310,"##아버지":13311,"##의식":13312,"시인":13313,"##상황":13314,"아저씨":13315,"탄생":13316,"심장":13317,"강사":13318,"해진":13319,"집회":13320,"취재":13321,"긴급":13322,"논문":13323,"됩니다":13324,"마이":13325,"주최":13326,"화면":13327,"소방":13328,"스페인":13329,"자치":13330,"메일":13331,"요소":13332,"도심":13333,"싸움":13334,"##연맹":13335,"중고":13336,"##가량":13337,"등록금":13338,"교류":13339,"만남":13340,"이때":13341,"선고":13342,"호소":13343,"##미술":13344,"3번":13345,"##먼지":13346,"거론":13347,"1조":13348,"##사건":13349,"##여자":13350,"명품":13351,"친박":13352,"개정안":13353,"후배":13354,"품질":13355,"일어났":13356,"돌파":13357,"##보고":13358,"KIA":13359,"##파이":13360,"##상태":13361,"재료":13362,"토지":13363,"브라질":13364,"돼서":13365,"59":13366,"머물":13367,"부자":13368,"1층":13369,"박정":13370,"늘어난":13371,"매각":13372,"으시":13373,"세우":13374,"아닝":13375,"바지":13376,"##봐서":13377,"가게":13378,"가졌":13379,"짜증나":13380,"향해":13381,"아녀":13382,"악화":13383,"##정신":13384,"주력":13385,"한대":13386,"독자":13387,"대만":13388,"최우":13389,"##순위":13390,"으려고":13391,"으신":13392,"##ㅎㅎㅎ":13393,"드리":13394,"축소":13395,"##프로그램":13396,"공원":13397,"한강":13398,"이젠":13399,"잘자":13400,"청구":13401,"3위":13402,"##아닌":13403,"사귀":13404,"범위":13405,"##아님":13406,"더라고요":13407,"안철수":13408,"감염":13409,"여러분":13410,"##ㅡㅡ":13411,"##도착":13412,"나갔":13413,"타격":13414,"##립니다":13415,"##느낌":13416,"원자":13417,"##ㅋㅋㅋㅋㅋㅋㅋㅋㅋㅋㅋ":13418,"내말":13419,"시급":13420,"##다면":13421,"건조":13422,"제거":13423,"맛나":13424,"##새끼":13425,"스피":13426,"대법원":13427,"매주":13428,"아니야":13429,"##봐도":13430,"##80":13431,"선보이":13432,"56":13433,"민원":13434,"페이스":13435,"충청":13436,"구분":13437,"부실":13438,"##15":13439,"##마시":13440,"30대":13441,"동일":13442,"세트":13443,"학과":13444,"진학":13445,"##려고":13446,"후기":13447,"못가":13448,"형식":13449,"요인":13450,"1회":13451,"400":13452,"첨단":13453,"호남":13454,"무려":13455,"##분야":13456,"이럴":13457,"동반":13458,"직전":13459,"개편":13460,"##란히":13461,"정하":13462,"방지":13463,"2017년":13464,"아무래도":13465,"해야할":13466,"재미있":13467,"개봉":13468,"트렌":13469,"##생명":13470,"진지":13471,"뭔지":13472,"승인":13473,"##000만":13474,"##그래도":13475,"보일":13476,"학기":13477,"##란드":13478,"##하우스":13479,"##드라":13480,"매달":13481,"누군가":13482,"##먼트":13483,"##공연":13484,"실내":13485,"깔끔":13486,"노출":13487,"이슈":13488,"호흡":13489,"대학원":13490,"방학":13491,"안산":13492,"트위터":13493,"편안":13494,"아기":13495,"##하하":13496,"핸드폰":13497,"배송":13498,"ㅅㅂ":13499,"들어간":13500,"수립":13501,"해야되":13502,"인가요":13503,"고등":13504,"2천":13505,"감성":13506,"교환":13507,"다음달":13508,"성분":13509,"부드":13510,"유엔":13511,"20분":13512,"##트리":13513,"감기":13514,"##안타":13515,"##억달러":13516,"##에에":13517,"##비아":13518,"정체":13519,"부대":13520,"표시":13521,"어찌":13522,"전주":13523,"이대":13524,"##까봐":13525,"시범":13526,"##et":13527,"복잡":13528,"챙기":13529,"##내기":13530,"생존":13531,"##백화점":13532,"투어":13533,"##개국":13534,"이중":13535,"전원":13536,"무릎":13537,"스크":13538,"##거지":13539,"안녕":13540,"##ion":13541,"CE":13542,"안될":13543,"기름":13544,"##여서":13545,"부회장":13546,"사법":13547,"##져야":13548,"선임":13549,"화학":13550,"자존":13551,"지배":13552,"53":13553,"클래":13554,"와인":13555,"##다보":13556,"임명":13557,"##레이드":13558,"##들어가":13559,"54":13560,"##대체":13561,"1번":13562,"vs":13563,"근본":13564,"광주시":13565,"순위":13566,"게다가":13567,"아나":13568,"군요":13569,"##권자":13570,"권한":13571,"##종일":13572,"##회관":13573,"시리즈":13574,"조례":13575,"##스쿨":13576,"흘러":13577,"선두":13578,"아항":13579,"균형":13580,"멀리":13581,"##기사":13582,"가요":13583,"고소":13584,"개설":13585,"##철도":13586,"##행정":13587,"므로":13588,"개방":13589,"비리":13590,"둘째":13591,"형사":13592,"##등록":13593,"##아내":13594,"문의":13595,"임원":13596,"큰일":13597,"##러지":13598,"현안":13599,"기에":13600,"회계":13601,"침대":13602,"우와":13603,"못먹":13604,"왼쪽":13605,"##놀이":13606,"##국민":13607,"촛불":13608,"국어":13609,"##해도":13610,"개별":13611,"질환":13612,"당한":13613,"교육청":13614,"캠프":13615,"장비":13616,"자식":13617,"##시다":13618,"증권":13619,"공주":13620,"해줬":13621,"비행기":13622,"##사장":13623,"##장고":13624,"갈게":13625,"제재":13626,"ㅋㅋㅋㅋㅋㅋㅋㅋㅋㅋㅋㅋㅋㅋㅋㅋㅋㅋ":13627,"농촌":13628,"사기":13629,"한국당":13630,"##방안":13631,"##이야":13632,"부품":13633,"소녀":13634,"2004년":13635,"##카페":13636,"전개":13637,"##어도":13638,"정치인":13639,"발휘":13640,"##줘야":13641,"카카오":13642,"51":13643,"##am":13644,"##기록":13645,"3차":13646,"달하":13647,"##헤헤":13648,"단속":13649,"해명":13650,"3대":13651,"##뉴스":13652,"##체계":13653,"홍콩":13654,"##ㅇㅋ":13655,"57":13656,"##부지":13657,"상장":13658,"들어갈":13659,"그쳤":13660,"생각나":13661,"뜨거운":13662,"할수있":13663,"##과목":13664,"대폭":13665,"##라면":13666,"99":13667,"##공부":13668,"##ㅜㅜㅜ":13669,"임기":13670,"##스토":13671,"문제점":13672,"추세":13673,"5분":13674,"부당":13675,"징계":13676,"경계":13677,"조절":13678,"수십":13679,"분리":13680,"우웅":13681,"##수사":13682,"삭제":13683,"##방식":13684,"2층":13685,"중구":13686,"공공기관":13687,"예능":13688,"가동":13689,"아라":13690,"##작업":13691,"나눔":13692,"인프라":13693,"설득":13694,"당부":13695,"##펀드":13696,"용산":13697,"풍부":13698,"사안":13699,"대결":13700,"편집":13701,"데리":13702,"이걸":13703,"본사":13704,"가져가":13705,"창의":13706,"넘어가":13707,"계좌":13708,"떡볶이":13709,"##하이":13710,"느낀":13711,"지휘":13712,"성향":13713,"인디":13714,"분노":13715,"##니아":13716,"디지털":13717,"합리":13718,"없애":13719,"##대사":13720,"교과서":13721,"안오":13722,"함께하":13723,"연구원":13724,"##패드":13725,"아이돌":13726,"과일":13727,"장학금":13728,"수고":13729,"이주":13730,"지나가":13731,"바보":13732,"20년":13733,"고령":13734,"노선":13735,"##조아":13736,"지방자치":13737,"우유":13738,"##장관":13739,"즐거":13740,"마리":13741,"##테크":13742,"10개":13743,"치즈":13744,"##해양":13745,"게시":13746,"##차나":13747,"유행":13748,"##임금":13749,"나아":13750,"부처":13751,"##이제":13752,"안맞":13753,"##줘서":13754,"가량":13755,"##힌다":13756,"해봐야":13757,"김종":13758,"이탈리아":13759,"##예산":13760,"조합원":13761,"##부르":13762,"충북":13763,"클럽":13764,"안동":13765,"편지":13766,"수리":13767,"당황":13768,"미만":13769,"2018년":13770,"10명":13771,"안된다":13772,"##문회":13773,"이렇":13774,"##지대":13775,"편성":13776,"##용차":13777,"전하":13778,"숙소":13779,"##니어":13780,"로봇":13781,"58":13782,"익숙":13783,"##의장":13784,"경향":13785,"어라":13786,"오지":13787,"까먹":13788,"1학년":13789,"천연":13790,"##호텔":13791,"드러났":13792,"사이즈":13793,"나옴":13794,"##마넌":13795,"타자":13796,"##플러스":13797,"우주":13798,"코트":13799,"세워":13800,"스케":13801,"교육부":13802,"어릴":13803,"FTA":13804,"##리스트":13805,"개입":13806,"##화학":13807,"구제":13808,"협약":13809,"법정":13810,"지점":13811,"통증":13812,"투명":13813,"##르신":13814,"##럭시":13815,"줄어":13816,"파트":13817,"##에너지":13818,"서구":13819,"##퍼스":13820,"화성":13821,"출산":13822,"파리":13823,"2학년":13824,"그저":13825,"뛰어난":13826,"85":13827,"가스":13828,"남겨":13829,"기아":13830,"저장":13831,"새정치":13832,"심의":13833,"정확히":13834,"화이트":13835,"##건축":13836,"뭔데":13837,"보완":13838,"스위":13839,"평일":13840,"66":13841,"무게":13842,"바른":13843,"살아가":13844,"들어왔":13845,"저게":13846,"커플":13847,"##기능":13848,"##기념":13849,"에어컨":13850,"##기획":13851,"##물질":13852,"아울러":13853,"##수없":13854,"##학점":13855,"취향":13856,"##만들":13857,"##퇴근":13858,"##쇼핑":13859,"퇴직":13860,"어어":13861,"께서":13862,"여의":13863,"오른쪽":13864,"안경":13865,"출석":13866,"종이":13867,"##ㄱㅋㅋ":13868,"민족":13869,"제정":13870,"##진흥":13871,"집계":13872,"저지":13873,"유기":13874,"남자친구":13875,"##분간":13876,"취약":13877,"재활":13878,"##사지":13879,"철도":13880,"##당국":13881,"스카":13882,"깜짝":13883,"떨어져":13884,"노사":13885,"##22":13886,"출입":13887,"조심히":13888,"통보":13889,"##30분":13890,"실무":13891,"갤럭시":13892,"##타운":13893,"##수잇":13894,"평범":13895,"건너":13896,"##버거":13897,"걸려":13898,"무한":13899,"인천시":13900,"물러":13901,"가볍":13902,"환율":13903,"반박":13904,"##CC":13905,"은퇴":13906,"##아프":13907,"철학":13908,"##일리":13909,"백신":13910,"이외":13911,"##다시":13912,"의대":13913,"티비":13914,"##면적":13915,"120":13916,"죄송":13917,"마라":13918,"고서":13919,"영입":13920,"##드려":13921,"국내외":13922,"휴식":13923,"살펴보":13924,"김재":13925,"참가자":13926,"지인":13927,"정성":13928,"철회":13929,"의한":13930,"대처":13931,"도내":13932,"파일":13933,"##자산":13934,"도와주":13935,"운행":13936,"잖아요":13937,"조명":13938,"나아가":13939,"##개선":13940,"현행":13941,"##소년":13942,"쉬운":13943,"스벅":13944,"##es":13945,"##수원":13946,"법무":13947,"은근":13948,"왤케":13949,"빠진":13950,"열렸":13951,"봐서":13952,"거짓말":13953,"감자":13954,"관측":13955,"부작용":13956,"내려가":13957,"마트":13958,"부채":13959,"세력":13960,"발사":13961,"##공동":13962,"만원":13963,"수분":13964,"기도":13965,"실업":13966,"재난":13967,"고르":13968,"만화":13969,"##워지":13970,"꺼내":13971,"단순히":13972,"헤어지":13973,"원하":13974,"에스":13975,"왜냐":13976,"##추진":13977,"##배우":13978,"설문":13979,"##⫬ㅋ":13980,"숫자":13981,"물량":13982,"동부":13983,"공포":13984,"##이름":13985,"한정":13986,"ㅈㄴ":13987,"개헌":13988,"##니깐":13989,"추구":13990,"안쓰":13991,"블루":13992,"비전":13993,"계열사":13994,"줘야":13995,"순수":13996,"##타민":13997,"어르신":13998,"##올라":13999,"이마트":14000,"##말로":14001,"출판":14002,"모았":14003,"주소":14004,"인연":14005,"버렸":14006,"칭찬":14007,"##19":14008,"선사":14009,"4차":14010,"발행":14011,"##기지":14012,"##어졌":14013,"알려진":14014,"이른바":14015,"초과":14016,"한미":14017,"당근":14018,"엉엉":14019,"무역":14020,"미세먼지":14021,"써야":14022,"주의":14023,"인턴":14024,"어울리":14025,"부끄":14026,"고정":14027,"##체제":14028,"##니터":14029,"결혼식":14030,"안팎":14031,"64":14032,"ㅋㅋㅋㅋㅋㅋㅋㅋㅋㅋㅋㅋㅋㅋㅋㅋㅋㅋㅋㅋㅋㅋㅋㅋㅋㅋㅋㅋㅋㅋㅋㅋㅋㅋㅋㅋㅋㅋㅋㅋㅋ":14033,"투쟁":14034,"##버렸":14035,"여자친구":14036,"이어졌":14037,"물가":14038,"전해졌":14039,"동구":14040,"https":14041,"재무":14042,"설마":14043,"PD":14044,"커뮤":14045,"가만":14046,"##오프":14047,"##부문":14048,"##경쟁":14049,"혼란":14050,"피하":14051,"상인":14052,"메이저":14053,"실망":14054,"농협":14055,"대가":14056,"##로드":14057,"주위":14058,"이행":14059,"##정당":14060,"보낼":14061,"##00억원":14062,"인성":14063,"한두":14064,"가깝":14065,"유출":14066,"돌아오":14067,"구조조정":14068,"##필요":14069,"MB":14070,"기상":14071,"고구":14072,"국방부":14073,"볼까":14074,"토욜":14075,"에겐":14076,"유권자":14077,"무서워":14078,"왜이":14079,"급증":14080,"마주":14081,"된거":14082,"##한거":14083,"된다면":14084,"##나다":14085,"신인":14086,"##사항":14087,"갈수록":14088,"좋아하":14089,"일방":14090,"가시":14091,"넘치":14092,"##아웃":14093,"풍경":14094,"들어서":14095,"탈락":14096,"음료":14097,"##긴다":14098,"단위":14099,"신중":14100,"##스티벌":14101,"##심사":14102,"빠졌":14103,"##고속":14104,"CEO":14105,"지도부":14106,"협조":14107,"채널":14108,"상생":14109,"신체":14110,"##즈니스":14111,"##000명":14112,"맛집":14113,"김연":14114,"지진":14115,"ㅇㅇㅇㅇ":14116,"교장":14117,"2002년":14118,"신호":14119,"크림":14120,"뒤집":14121,"##25":14122,"멋있":14123,"이씨":14124,"지역사회":14125,"사업자":14126,"확률":14127,"수험":14128,"6명":14129,"복원":14130,"상호":14131,"색깔":14132,"신분":14133,"##메일":14134,"기차":14135,"##60":14136,"##동생":14137,"진다":14138,"확진":14139,"선출":14140,"##박물관":14141,"신나":14142,"사라지":14143,"##박스":14144,"다름":14145,"화재":14146,"자취":14147,"##모임":14148,"국정원":14149,"사드":14150,"서명":14151,"##수석":14152,"##건강":14153,"##그냥":14154,"성명":14155,"##중공업":14156,"##웨어":14157,"분명히":14158,"ㄱㄱ":14159,"3분":14160,"이정도":14161,"평택":14162,"캠페인":14163,"이수":14164,"##나이":14165,"##노총":14166,"배제":14167,"엄청난":14168,"##음악":14169,"드디어":14170,"배고프":14171,"살인":14172,"사먹":14173,"63":14174,"온다":14175,"몰려":14176,"블로그":14177,"신선":14178,"##클럽":14179,"##금액":14180,"모른다":14181,"##공개":14182,"##공학":14183,"여건":14184,"분류":14185,"불가피":14186,"적합":14187,"허가":14188,"8개":14189,"샤워":14190,"##볼게":14191,"역전":14192,"재능":14193,"상대방":14194,"실시간":14195,"바빠":14196,"드러나":14197,"시민단체":14198,"오해":14199,"스테":14200,"최악":14201,"##혁신":14202,"##나와":14203,"고발":14204,"글고":14205,"박지":14206,"##생산":14207,"직무":14208,"그르":14209,"합류":14210,"##이닝":14211,"양국":14212,"고고":14213,"겨우":14214,"탄핵":14215,"등산":14216,"##도서관":14217,"##볼까":14218,"할아버지":14219,"채택":14220,"동남":14221,"바쁜":14222,"##범죄":14223,"다른거":14224,"알려져":14225,"보관":14226,"한글":14227,"##운거":14228,"정작":14229,"10만원":14230,"##70":14231,"##엑스":14232,"코치":14233,"나설":14234,"간부":14235,"날짜":14236,"발라":14237,"안주":14238,"욕심":14239,"임신":14240,"##FC":14241,"##ㅋㅋㅋㅋㅋㅋㅋㅋㅋㅋㅋㅋ":14242,"##텔레":14243,"재단":14244,"답장":14245,"야간":14246,"도대체":14247,"##오키":14248,"안받":14249,"지도자":14250,"그분":14251,"객관":14252,"새해":14253,"주차장":14254,"여권":14255,"##전쟁":14256,"공통":14257,"김해":14258,"연령":14259,"고대":14260,"테마":14261,"개통":14262,"유학":14263,"##수준":14264,"누르":14265,"2018":14266,"프리미엄":14267,"평창":14268,"불과하":14269,"소프트":14270,"##과제":14271,"그랫":14272,"내린":14273,"자면":14274,"외환":14275,"수수료":14276,"순천":14277,"미사일":14278,"어떨":14279,"##본다":14280,"##여야":14281,"명절":14282,"슬프":14283,"##현장":14284,"문화재":14285,"걸린":14286,"레드":14287,"당당":14288,"진상":14289,"억울":14290,"독특":14291,"두려":14292,"시사":14293,"##참여":14294,"담긴":14295,"부과":14296,"앞둔":14297,"할거같":14298,"네트워크":14299,"##오빠":14300,"가계":14301,"##혁명":14302,"용역":14303,"##아아아아":14304,"농가":14305,"##자유":14306,"재개":14307,"##들이":14308,"선보였":14309,"2010":14310,"##이블":14311,"추모":14312,"케이크":14313,"남기":14314,"내꺼":14315,"분당":14316,"신세계":14317,"노후":14318,"##기자":14319,"는데요":14320,"5만":14321,"##안보":14322,"어느정도":14323,"따지":14324,"명확":14325,"될지":14326,"워낙":14327,"02":14328,"통제":14329,"못한다":14330,"습관":14331,"결코":14332,"##수지":14333,"##수도":14334,"내신":14335,"변신":14336,"무소":14337,"목요일":14338,"상가":14339,"##인사":14340,"질병":14341,"이스":14342,"배터리":14343,"빨간":14344,"7개":14345,"냉장고":14346,"유형":14347,"##가루":14348,"손님":14349,"선진국":14350,"##이얌":14351,"몇개":14352,"한마디":14353,"크리스마스":14354,"연휴":14355,"유사":14356,"김현":14357,"통해서":14358,"똑같이":14359,"##ac":14360,"소문":14361,"증시":14362,"무너":14363,"막상":14364,"편리":14365,"드러내":14366,"김대":14367,"데이트":14368,"브리":14369,"마친":14370,"정착":14371,"해준다":14372,"이과":14373,"##신고":14374,"자격증":14375,"등급":14376,"수성":14377,"행보":14378,"##레인":14379,"##가치":14380,"선도":14381,"오피스":14382,"95":14383,"##1일":14384,"과자":14385,"오프":14386,"놀이":14387,"프린":14388,"##ㅠㅠㅠㅠㅠㅠㅠㅠ":14389,"보안":14390,"청약":14391,"폐기":14392,"공지":14393,"입지":14394,"고개":14395,"앞장":14396,"갈아":14397,"은지":14398,"##요금":14399,"전역":14400,"그러게":14401,"대거":14402,"거두":14403,"ㅇㅋㅇㅋ":14404,"도쿄":14405,"부서":14406,"걸까":14407,"파견":14408,"3학년":14409,"토대":14410,"##서울":14411,"이같":14412,"매입":14413,"여개":14414,"내말이":14415,"광장":14416,"대장":14417,"##아트":14418,"골목":14419,"간식":14420,"아이패드":14421,"2000년":14422,"적발":14423,"증명":14424,"지지율":14425,"심한":14426,"깊이":14427,"손실":14428,"##질환":14429,"##한번":14430,"용기":14431,"허허":14432,"구상":14433,"빌려":14434,"강연":14435,"CJ":14436,"느꼈":14437,"##난거":14438,"##아빠":14439,"##연히":14440,"195":14441,"잠실":14442,"언젠":14443,"3천":14444,"##기금":14445,"유력":14446,"감각":14447,"잠들":14448,"##텔레콤":14449,"84":14450,"비타민":14451,"##설팅":14452,"##덩이":14453,"보내주":14454,"모니터":14455,"시상":14456,"필기":14457,"아프리카":14458,"##무역":14459,"될듯":14460,"##el":14461,"이라":14462,"심판":14463,"다닐":14464,"너희":14465,"과도":14466,"무관":14467,"##미널":14468,"부천":14469,"올라오":14470,"종료":14471,"##안되":14472,"캐나다":14473,"어려울":14474,"##여성":14475,"바이오":14476,"이뻐":14477,"갈거":14478,"현역":14479,"2회":14480,"아진짜":14481,"##ST":14482,"##로스":14483,"어플":14484,"국가대표":14485,"가벼":14486,"수요일":14487,"최다":14488,"재판부":14489,"힘드":14490,"몇번":14491,"##관련":14492,"2003년":14493,"보증":14494,"꼼꼼":14495,"##상담":14496,"##마켓":14497,"동참":14498,"군인":14499,"새끼":14500,"맞아":14501,"##빨리":14502,"참사":14503,"수주":14504,"전교":14505,"메르":14506,"##우드":14507,"이종":14508,"든다":14509,"##순환":14510,"2배":14511,"거치":14512,"##ㄷㄷ":14513,"최소한":14514,"AI":14515,"치르":14516,"##걸이":14517,"다문화":14518,"수단":14519,"##러드":14520,"일부러":14521,"##ol":14522,"세탁":14523,"좀더":14524,"ㅋㅋㅋㅋㅋㅋㅋㅋㅋㅋㅋㅋㅋㅋㅋㅋㅋㅋㅋ":14525,"취득":14526,"적당히":14527,"느껴지":14528,"##르트":14529,"걸렸":14530,"단기":14531,"안심":14532,"##다녀":14533,"##선언":14534,"##13":14535,"유치원":14536,"62":14537,"맞이":14538,"토론회":14539,"시계":14540,"세여":14541,"상당히":14542,"해먹":14543,"##시청":14544,"취하":14545,"원정":14546,"##투어":14547,"4번":14548,"자신감":14549,"면은":14550,"김진":14551,"바꿀":14552,"석유":14553,"##극장":14554,"훼손":14555,"##인력":14556,"거대":14557,"##동강":14558,"##하우":14559,"인건":14560,"해야해":14561,"파이":14562,"붙이":14563,"받아들이":14564,"정규직":14565,"최고위원":14566,"확충":14567,"에다":14568,"재배":14569,"아시안":14570,"시정":14571,"고민중":14572,"미용":14573,"##의사":14574,"##조직":14575,"영업이익":14576,"##인드":14577,"안할":14578,"재밋":14579,"조작":14580,"클래식":14581,"1도":14582,"##스포츠":14583,"##과장":14584,"전투":14585,"융합":14586,"##ed":14587,"업종":14588,"벌어지":14589,"케이스":14590,"간담회":14591,"치과":14592,"기대감":14593,"##스타일":14594,"버려":14595,"##사무소":14596,"어딘":14597,"초점":14598,"테러":14599,"한참":14600,"옮기":14601,"##방법":14602,"안타까":14603,"조만":14604,"김동":14605,"##피아":14606,"ㅠㅠㅠㅠㅠㅠ":14607,"장르":14608,"##운전":14609,"연금":14610,"잠재":14611,"끊임":14612,"소수":14613,"하루종일":14614,"김상":14615,"기숙":14616,"4만":14617,"입법":14618,"즐겁":14619,"압도":14620,"결의":14621,"아야지":14622,"아카":14623,"##나갈":14624,"경상":14625,"충돌":14626,"들이":14627,"##특별":14628,"감시":14629,"##러진":14630,"72":14631,"##뜨리":14632,"김포":14633,"##만큼":14634,"소외":14635,"다를":14636,"지켜보":14637,"오잉":14638,"연수":14639,"박수":14640,"##은이":14641,"##is":14642,"##용품":14643,"허위":14644,"##바닥":14645,"그리스":14646,"사로":14647,"민주통합":14648,"절감":14649,"방어":14650,"고장":14651,"##중심":14652,"오홍":14653,"조만간":14654,"2016":14655,"대학교":14656,"넘기":14657,"국장":14658,"결합":14659,"신속":14660,"변수":14661,"2020년":14662,"모색":14663,"안됨":14664,"대목":14665,"목숨":14666,"##조치":14667,"채우":14668,"##영업":14669,"둘러싼":14670,"적어도":14671,"##아파트":14672,"휴대폰":14673,"ㅎㅎㅎㅎㅎ":14674,"67":14675,"##득점":14676,"10만":14677,"##스테":14678,"패배":14679,"##안해":14680,"마침":14681,"특유":14682,"속상":14683,"꿈꾸":14684,"높였":14685,"이어질":14686,"전시회":14687,"강릉":14688,"파티":14689,"더해":14690,"위로":14691,"##으로":14692,"지리":14693,"등등":14694,"바뀐":14695,"가려":14696,"와야":14697,"운용":14698,"판사":14699,"##상공":14700,"시골":14701,"정식":14702,"상무":14703,"한쪽":14704,"새내기":14705,"갖춰":14706,"기말":14707,"태풍":14708,"철거":14709,"보인":14710,"중동":14711,"전제":14712,"##보드":14713,"##포트":14714,"##변화":14715,"통상":14716,"붙여":14717,"에서부터":14718,"곧바로":14719,"##본부장":14720,"휴대전화":14721,"77":14722,"아끼":14723,"##우우":14724,"##복합":14725,"면세":14726,"준공":14727,"사로잡":14728,"벌였":14729,"앞세":14730,"쿠폰":14731,"68":14732,"힐링":14733,"진술":14734,"버티":14735,"##협약":14736,"금강":14737,"태국":14738,"프레":14739,"복수":14740,"불쌍":14741,"어두":14742,"전당":14743,"발목":14744,"##18":14745,"안대":14746,"만만":14747,"##조트":14748,"들으면":14749,"임직원":14750,"존중":14751,"폐쇄":14752,"적자":14753,"패스":14754,"자문":14755,"180":14756,"검정":14757,"##마이":14758,"40분":14759,"온도":14760,"고백":14761,"미군":14762,"뭐해":14763,"가사":14764,"이겨":14765,"야겠다":14766,"실장":14767,"어이없":14768,"여긴":14769,"즉각":14770,"원주":14771,"##구리":14772,"2억":14773,"거절":14774,"반성":14775,"건가요":14776,"40대":14777,"산하":14778,"재벌":14779,"동해":14780,"기후":14781,"아무런":14782,"커뮤니":14783,"##산시":14784,"##웃겨":14785,"입증":14786,"사유":14787,"개꿀":14788,"in":14789,"##한다고":14790,"##00명":14791,"수있":14792,"당분간":14793,"각오":14794,"반도":14795,"프로야구":14796,"는겨":14797,"논술":14798,"매매":14799,"수면":14800,"페이스북":14801,"손가락":14802,"중반":14803,"흐르":14804,"상당수":14805,"##구장":14806,"다짐":14807,"집권":14808,"연인":14809,"##⫬ㅋ⫬ㅋ":14810,"김밥":14811,"##드라마":14812,"의자":14813,"##경찰서":14814,"으론":14815,"데이":14816,"여의도":14817,"운명":14818,"특허":14819,"##바람":14820,"해군":14821,"고추":14822,"여섯":14823,"학생부":14824,"무소속":14825,"##버린":14826,"문화예술":14827,"해질":14828,"주목받":14829,"GS":14830,"음성":14831,"한잔":14832,"정시":14833,"탄력":14834,"무상급식":14835,"보급":14836,"장사":14837,"##캠프":14838,"69":14839,"안타깝":14840,"밴드":14841,"##잖아":14842,"야외":14843,"##로운":14844,"채워":14845,"컨디션":14846,"식물":14847,"응급":14848,"##GA":14849,"##시반":14850,"##마크":14851,"##포인트":14852,"주부":14853,"낙동강":14854,"공익":14855,"한창":14856,"맞서":14857,"야근":14858,"연평":14859,"해고":14860,"첫날":14861,"경비":14862,"예뻐":14863,"##세력":14864,"신경쓰":14865,"핑크":14866,"착용":14867,"을래":14868,"5만원":14869,"##14":14870,"지출":14871,"##24":14872,"농민":14873,"버스타":14874,"##그리":14875,"회식":14876,"어린이집":14877,"##에도":14878,"봉사활동":14879,"리얼":14880,"토익":14881,"옹옹":14882,"베스트":14883,"ㅜㅠ":14884,"침체":14885,"멋진":14886,"실행":14887,"미소":14888,"##그거":14889,"##전공":14890,"이용자":14891,"내주":14892,"심화":14893,"본선":14894,"접촉":14895,"타임":14896,"바람직":14897,"##책임":14898,"입원":14899,"원피스":14900,"담겨":14901,"면적":14902,"##실점":14903,"지명":14904,"시달":14905,"##걸음":14906,"상승세":14907,"세부":14908,"##한데":14909,"유산":14910,"##16":14911,"##사이트":14912,"##ED":14913,"##월드":14914,"스님":14915,"실정":14916,"소주":14917,"극단":14918,"런던":14919,"##비율":14920,"고수":14921,"몰아":14922,"예매":14923,"치매":14924,"봐야지":14925,"##동력":14926,"고시":14927,"##대문":14928,"으라":14929,"처분":14930,"오랫":14931,"##포럼":14932,"다루":14933,"일반인":14934,"조각":14935,"민감":14936,"##미나":14937,"최상":14938,"탈출":14939,"몰라서":14940,"글쓴":14941,"3시간":14942,"침해":14943,"##학기술":14944,"라디오":14945,"입맛":14946,"오케이":14947,"목사":14948,"이민":14949,"다음날":14950,"5천":14951,"일시":14952,"##장치":14953,"타이틀":14954,"방해":14955,"넥센":14956,"##줄알":14957,"10대":14958,"7명":14959,"일각":14960,"넷플":14961,"##워하":14962,"##작가":14963,"스킨":14964,"리더십":14965,"트렌드":14966,"들려":14967,"일일":14968,"취미":14969,"살려":14970,"##원장":14971,"마셔":14972,"물질":14973,"모은":14974,"완공":14975,"##연패":14976,"문과":14977,"알려지":14978,"가르치":14979,"농구":14980,"##줌마":14981,"떠오르":14982,"비즈니스":14983,"유발":14984,"##나왔":14985,"홍대":14986,"##낸다":14987,"방사":14988,"안사":14989,"74":14990,"오염":14991,"중대":14992,"공기업":14993,"모를":14994,"마쳤":14995,"상주":14996,"##TE":14997,"그간":14998,"일원":14999,"점차":15000,"##CD":15001,"##보여":15002,"##코리아":15003,"##유산":15004,"소감":15005,"##17":15006,"환영":15007,"테스트":15008,"##페라":15009,"터지":15010,"##맛있":15011,"급격":15012,"도망":15013,"명단":15014,"부위":15015,"파괴":15016,"정수":15017,"너무나":15018,"표준":15019,"##므로":15020,"숙박":15021,"##더라":15022,"교육과정":15023,"그중":15024,"##확인":15025,"적립":15026,"##내용":15027,"이불":15028,"측정":15029,"선박":15030,"입구":15031,"의존":15032,"저소득":15033,"북구":15034,"##담당":15035,"민심":15036,"한때":15037,"SK텔레콤":15038,"K리그":15039,"아픔":15040,"뚜렷":15041,"스티":15042,"파워":15043,"##처분":15044,"풀이":15045,"가난":15046,"조화":15047,"##ent":15048,"이영":15049,"유아":15050,"드러냈":15051,"차기":15052,"돌입":15053,"환경부":15054,"고구마":15055,"빨래":15056,"##as":15057,"##주인":15058,"동양":15059,"##직자":15060,"저축":15061,"향한":15062,"잘라":15063,"직장인":15064,"박스":15065,"피아":15066,"##환자":15067,"상영":15068,"쏟아":15069,"아쉬움":15070,"##다수":15071,"그쪽":15072,"네네":15073,"지연":15074,"##학년도":15075,"운전자":15076,"##자이너":15077,"##il":15078,"노하우":15079,"비하":15080,"시중":15081,"각국":15082,"베이징":15083,"##선물":15084,"자아":15085,"##부대":15086,"떠올":15087,"유해":15088,"##팀장":15089,"군수":15090,"##스키":15091,"금융위기":15092,"독도":15093,"존맛":15094,"거아니":15095,"3D":15096,"사업비":15097,"세일":15098,"밀려":15099,"##음식":15100,"교양":15101,"예민":15102,"다른데":15103,"월세":15104,"한방":15105,"##다음":15106,"CC":15107,"아오":15108,"아가":15109,"출장":15110,"슬슬":15111,"##독교":15112,"다행히":15113,"부활":15114,"##남자":15115,"##겹살":15116,"상업":15117,"입사":15118,"할래":15119,"##재정":15120,"레알":15121,"방치":15122,"지나치":15123,"이같이":15124,"73":15125,"생길":15126,"끝날":15127,"LG전자":15128,"춘천":15129,"##통화":15130,"##박람회":15131,"지역경제":15132,"저건":15133,"지역구":15134,"기숙사":15135,"##동물":15136,"##재판":15137,"100만":15138,"는다면":15139,"##계층":15140,"##사실":15141,"부각":15142,"반도체":15143,"##ㄱㅋㄱ":15144,"갈라":15145,"보여준":15146,"88":15147,"##어디":15148,"성형":15149,"황금":15150,"재학":15151,"##싸움":15152,"즐겨":15153,"##진영":15154,"언제나":15155,"해운":15156,"6년":15157,"합동":15158,"외면":15159,"김정은":15160,"의결":15161,"다해":15162,"몸매":15163,"##지법":15164,"보존":15165,"##온거":15166,"이른다":15167,"당사자":15168,"중점":15169,"##비싸":15170,"변하":15171,"##이거":15172,"마이크":15173,"한층":15174,"소름":15175,"교재":15176,"다먹":15177,"FA":15178,"산림":15179,"##리티":15180,"수백":15181,"마산":15182,"##의자":15183,"##경북":15184,"못생":15185,"통하":15186,"들어와":15187,"이론":15188,"잘못된":15189,"라는데":15190,"좌우":15191,"말투":15192,"할만":15193,"##전시":15194,"##정리":15195,"##세포":15196,"##실험":15197,"진화":15198,"착한":15199,"왠지":15200,"관람객":15201,"나간":15202,"클린":15203,"알려줘":15204,"스키":15205,"ㅁㅊ":15206,"징역":15207,"잇따라":15208,"딸기":15209,"소형":15210,"높여":15211,"국세":15212,"##예정":15213,"사회복지":15214,"그럼에도":15215,"안다":15216,"취급":15217,"판정":15218,"여사":15219,"##광장":15220,"##코스":15221,"세웠":15222,"안드":15223,"으라고":15224,"한국어":15225,"그래두":15226,"당내":15227,"상식":15228,"##모씨":15229,"노리":15230,"연합":15231,"왜냐면":15232,"단장":15233,"책상":15234,"비례":15235,"##더니":15236,"사무총장":15237,"신라":15238,"병행":15239,"대하":15240,"##cm":15241,"1등":15242,"벤처":15243,"태어나":15244,"##드립니다":15245,"##스크림":15246,"정서":15247,"그런건":15248,"그걸로":15249,"그사람":15250,"다는데":15251,"오랫동안":15252,"##수산":15253,"4위":15254,"##화문":15255,"대해선":15256,"귀여운":15257,"오옹":15258,"니당":15259,"환불":15260,"03":15261,"##찌개":15262,"##보건":15263,"호응":15264,"가만히":15265,"##갈비":15266,"3점":15267,"통장":15268,"##어져":15269,"필리":15270,"그곳":15271,"지닌":15272,"뷰티":15273,"##혼자":15274,"ㅋㅋㅋㅋㅋㅋㅋㅋㅋㅋㅋㅋㅋㅋㅋㅋㅋㅋㅋㅋ":15275,"반찬":15276,"도덕":15277,"##연승":15278,"훌륭":15279,"##신도시":15280,"바이러스":15281,"벌금":15282,"소년":15283,"계신":15284,"자제":15285,"추워":15286,"술먹":15287,"강행":15288,"도발":15289,"매번":15290,"똑똑":15291,"졸리":15292,"과감":15293,"250":15294,"성능":15295,"초코":15296,"50대":15297,"이뤄졌":15298,"미드":15299,"확신":15300,"##다는데":15301,"##oo":15302,"위원회":15303,"그니깐":15304,"대전시":15305,"고려대":15306,"친절":15307,"급식":15308,"케이블":15309,"배워":15310,"가해":15311,"변동":15312,"감상":15313,"창작":15314,"농산물":15315,"마르":15316,"비오":15317,"됐으며":15318,"##수술":15319,"##제한":15320,"##진보":15321,"섭취":15322,"발달":15323,"최적":15324,"##이자":15325,"##에스":15326,"안그래도":15327,"보육":15328,"양심":15329,"아메":15330,"패턴":15331,"스타일링":15332,"구도":15333,"우산":15334,"선보인다":15335,"##월드컵":15336,"LH":15337,"공략":15338,"보여줬":15339,"하천":15340,"NC":15341,"도시락":15342,"무난":15343,"비서":15344,"##시기":15345,"배당":15346,"이사회":15347,"강요":15348,"##랫폼":15349,"##렉스":15350,"##시절":15351,"##안나":15352,"파트너":15353,"로스쿨":15354,"심해":15355,"유동":15356,"실종":15357,"진영":15358,"76":15359,"모른":15360,"철저히":15361,"올바":15362,"저렇":15363,"주사":15364,"서초":15365,"앙앙":15366,"무산":15367,"특화":15368,"##결정":15369,"엔진":15370,"이혼":15371,"탄탄":15372,"어색":15373,"##협정":15374,"먼가":15375,"서해":15376,"지난주":15377,"도약":15378,"##겨서":15379,"##으으":15380,"정지":15381,"구현":15382,"##골프":15383,"이태":15384,"아깝":15385,"걸릴":15386,"다녔":15387,"가질":15388,"휴학":15389,"난다":15390,"78":15391,"제약":15392,"한것":15393,"대외":15394,"##소송":15395,"##ㅅㅋㅅㅋ":15396,"개빡":15397,"은가":15398,"합병":15399,"미칠":15400,"항목":15401,"국비":15402,"##ㅅㅎ":15403,"8명":15404,"##대전":15405,"기기":15406,"차관":15407,"소요":15408,"##유치":15409,"##벨트":15410,"경기장":15411,"##ㅋㅋㅋㅋㅋㅋㅋㅋㅋㅋㅋㅋㅋ":15412,"중국인":15413,"의뢰":15414,"진주":15415,"##케이션":15416,"멘토":15417,"30년":15418,"공동체":15419,"##몰라":15420,"줄여":15421,"그런지":15422,"ㅋㄱㅋㄱㅋ":15423,"품목":15424,"줄어든":15425,"흡수":15426,"항의":15427,"일어난":15428,"피아노":15429,"##시코":15430,"##동네":15431,"##근무":15432,"동계":15433,"##분양":15434,"육아":15435,"3회":15436,"매치":15437,"워크":15438,"##마니":15439,"일어":15440,"오가":15441,"이래서":15442,"2014":15443,"격차":15444,"주무":15445,"시술":15446,"위상":15447,"김민":15448,"##인권":15449,"##관위":15450,"하도":15451,"해설":15452,"로써":15453,"극대":15454,"##소비":15455,"오키오키":15456,"명문":15457,"으려나":15458,"최강":15459,"하구":15460,"현황":15461,"영향력":15462,"발급":15463,"##정상":15464,"선전":15465,"스펙":15466,"##산업단지":15467,"교통사고":15468,"재건축":15469,"착수":15470,"갔다":15471,"내정":15472,"7년":15473,"##인터":15474,"바꿨":15475,"잘되":15476,"##시리즈":15477,"고문":15478,"the":15479,"배운":15480,"##아녀":15481,"고도":15482,"전후":15483,"##IC":15484,"##키스":15485,"##90":15486,"괜차나":15487,"##드릴":15488,"마냥":15489,"거뒀":15490,"##학회":15491,"##범위":15492,"PC":15493,"저러":15494,"양산":15495,"구먼":15496,"##현진":15497,"살까":15498,"음주":15499,"일산":15500,"##업무":15501,"최신":15502,"졸려":15503,"화요일":15504,"펼쳤":15505,"연관":15506,"##피해":15507,"코리아":15508,"링크":15509,"2017":15510,"##ak":15511,"##때매":15512,"##린거":15513,"##단체장":15514,"결심":15515,"최순":15516,"유입":15517,"그랭":15518,"주체":15519,"61":15520,"계시":15521,"2015":15522,"##저기":15523,"서운":15524,"보여준다":15525,"##갈까":15526,"은디":15527,"김연아":15528,"##보장":15529,"인류":15530,"박물관":15531,"매니":15532,"애니":15533,"납품":15534,"물류":15535,"되돌":15536,"수집":15537,"형제":15538,"안전하":15539,"##판매":15540,"동성":15541,"밀어":15542,"강점":15543,"획득":15544,"IC":15545,"글쎄":15546,"당첨":15547,"입금":15548,"15분":15549,"마이너":15550,"에휴":15551,"##냄새":15552,"국무총리":15553,"아이디":15554,"소개팅":15555,"##티콘":15556,"##토론":15557,"골프장":15558,"조지":15559,"엑스":15560,"작전":15561,"선거구":15562,"광양":15563,"해상":15564,"##학자":15565,"##위치":15566,"도민":15567,"공인":15568,"##총회":15569,"로맨":15570,"손상":15571,"격려":15572,"어휴":15573,"종종":15574,"잘먹":15575,"복전":15576,"##협상":15577,"국토부":15578,"안나오":15579,"##사정":15580,"##무대":15581,"##재정부":15582,"나왓":15583,"몰래":15584,"연차":15585,"급하":15586,"##치기":15587,"생물":15588,"부적":15589,"학업":15590,"한개":15591,"##키지":15592,"##릭스":15593,"이랬":15594,"얼음":15595,"배정":15596,"창문":15597,"##불러":15598,"공산":15599,"즐거운":15600,"유족":15601,"재발":15602,"장치":15603,"시민사회":15604,"개그":15605,"구리":15606,"내꾸":15607,"##학번":15608,"승진":15609,"하하":15610,"전액":15611,"점유":15612,"아트":15613,"올릴":15614,"시켜먹":15615,"##합니다":15616,"##지션":15617,"##보증":15618,"이병":15619,"김경":15620,"##웃기":15621,"1분":15622,"먼지":15623,"##바다":15624,"기원":15625,"오우":15626,"##귀여":15627,"관점":15628,"ㅜㅜㅜㅜ":15629,"첫째":15630,"기독교":15631,"중순":15632,"한시":15633,"아줌마":15634,"민생":15635,"비록":15636,"##매매":15637,"EU":15638,"공화":15639,"설레":15640,"ㅁㅈ":15641,"막판":15642,"영광":15643,"샐러드":15644,"모이":15645,"사물":15646,"흔히":15647,"괴롭":15648,"총재":15649,"실화":15650,"##id":15651,"194":15652,"한겨":15653,"##보도":15654,"나선다":15655,"가공":15656,"장식":15657,"콜라":15658,"##zz":15659,"##로리":15660,"##스턴":15661,"뒤늦":15662,"등판":15663,"면역":15664,"##인원":15665,"금호":15666,"용돈":15667,"##ㅌㅌㅌㅌ":15668,"##갈때":15669,"디자이너":15670,"##런스":15671,"##정원":15672,"남부":15673,"붙잡":15674,"애정":15675,"사면":15676,"스터":15677,"##버려":15678,"교실":15679,"더블":15680,"##셉트":15681,"저녁먹":15682,"##FA":15683,"기운":15684,"기쁨":15685,"기획재정부":15686,"번역":15687,"왜곡":15688,"눌러":15689,"양상":15690,"염색":15691,"놓치":15692,"##못하":15693,"##단위":15694,"대다수":15695,"문장":15696,"삼겹살":15697,"1박":15698,"빨라":15699,"##kg":15700,"##디아":15701,"오일":15702,"##노래":15703,"입술":15704,"넘겨":15705,"##저히":15706,"대형마트":15707,"도지사":15708,"겨냥":15709,"컨설팅":15710,"##지검":15711,"600":15712,"인형":15713,"앞선":15714,"##차별":15715,"##저것":15716,"새우":15717,"아이스크림":15718,"족보":15719,"##연합회":15720,"는군":15721,"##셔츠":15722,"미루":15723,"향수":15724,"주전":15725,"광명":15726,"막내":15727,"##기기":15728,"현직":15729,"##테일":15730,"회담":15731,"가입자":15732,"##혀있":15733,"젊은이":15734,"이따가":15735,"안방":15736,"##주얼":15737,"##계열":15738,"필리핀":15739,"일으키":15740,"##홈런":15741,"일관":15742,"보험료":15743,"극장":15744,"##식당":15745,"자세히":15746,"김용":15747,"솔로":15748,"자칫":15749,"##1명":15750,"녹음":15751,"메모":15752,"##어울":15753,"충실":15754,"내수":15755,"흥행":15756,"##레일":15757,"친한":15758,"##고리":15759,"연상":15760,"##포르":15761,"지났":15762,"co":15763,"소음":15764,"##바이트":15765,"늘어났":15766,"##대비":15767,"2인":15768,"##언제":15769,"순서":15770,"전기차":15771,"메인":15772,"구해":15773,"월드":15774,"줄게":15775,"달한다":15776,"성실":15777,"전담":15778,"김광":15779,"지갑":15780,"박정희":15781,"매체":15782,"써서":15783,"##프리":15784,"3년간":15785,"간판":15786,"고인":15787,"대표이사":15788,"반전":15789,"한진":15790,"##데미":15791,"개웃기":15792,"고스":15793,"작곡":15794,"수록":15795,"어머님":15796,"주주":15797,"연고":15798,"끊임없이":15799,"시퍼":15800,"##어질":15801,"무슨일":15802,"##공무원":15803,"00":15804,"##운용":15805,"##야해":15806,"동북":15807,"건의":15808,"한일":15809,"달했":15810,"들리":15811,"##할거":15812,"자존심":15813,"사이버":15814,"맞대":15815,"구요":15816,"트리":15817,"매출액":15818,"당원":15819,"##그렇":15820,"노노":15821,"##만5":15822,"##풀이":15823,"정상회담":15824,"100만원":15825,"강동":15826,"유로":15827,"의상":15828,"체포":15829,"##지않":15830,"##ㅠㅠㅠㅠㅠ":15831,"IS":15832,"아베":15833,"##번에":15834,"한숨":15835,"구성원":15836,"사업장":15837,"남겼":15838,"##방학":15839,"##언론":15840,"흔적":15841,"##2명":15842,"##테리어":15843,"다녀오":15844,"계단":15845,"무사":15846,"##지원센터":15847,"총괄":15848,"ㅇㅎ":15849,"서울시장":15850,"단점":15851,"산다":15852,"##소재":15853,"급여":15854,"광화문":15855,"지수":15856,"봐요":15857,"##nd":15858,"연다":15859,"청주":15860,"자발":15861,"대상자":15862,"##3명":15863,"관절":15864,"최우수":15865,"##ve":15866,"민주노총":15867,"아닙":15868,"박지성":15869,"##영화제":15870,"##시작":15871,"때리":15872,"특이":15873,"여지":15874,"대법":15875,"군포":15876,"2학기":15877,"##ow":15878,"절실":15879,"스러워":15880,"조항":15881,"##갈게":15882,"가상":15883,"문구":15884,"함유":15885,"점포":15886,"자부":15887,"못받":15888,"사찰":15889,"편입":15890,"##♡♡":15891,"피로":15892,"지낸":15893,"장례":15894,"##케어":15895,"2001년":15896,"겁니다":15897,"박원":15898,"##스팅":15899,"이지":15900,"구냥":15901,"학술":15902,"화보":15903,"4강":15904,"강경":15905,"해오":15906,"##업자":15907,"2011":15908,"글쓴이":15909,"에게서":15910,"착공":15911,"야징":15912,"섹시":15913,"이적":15914,"섬유":15915,"될거":15916,"냉동":15917,"한양":15918,"습니까":15919,"스타트":15920,"##안가":15921,"근대":15922,"##히히":15923,"##6명":15924,"##미디어":15925,"##발표":15926,"##인구":15927,"안자":15928,"플랫폼":15929,"##28":15930,"에여":15931,"타율":15932,"3층":15933,"햄버거":15934,"소스":15935,"인문":15936,"중독":15937,"한듯":15938,"아니아니":15939,"예선":15940,"##센트":15941,"소환":15942,"우아":15943,"드림":15944,"출제":15945,"조리":15946,"로비":15947,"홀로":15948,"##까요":15949,"##ig":15950,"무선":15951,"봐주":15952,"세무":15953,"나눈":15954,"무용":15955,"이밖":15956,"주행":15957,"제작진":15958,"설비":15959,"혈액":15960,"그런게":15961,"##주자":15962,"유연":15963,"연설":15964,"낮추":15965,"##ec":15966,"유독":15967,"남양":15968,"##니당":15969,"모의":15970,"##가리":15971,"##장비":15972,"김기":15973,"폭행":15974,"이뤄진":15975,"이것저것":15976,"##평화":15977,"승점":15978,"스프":15979,"##텍스":15980,"갈래":15981,"오피스텔":15982,"무지":15983,"그럴수":15984,"무죄":15985,"##타자":15986,"멀티":15987,"24시간":15988,"구제역":15989,"면담":15990,"양식":15991,"농사":15992,"여자애":15993,"풀리":15994,"##ay":15995,"사내":15996,"모래":15997,"모름":15998,"##4명":15999,"##싱턴":16000,"돌아왔":16001,"입찰":16002,"중견":16003,"조선일보":16004,"코너":16005,"ㅋㅋㅋㅋㅋㅋㅋㅋㅋㅋㅋㅋㅋㅋㅋㅋㅋㅋㅋㅋㅋ":16006,"이슬":16007,"어지":16008,"한자":16009,"어떨까":16010,"##ㅋㅋㅋㅋㅋㅋㅋㅋㅋㅋㅋㅋㅋㅋ":16011,"패딩":16012,"해제":16013,"동화":16014,"신부":16015,"기아차":16016,"다큐":16017,"이라도":16018,"##ㅋㅋㅋㅋㅋㅋㅋㅋㅋㅋㅋㅋㅋㅋㅋㅋㅋㅋㅋㅋㅋㅋㅋㅋㅋㅋㅋㅋㅋㅋㅋㅋ":16019,"기조":16020,"실습":16021,"사립":16022,"제조업":16023,"이득":16024,"편한":16025,"시켜야":16026,"##5명":16027,"잘햇":16028,"단원":16029,"맞음":16030,"##대학원":16031,"할라":16032,"##교류":16033,"처방":16034,"누워있":16035,"김대중":16036,"위안부":16037,"대량":16038,"고쳐":16039,"꼽히":16040,"사연":16041,"##스트라":16042,"계정":16043,"넹넹":16044,"하얀":16045,"##잡이":16046,"본부장":16047,"##아시아":16048,"다같이":16049,"79":16050,"##아아아":16051,"가이드":16052,"##길래":16053,"납부":16054,"일종":16055,"##ㅎㅋ":16056,"파주":16057,"국산":16058,"##져있":16059,"버린":16060,"멕시코":16061,"치유":16062,"코스피":16063,"부딪":16064,"##혀서":16065,"캠핑":16066,"전통시장":16067,"언젠가":16068,"신임":16069,"해하":16070,"교정":16071,"대한항공":16072,"원자력":16073,"##교실":16074,"스페":16075,"누적":16076,"생생":16077,"충족":16078,"터키":16079,"페스티벌":16080,"한거같":16081,"조용히":16082,"든든":16083,"고전":16084,"숙제":16085,"종로":16086,"연구개발":16087,"##대박":16088,"##주행":16089,"달라지":16090,"미뤄":16091,"##역사":16092,"늘어날":16093,"의정부":16094,"##방향":16095,"조별":16096,"##차량":16097,"설거지":16098,"후속":16099,"오류":16100,"그만두":16101,"1호":16102,"서양":16103,"죽이":16104,"##ad":16105,"##간지":16106,"의왕":16107,"슬퍼":16108,"하나하나":16109,"들어온":16110,"의외":16111,"흰색":16112,"꼽힌다":16113,"##7명":16114,"05":16115,"최저임금":16116,"##힘들":16117,"차질":16118,"헷갈":16119,"빡세":16120,"삭감":16121,"최순실":16122,"영원":16123,"적정":16124,"소지":16125,"##이런":16126,"내놨":16127,"니께":16128,"쇼핑몰":16129,"스파":16130,"재개발":16131,"음식점":16132,"##ㄱㄱㄱㄱ":16133,"강좌":16134,"##행동":16135,"당선자":16136,"##ot":16137,"초등학생":16138,"##절차":16139,"불과했":16140,"귀국":16141,"태극":16142,"퇴사":16143,"해줘야":16144,"##터테":16145,"지방자치단체":16146,"마당":16147,"정답":16148,"##받침":16149,"##마토":16150,"필요없":16151,"9개":16152,"##하루":16153,"오를":16154,"털어":16155,"시나":16156,"강남구":16157,"권고":16158,"특검":16159,"##사업자":16160,"방통":16161,"억지":16162,"##베이":16163,"인테리어":16164,"시끄":16165,"위축":16166,"남구":16167,"이천":16168,"스위스":16169,"신흥":16170,"그런가봐":16171,"재생":16172,"16강":16173,"##밸리":16174,"원활":16175,"하트":16176,"이끄":16177,"접속":16178,"사우":16179,"외치":16180,"관찰":16181,"##재료":16182,"공고":16183,"나란히":16184,"져서":16185,"3만원":16186,"바꾼":16187,"발효":16188,"남아":16189,"팩트":16190,"##ㅠㅜ":16191,"한류":16192,"##스틱":16193,"깨달":16194,"##농구":16195,"슬로":16196,"파스타":16197,"##갈거":16198,"##르르":16199,"##라이트":16200,"수시로":16201,"어리":16202,"##무게":16203,"보건복지":16204,"화물":16205,"정면":16206,"다던데":16207,"한우":16208,"##장면":16209,"테이블":16210,"개웃겨":16211,"##통상":16212,"즐거움":16213,"괜춘":16214,"고딩":16215,"또다시":16216,"공방":16217,"양념":16218,"청문회":16219,"##23":16220,"즉시":16221,"##판사":16222,"청춘":16223,"전교조":16224,"널리":16225,"이룬":16226,"##정지":16227,"사라졌":16228,"##이다":16229,"##ver":16230,"브리핑":16231,"ㄱㅅ":16232,"##타점":16233,"거긴":16234,"마땅":16235,"##페이":16236,"##둥이":16237,"##외선":16238,"돼요":16239,"ㅎㅅㅎ":16240,"명분":16241,"건전":16242,"만두":16243,"예의":16244,"##공정":16245,"수렴":16246,"자매":16247,"콘셉트":16248,"으려면":16249,"세련":16250,"몰리":16251,"세운":16252,"5년간":16253,"겠다":16254,"설문조사":16255,"##영향":16256,"4천":16257,"만점":16258,"전파":16259,"어려웠":16260,"커뮤니티":16261,"케어":16262,"130":16263,"이어진":16264,"메르스":16265,"거실":16266,"배울":16267,"상관없이":16268,"멋지":16269,"몇몇":16270,"2012":16271,"타입":16272,"한도":16273,"때려":16274,"##디자인":16275,"공군":16276,"냐구":16277,"상금":16278,"83":16279,"크루":16280,"골드":16281,"못보":16282,"4분기":16283,"동작":16284,"##얼마":16285,"더하":16286,"##화장":16287,"로드":16288,"놀랐":16289,"미쳐":16290,"매운":16291,"경로":16292,"육군":16293,"내비":16294,"##분석":16295,"FI":16296,"##부담":16297,"아르바이트":16298,"에이스":16299,"예금":16300,"부사장":16301,"특혜":16302,"고유":16303,"두드":16304,"양보":16305,"2조":16306,"지표":16307,"도중":16308,"아마도":16309,"추락":16310,"늘려":16311,"박주":16312,"기재":16313,"##군수":16314,"##이용":16315,"자국":16316,"그전":16317,"올게":16318,"용도":16319,"처지":16320,"실태":16321,"진도":16322,"##농업":16323,"##❤️❤️":16324,"##발전소":16325,"##DP":16326,"착각":16327,"자리잡":16328,"본질":16329,"신용카드":16330,"잘생긴":16331,"##랑이":16332,"게이":16333,"##nt":16334,"동아일보":16335,"앞장서":16336,"넉넉":16337,"불렀":16338,"인거같":16339,"해수":16340,"패키지":16341,"명시":16342,"신종":16343,"전설":16344,"압력":16345,"##공헌":16346,"태양광":16347,"스탠":16348,"주자":16349,"이력":16350,"or":16351,"익명":16352,"##8명":16353,"예산안":16354,"G20":16355,"오마이":16356,"시상식":16357,"박씨":16358,"쿠팡":16359,"이번달":16360,"물어봐":16361,"차장":16362,"화합":16363,"##할듯":16364,"대법관":16365,"단축":16366,"##내리":16367,"맛없":16368,"월욜":16369,"##건지":16370,"##점수":16371,"감축":16372,"##처럼":16373,"안함":16374,"##가정":16375,"##기반":16376,"미팅":16377,"##m²":16378,"##볶음":16379,"3주":16380,"혁명":16381,"공수":16382,"그릇":16383,"사교육":16384,"신화":16385,"막대":16386,"##지주":16387,"책임지":16388,"감당":16389,"뇌물":16390,"우울증":16391,"지각":16392,"올바른":16393,"김수":16394,"##스플레이":16395,"봐봐":16396,"재원":16397,"##사리":16398,"저항":16399,"##가포르":16400,"국물":16401,"더워":16402,"##소연":16403,"1학기":16404,"을라":16405,"담당자":16406,"문경":16407,"##노동자":16408,"3억":16409,"##티나":16410,"9명":16411,"한해":16412,"##추천":16413,"떨어질":16414,"##덜란드":16415,"주방":16416,"채소":16417,"불교":16418,"셔츠":16419,"벤치":16420,"##2일":16421,"언능":16422,"맡기":16423,"##그래서":16424,"흔들리":16425,"강세":16426,"##근로":16427,"##코드":16428,"교원":16429,"해체":16430,"##29":16431,"2만원":16432,"무서운":16433,"KBO":16434,"전무":16435,"온갖":16436,"서브":16437,"어쨌":16438,"5번":16439,"바닷":16440,"오디":16441,"##여대":16442,"나을":16443,"그래요":16444,"해진다":16445,"서울중앙":16446,"조국":16447,"스웨":16448,"신축":16449,"매진":16450,"안성":16451,"소셜":16452,"반려":16453,"000":16454,"못해서":16455,"일듯":16456,"##의학":16457,"드릴":16458,"##고생":16459,"##모집":16460,"##금지":16461,"##저축":16462,"추적":16463,"네덜란드":16464,"지역민":16465,"경제학":16466,"어렸":16467,"##소개":16468,"연세":16469,"살아남":16470,"될거같":16471,"공짜":16472,"본회의":16473,"보조금":16474,"개장":16475,"##가운":16476,"방탄":16477,"울산시":16478,"오토":16479,"안해도":16480,"아시안게임":16481,"엉덩이":16482,"워싱턴":16483,"고스란히":16484,"고지":16485,"##영장":16486,"우즈":16487,"##네시아":16488,"빼앗":16489,"위탁":16490,"##아직":16491,"지우":16492,"쟁점":16493,"마사지":16494,"촉촉":16495,"##빠지":16496,"##허가":16497,"선착":16498,"유가":16499,"파란":16500,"갈때":16501,"##사태":16502,"스크린":16503,"다가오":16504,"표명":16505,"싱가포르":16506,"##이야기":16507,"##서구":16508,"소금":16509,"##부리":16510,"돌아다니":16511,"해줘서":16512,"건설사":16513,"승객":16514,"흘리":16515,"으셨":16516,"##45":16517,"트레이":16518,"보여줄":16519,"구멍":16520,"답했":16521,"##27":16522,"##회복":16523,"다채":16524,"국민연금":16525,"거친":16526,"##라엘":16527,"포토":16528,"##투수":16529,"학력":16530,"돌아온":16531,"명성":16532,"걸어가":16533,"내달":16534,"웹툰":16535,"다니까":16536,"이메일":16537,"가속":16538,"되찾":16539,"##이후":16540,"선거운동":16541,"붕괴":16542,"##균형":16543,"구석":16544,"98":16545,"you":16546,"감수":16547,"호감":16548,"##일리지":16549,"포르":16550,"포스트":16551,"기성":16552,"110":16553,"재수강":16554,"강정":16555,"입력":16556,"환상":16557,"명령":16558,"##스레":16559,"##ew":16560,"사진찍":16561,"라이브":16562,"비결":16563,"마인드":16564,"견제":16565,"자르":16566,"는대":16567,"인강":16568,"전지":16569,"고치":16570,"탈북":16571,"그지":16572,"아이스":16573,"김장":16574,"##약품":16575,"강도":16576,"날아":16577,"싱글":16578,"##브랜드":16579,"##리포":16580,"##꺼같":16581,"페이":16582,"2009":16583,"1대":16584,"##저녁":16585,"흡연":16586,"점심먹":16587,"노란":16588,"명칭":16589,"주류":16590,"소속사":16591,"엄격":16592,"안남":16593,"밀리":16594,"##시스":16595,"##예방":16596,"커버":16597,"해용":16598,"해써":16599,"벌어진":16600,"세미나":16601,"태어난":16602,"부러":16603,"##트로":16604,"허락":16605,"시세":16606,"##26":16607,"##미술관":16608,"##교회":16609,"소프트웨어":16610,"저소득층":16611,"쓰이":16612,"중장":16613,"##스카":16614,"##해주":16615,"##그치":16616,"아이고":16617,"기술력":16618,"##커피":16619,"그래그래":16620,"of":16621,"한복":16622,"대구경북":16623,"86":16624,"점심시간":16625,"내외":16626,"김지":16627,"모기":16628,"##광고":16629,"IP":16630,"제고":16631,"원리":16632,"다면서":16633,"71":16634,"에다가":16635,"포털":16636,"순환":16637,"50분":16638,"5위":16639,"분쟁":16640,"침몰":16641,"유망":16642,"실용":16643,"뛰어나":16644,"연구소":16645,"과시":16646,"류현진":16647,"촉진":16648,"개관":16649,"존경":16650,"보강":16651,"160":16652,"##노동당":16653,"스터디":16654,"IM":16655,"시켜주":16656,"##어리":16657,"작동":16658,"일수":16659,"경매":16660,"바둑":16661,"인도네시아":16662,"8년":16663,"이스라엘":16664,"3000":16665,"주기":16666,"화나":16667,"지향":16668,"##안먹":16669,"목욕":16670,"##인증":16671,"멈추":16672,"##전문가":16673,"구랭":16674,"##ut":16675,"헬스장":16676,"탈당":16677,"천재":16678,"체감":16679,"대입":16680,"교과부":16681,"탁월":16682,"진흥":16683,"개강":16684,"무더":16685,"생선":16686,"어쩔수없":16687,"##국대":16688,"유전자":16689,"초래":16690,"피고":16691,"여기저기":16692,"막걸리":16693,"해바":16694,"풍성":16695,"일환":16696,"지냈":16697,"행정부":16698,"으니깐":16699,"인용":16700,"법무부":16701,"관중":16702,"렌즈":16703,"가벼운":16704,"대립":16705,"액션":16706,"##버그":16707,"4시간":16708,"##지부":16709,"매수":16710,"##오래":16711,"힘입":16712,"소고기":16713,"발매":16714,"조회":16715,"##화재":16716,"공격수":16717,"4학년":16718,"아름답":16719,"커서":16720,"수강신청":16721,"더라구요":16722,"초콜":16723,"##만9":16724,"##부족":16725,"매월":16726,"1분기":16727,"색상":16728,"따져":16729,"개척":16730,"생계":16731,"##주도":16732,"창립":16733,"극혐":16734,"해져":16735,"##메이션":16736,"차세대":16737,"타당":16738,"지상파":16739,"논쟁":16740,"수원시":16741,"글쓰":16742,"성폭력":16743,"한꺼":16744,"길이":16745,"##흥민":16746,"중국어":16747,"면제":16748,"##기계":16749,"일어날":16750,"몇년":16751,"지목":16752,"이런식":16753,"맞춘":16754,"##자본":16755,"할텐데":16756,"비비":16757,"출간":16758,"간다고":16759,"야채":16760,"##교체":16761,"글구":16762,"산거":16763,"##급여":16764,"시비":16765,"동력":16766,"응시":16767,"사회공헌":16768,"증권사":16769,"윤리":16770,"##천만원":16771,"##9명":16772,"고집":16773,"단다":16774,"대대":16775,"스피드":16776,"CCTV":16777,"도서":16778,"나타내":16779,"안됐":16780,"수질":16781,"치우":16782,"하위":16783,"한동안":16784,"##정비":16785,"박람회":16786,"##선생":16787,"집값":16788,"##전력":16789,"##대교":16790,"##처장":16791,"알파":16792,"안와":16793,"언론사":16794,"척추":16795,"시국":16796,"정밀":16797,"##인지":16798,"##공제":16799,"다룬":16800,"서부":16801,"들어선":16802,"못함":16803,"##아무":16804,"##백질":16805,"열기":16806,"손흥민":16807,"취직":16808,"##ro":16809,"더군":16810,"평양":16811,"##크스":16812,"권위":16813,"시발":16814,"타이밍":16815,"스튜":16816,"맛난거":16817,"##주주":16818,"임상":16819,"##구니":16820,"격리":16821,"지침":16822,"선제":16823,"##방지":16824,"개성공단":16825,"아파서":16826,"대세":16827,"##ㄴㄴ":16828,"마이너스":16829,"일년":16830,"한꺼번에":16831,"오페라":16832,"수상자":16833,"글쿤":16834,"##아침":16835,"배웠":16836,"요거":16837,"해볼게":16838,"##이도":16839,"행진":16840,"시킨다":16841,"##ㅌㅋ":16842,"메달":16843,"신장":16844,"##점검":16845,"지위":16846,"갤러리":16847,"거울":16848,"접목":16849,"코드":16850,"행태":16851,"8강":16852,"곱창":16853,"가라":16854,"갑니다":16855,"당선인":16856,"KTX":16857,"기구":16858,"문서":16859,"내친구":16860,"시공":16861,"장악":16862,"##거나":16863,"ㅋㅋㅋㅋㅋㅋㅋㅋㅋㅋㅋㅋㅋㅋㅋㅋㅋㅋㅋㅋㅋㅋ":16864,"5대":16865,"건강보험":16866,"##간담회":16867,"뒷받침":16868,"떠난":16869,"종편":16870,"들으":16871,"방역":16872,"특강":16873,"관행":16874,"먹거리":16875,"##파티":16876,"이뿌":16877,"을걸":16878,"꼬리":16879,"남긴":16880,"##주차":16881,"실리":16882,"##ation":16883,"측근":16884,"병신":16885,"LP":16886,"웃긴":16887,"##이프":16888,"몸무게":16889,"메이저리그":16890,"3배":16891,"누리꾼":16892,"해줄게":16893,"##대행":16894,"##무기":16895,"##검진":16896,"##여름":16897,"담보":16898,"모범":16899,"##평등":16900,"놀러":16901,"##비전":16902,"##PC":16903,"국세청":16904,"지역주민":16905,"평가받":16906,"##나나":16907,"##확실":16908,"##오픈":16909,"다했":16910,"개이":16911,"##특위":16912,"통합진보":16913,"선수단":16914,"기적":16915,"##대구":16916,"헐랭":16917,"##ㅋㅋㅋㅋㅋㅋㅋㅋㅋㅋㅋㅋㅋㅋㅋ":16918,"뜨겁":16919,"내릴":16920,"걸음":16921,"##설명":16922,"##경기장":16923,"##그레이드":16924,"나타냈":16925,"##군데":16926,"의류":16927,"으므로":16928,"줘서":16929,"##타워":16930,"포럼":16931,"오프라인":16932,"##십분":16933,"무거":16934,"구워":16935,"만기":16936,"사자":16937,"간호사":16938,"공영":16939,"잃어":16940,"볼거리":16941,"열차":16942,"##근처":16943,"민주노동당":16944,"당뇨":16945,"박영":16946,"거점":16947,"##결제":16948,"140":16949,"가르쳐":16950,"먹이":16951,"##푸드":16952,"수확":16953,"##개사":16954,"샌드":16955,"영웅":16956,"공직자":16957,"마크":16958,"러브":16959,"시러":16960,"합쳐":16961,"눈썹":16962,"섹스":16963,"비빔":16964,"예외":16965,"김선":16966,"농어":16967,"##수익":16968,"금속":16969,"드라이":16970,"니트":16971,"학년":16972,"우리은행":16973,"3인":16974,"무인":16975,"부리":16976,"토끼":16977,"몰라도":16978,"견해":16979,"마실":16980,"뮤직":16981,"해가지":16982,"청장":16983,"치러":16984,"97":16985,"소규모":16986,"##시마":16987,"고성":16988,"수다":16989,"세수":16990,"인문학":16991,"해법":16992,"적금":16993,"호수":16994,"상실":16995,"87":16996,"웬만":16997,"##가슴":16998,"김천":16999,"세번":17000,"착하":17001,"상하":17002,"게시판":17003,"엇갈":17004,"##미안":17005,"갈비":17006,"##청사":17007,"##경주":17008,"##초등학교":17009,"줄일":17010,"공시":17011,"푸른":17012,"심정":17013,"음반":17014,"##잔데":17015,"망했":17016,"자영업":17017,"##먼스":17018,"대중교통":17019,"키스":17020,"간편":17021,"골든":17022,"##지능":17023,"관세":17024,"초록":17025,"아산":17026,"목포":17027,"##무성":17028,"바깥":17029,"조달":17030,"잇따":17031,"##인데":17032,"##수당":17033,"수급":17034,"전직":17035,"##수기":17036,"##OC":17037,"울집":17038,"##체육관광":17039,"96":17040,"원천":17041,"해안":17042,"800":17043,"수습":17044,"열려":17045,"##민주연합":17046,"맞춰서":17047,"주간":17048,"##도우":17049,"아리":17050,"##부처":17051,"박원순":17052,"밤새":17053,"##애애":17054,"##오염":17055,"##폭행":17056,"생각중":17057,"##로이드":17058,"##체육관":17059,"##징어":17060,"김주":17061,"##나바":17062,"##재생":17063,"양쪽":17064,"4회":17065,"##가게":17066,"엄빠":17067,"만성":17068,"구두":17069,"인가봐":17070,"해피":17071,"다닌":17072,"##설계":17073,"2루":17074,"##교육감":17075,"잘생겼":17076,"벌어졌":17077,"새마을":17078,"89":17079,"영화관":17080,"기울이":17081,"말리":17082,"하긴":17083,"##괜찮":17084,"송파":17085,"따라가":17086,"국토교통":17087,"고무":17088,"단호":17089,"재현":17090,"##려가":17091,"##챙겨":17092,"##미터":17093,"별루":17094,"##경찰청":17095,"주름":17096,"##어스":17097,"네집":17098,"잉글":17099,"창원시":17100,"활력":17101,"##리드":17102,"거지":17103,"193":17104,"170":17105,"애인":17106,"더이상":17107,"성별":17108,"##채널":17109,"❤️":17110,"아맞":17111,"금감":17112,"##준표":17113,"2013":17114,"앞세워":17115,"1주일":17116,"이리":17117,"이뤄질":17118,"규칙":17119,"기쁘":17120,"북미":17121,"떠났":17122,"조교":17123,"##아보":17124,"##미친":17125,"별다른":17126,"유성":17127,"##데이터":17128,"구호":17129,"##안정":17130,"##ch":17131,"에코":17132,"##권력":17133,"여수시":17134,"든가":17135,"어딜":17136,"상하이":17137,"##로우":17138,"가전":17139,"기금":17140,"분량":17141,"이념":17142,"##세상":17143,"마운드":17144,"양측":17145,"개인정보":17146,"실물":17147,"공백":17148,"관내":17149,"중계":17150,"##조리":17151,"사후":17152,"위장":17153,"94":17154,"##평양":17155,"간접":17156,"학문":17157,"##렌지":17158,"출구":17159,"맥락":17160,"FC":17161,"700":17162,"##회계":17163,"오버":17164,"##치킨":17165,"대구지역":17166,"아무튼":17167,"버릴":17168,"같이가":17169,"퀴즈":17170,"##수학":17171,"상품권":17172,"워터":17173,"뛰어넘":17174,"야생":17175,"내게":17176,"GM":17177,"눈앞":17178,"##단장":17179,"단백질":17180,"##할까":17181,"시너지":17182,"유승":17183,"녹화":17184,"보임":17185,"##전지":17186,"마늘":17187,"댄스":17188,"아닌지":17189,"가맹":17190,"마일리지":17191,"##내일":17192,"집착":17193,"불안감":17194,"일선":17195,"증언":17196,"통합진보당":17197,"혐오":17198,"##집회":17199,"높일":17200,"거둔":17201,"##국회":17202,"9단":17203,"지원금":17204,"피부과":17205,"도저히":17206,"선행":17207,"190":17208,"자구":17209,"시나리오":17210,"구청장":17211,"##부모":17212,"새정치민주연합":17213,"원고":17214,"위해선":17215,"##지나":17216,"동서":17217,"내려오":17218,"글씨":17219,"아스":17220,"할말":17221,"신도시":17222,"수목":17223,"정문":17224,"82":17225,"바퀴":17226,"##김치":17227,"패러":17228,"떠오":17229,"업그레이드":17230,"뿌듯":17231,"연방":17232,"외식":17233,"부평":17234,"##연수":17235,"기온":17236,"선보인":17237,"LED":17238,"보람":17239,"##미디":17240,"프라":17241,"##기부":17242,"##어넣":17243,"외출":17244,"받아들여":17245,"12개":17246,"##드림":17247,"그런듯":17248,"일본인":17249,"후후":17250,"숨겨":17251,"재고":17252,"오세":17253,"##보고서":17254,"##까스":17255,"유용":17256,"탑재":17257,"##ㄱㅅ":17258,"##그랬":17259,"영등":17260,"해두":17261,"컴터":17262,"쇄신":17263,"15년":17264,"전세계":17265,"##인상":17266,"주먹":17267,"실전":17268,"펼쳐진다":17269,"기량":17270,"범행":17271,"환승":17272,"너무너무":17273,"##사원":17274,"방송사":17275,"들어야":17276,"민선":17277,"20명":17278,"설명회":17279,"커졌":17280,"##처넌":17281,"연어":17282,"믿음":17283,"고양시":17284,"불펜":17285,"만지":17286,"중복":17287,"영화제":17288,"물품":17289,"주한":17290,"##여부":17291,"이집":17292,"위대":17293,"##용지":17294,"##어요":17295,"나같":17296,"마스터":17297,"유가족":17298,"리스크":17299,"##나물":17300,"##재산":17301,"##패스":17302,"##5일":17303,"동행":17304,"시의원":17305,"##로지":17306,"창단":17307,"성사":17308,"##포먼스":17309,"인먼트":17310,"플레이오프":17311,"열악":17312,"자외선":17313,"철강":17314,"벌인":17315,"본적":17316,"##OU":17317,"오래된":17318,"입점":17319,"엘리":17320,"20만원":17321,"##아먹":17322,"강렬":17323,"미드필":17324,"신천":17325,"##입자":17326,"던져":17327,"발주":17328,"용어":17329,"to":17330,"이목":17331,"부패":17332,"간절":17333,"주재":17334,"건축물":17335,"##캠퍼스":17336,"##갔다":17337,"##뱅크":17338,"단단":17339,"된대":17340,"재직":17341,"학회":17342,"##매장":17343,"##노트":17344,"베이스":17345,"지혜":17346,"슬픔":17347,"##포구":17348,"##루션":17349,"##심리":17350,"터뜨":17351,"문건":17352,"볼게":17353,"한사람":17354,"이슬람":17355,"로그":17356,"아닙니다":17357,"가짜":17358,"돋보이":17359,"##한다는":17360,"외교부":17361,"두루":17362,"##엄청":17363,"기후변화":17364,"신상":17365,"중학생":17366,"으세요":17367,"##수증":17368,"약자":17369,"정국":17370,"주연":17371,"장군":17372,"원유":17373,"100명":17374,"일곱":17375,"합성":17376,"계곡":17377,"우왕":17378,"추첨":17379,"협박":17380,"보편":17381,"93":17382,"막히":17383,"약물":17384,"기억나":17385,"여주":17386,"약국":17387,"##임대":17388,"##수수색":17389,"이산":17390,"수정안":17391,"OE":17392,"침묵":17393,"국제사회":17394,"도청":17395,"정무":17396,"가해자":17397,"1998년":17398,"장착":17399,"##동아리":17400,"다이소":17401,"##동조합":17402,"멀쩡":17403,"걸림":17404,"부드럽":17405,"톡톡":17406,"국토해양":17407,"홍준표":17408,"주유":17409,"멍청":17410,"갑작":17411,"##에이":17412,"회수":17413,"내세우":17414,"열릴":17415,"##공급":17416,"##자나":17417,"압수수색":17418,"이루어지":17419,"토록":17420,"통행":17421,"배구":17422,"##부채":17423,"어쨌든":17424,"신혼":17425,"인접":17426,"##se":17427,"싸이":17428,"##매김":17429,"유효":17430,"재택":17431,"감사원":17432,"친박계":17433,"##잘하":17434,"두꺼":17435,"##구만":17436,"##만8":17437,"공중":17438,"세제":17439,"드레스":17440,"주석":17441,"##강의":17442,"수성구":17443,"1점":17444,"승용차":17445,"남아공":17446,"꼬집":17447,"잠수":17448,"2단계":17449,"편해":17450,"에붕":17451,"외국어":17452,"뒤지":17453,"여겨":17454,"##캐피":17455,"쾌적":17456,"부산시":17457,"일지":17458,"자리매김":17459,"특별히":17460,"집중력":17461,"관광지":17462,"공세":17463,"초밥":17464,"체중":17465,"토마토":17466,"농장":17467,"캠퍼스":17468,"##ㄱㄴ":17469,"채무":17470,"리모델":17471,"마카":17472,"항소":17473,"수변":17474,"##어진다":17475,"백제":17476,"위하":17477,"금감원":17478,"염증":17479,"엄청나":17480,"##대표팀":17481,"기증":17482,"##귀엽":17483,"##농협":17484,"더러":17485,"안보이":17486,"으응":17487,"낮잠":17488,"요건":17489,"무척":17490,"최씨":17491,"모금":17492,"##사례":17493,"공문":17494,"##안돼":17495,"성매매":17496,"통산":17497,"노래방":17498,"##장학":17499,"##예약":17500,"##니즘":17501,"##어서":17502,"##밴드":17503,"##드름":17504,"한전":17505,"상환":17506,"할부":17507,"클린턴":17508,"둘러싸":17509,"주고":17510,"##러져":17511,"##티즌":17512,"출퇴근":17513,"##진거":17514,"좌석":17515,"모인":17516,"##선택":17517,"북부":17518,"원료":17519,"건수":17520,"접하":17521,"지루":17522,"타인":17523,"방영":17524,"치아":17525,"내걸":17526,"##효율":17527,"##외과":17528,"버거":17529,"##르몬":17530,"마싯":17531,"제로":17532,"##현상":17533,"그치만":17534,"어쩌면":17535,"공정위":17536,"꾸며":17537,"용량":17538,"포도":17539,"##신기":17540,"돌아보":17541,"명의":17542,"해임":17543,"부추":17544,"일거":17545,"##비서관":17546,"신제품":17547,"두시간":17548,"빛나":17549,"거세":17550,"##un":17551,"시의회":17552,"MC":17553,"거제":17554,"유니폼":17555,"협업":17556,"##시오":17557,"1승":17558,"불신":17559,"차분":17560,"증말":17561,"하필":17562,"##너스":17563,"다지":17564,"##전기":17565,"생애":17566,"##어때":17567,"전수":17568,"그야":17569,"정유":17570,"탈모":17571,"자원봉사":17572,"전철":17573,"##유통":17574,"퇴진":17575,"더욱이":17576,"수비수":17577,"분산":17578,"퍼포먼스":17579,"##인치":17580,"##호인":17581,"면세점":17582,"남자애":17583,"##붙이":17584,"응답자":17585,"판매량":17586,"대치":17587,"##선진":17588,"한국은행":17589,"4개월":17590,"##성비":17591,"아르헨":17592,"성숙":17593,"신공항":17594,"안무":17595,"할게요":17596,"김승":17597,"오늘날":17598,"사령":17599,"터져":17600,"사설":17601,"##토토":17602,"에어팟":17603,"##통제":17604,"비례대표":17605,"살거":17606,"전임":17607,"신동":17608,"매니저":17609,"바위":17610,"에바":17611,"히트":17612,"급등":17613,"끈다":17614,"이뤄지지":17615,"마약":17616,"일기":17617,"권대회":17618,"##하면":17619,"인사청":17620,"기지":17621,"밀양":17622,"##노인":17623,"##000억":17624,"장성":17625,"불거":17626,"회동":17627,"스웨덴":17628,"문화체육관광":17629,"고등학생":17630,"오타":17631,"해볼까":17632,"연료":17633,"##어치":17634,"##반대":17635,"##작품":17636,"우정":17637,"##휴가":17638,"##라카":17639,"계층":17640,"이뤘":17641,"호기":17642,"갠차":17643,"돈벌":17644,"증정":17645,"다녀와":17646,"달랐":17647,"정황":17648,"기다렸":17649,"현대자동차":17650,"소홀":17651,"##트롤":17652,"##마음":17653,"##티드":17654,"눈빛":17655,"단톡":17656,"반지":17657,"그대":17658,"한건데":17659,"추경":17660,"간호":17661,"##다란":17662,"##수요":17663,"##역시":17664,"첫번":17665,"시달리":17666,"땡큐":17667,"##저스":17668,"갖췄":17669,"##고속도로":17670,"##200":17671,"적성":17672,"모시":17673,"맨유":17674,"스카이":17675,"형편":17676,"##프레":17677,"##피곤":17678,"까다":17679,"##셔널":17680,"인천공항":17681,"티셔츠":17682,"풀어":17683,"수영장":17684,"매트":17685,"장수":17686,"##고등학교":17687,"큰거":17688,"##청소년":17689,"조율":17690,"할일":17691,"부스":17692,"조속":17693,"지원자":17694,"##창조":17695,"##벅지":17696,"보전":17697,"부러워":17698,"##소식":17699,"##레이션":17700,"1년간":17701,"1999년":17702,"인건비":17703,"고3":17704,"발간":17705,"대여":17706,"증세":17707,"##만6":17708,"된장":17709,"네일":17710,"추운":17711,"플라":17712,"한적":17713,"##부품":17714,"병역":17715,"미용실":17716,"금품":17717,"타선":17718,"요양":17719,"라니까":17720,"느냐는":17721,"와이파이":17722,"1997년":17723,"가져오":17724,"금연":17725,"주고받":17726,"참치":17727,"하드":17728,"초딩":17729,"추격":17730,"2대":17731,"외로":17732,"KCC":17733,"수신":17734,"슬픈":17735,"미술관":17736,"낭비":17737,"아싸":17738,"증인":17739,"해야하나":17740,"5회":17741,"가중":17742,"##검토":17743,"1억원":17744,"두부":17745,"홍성":17746,"지문":17747,"##그만":17748,"세개":17749,"벚꽃":17750,"제4":17751,"걸그룹":17752,"부드러운":17753,"st":17754,"해놨":17755,"시크":17756,"정세":17757,"##여건":17758,"시집":17759,"정규리그":17760,"테크":17761,"박찬":17762,"무겁":17763,"재선":17764,"##돼지":17765,"복구":17766,"아름다움":17767,"곤란":17768,"불확실":17769,"명백":17770,"##알바":17771,"가져다":17772,"##스리그":17773,"브라운":17774,"##쟁이":17775,"투기":17776,"그런것":17777,"특별법":17778,"##35":17779,"터치":17780,"남한":17781,"아닌거":17782,"##투자증권":17783,"수위":17784,"식단":17785,"사망자":17786,"##유지":17787,"한국사":17788,"찾아오":17789,"행사장":17790,"상향":17791,"##상금":17792,"1순위":17793,"##청소":17794,"##매치":17795,"겹치":17796,"재킷":17797,"할꺼":17798,"##일찍":17799,"공단":17800,"셋째":17801,"유료":17802,"달라진":17803,"일상생활":17804,"규명":17805,"##회원":17806,"##라지":17807,"##본거":17808,"필라":17809,"스페셜":17810,"염두":17811,"몽골":17812,"##어린":17813,"세포":17814,"편견":17815,"##공동체":17816,"별거":17817,"어땠":17818,"꾸미":17819,"##투명":17820,"횡령":17821,"인게":17822,"둘이":17823,"무력":17824,"와중":17825,"아용":17826,"원작":17827,"상한":17828,"호호":17829,"##협의":17830,"배추":17831,"북측":17832,"클리":17833,"##im":17834,"##소문":17835,"여파":17836,"정한":17837,"빌리":17838,"##속도":17839,"다른사람":17840,"거아냐":17841,"가까워":17842,"##티스트":17843,"##베리":17844,"레이스":17845,"##ir":17846,"발의":17847,"북핵":17848,"화해":17849,"누워서":17850,"인공지능":17851,"제자":17852,"우연히":17853,"한결":17854,"어쩐":17855,"억제":17856,"대체로":17857,"고래":17858,"##높이":17859,"프린트":17860,"아르헨티나":17861,"뛰어들":17862,"오징어":17863,"홍삼":17864,"##식품부":17865,"권유":17866,"전신":17867,"흑자":17868,"못지않":17869,"횟수":17870,"센스":17871,"줄줄":17872,"휴게":17873,"보험사":17874,"지능":17875,"##닉스":17876,"방통위":17877,"##um":17878,"경제성장":17879,"##보조":17880,"##아동":17881,"##가봐":17882,"##집행":17883,"##21":17884,"신재":17885,"튼튼":17886,"대면":17887,"실효":17888,"영혼":17889,"열받":17890,"산업단지":17891,"플래":17892,"##센스":17893,"##타이":17894,"2019년":17895,"농림":17896,"깨닫":17897,"##부인":17898,"못자":17899,"##입장":17900,"사인":17901,"안건":17902,"최우선":17903,"선착순":17904,"동계올림픽":17905,"지니":17906,"펼쳐지":17907,"유세":17908,"으려는":17909,"부지런":17910,"수차례":17911,"##생태":17912,"향기":17913,"보행":17914,"백수":17915,"1차전":17916,"AP":17917,"도박":17918,"바나나":17919,"##자연":17920,"그야말로":17921,"##사용":17922,"선포":17923,"파격":17924,"##저우":17925,"##ame":17926,"##생물":17927,"##몬드":17928,"할걸":17929,"구역":17930,"##콘서트":17931,"동남아":17932,"소상공":17933,"안들어":17934,"글자":17935,"어딨":17936,"딱딱":17937,"비닐":17938,"나타난":17939,"생활비":17940,"##실적":17941,"소원":17942,"샌드위치":17943,"##지노":17944,"신한은행":17945,"##한대":17946,"발길":17947,"하여":17948,"##NG":17949,"떠올리":17950,"쪼끔":17951,"##수단":17952,"한옥":17953,"수천":17954,"자부심":17955,"서강":17956,"##투쟁":17957,"카이":17958,"할까요":17959,"사오":17960,"사측":17961,"해내":17962,"##그럴":17963,"발레":17964,"판교":17965,"##네트워크":17966,"##워야":17967,"한식":17968,"개좋":17969,"중부":17970,"전격":17971,"##나옴":17972,"##ce":17973,"김병":17974,"##유럽":17975,"기출":17976,"마셨":17977,"##만7":17978,"##영역":17979,"아홉":17980,"스케줄":17981,"스타트업":17982,"리조트":17983,"##영어":17984,"머릿":17985,"빠질":17986,"면허":17987,"출국":17988,"##DI":17989,"##인식":17990,"상권":17991,"한남":17992,"##모닝":17993,"##하위":17994,"시신":17995,"달래":17996,"소위":17997,"잉글랜드":17998,"방과":17999,"##상관":18000,"##우승":18001,"안마":18002,"정상회의":18003,"요가":18004,"인민":18005,"서서":18006,"왕복":18007,"GDP":18008,"가산":18009,"핵실험":18010,"추천좀":18011,"##계좌":18012,"##더파":18013,"선관위":18014,"##태프":18015,"81":18016,"2년간":18017,"남북관계":18018,"자사":18019,"로또":18020,"##만달러":18021,"희생자":18022,"끊이":18023,"당해":18024,"달렸":18025,"##나온":18026,"##데스":18027,"등지":18028,"##지르":18029,"지속가능":18030,"##개인":18031,"##강사":18032,"##평균":18033,"거보":18034,"##55":18035,"분열":18036,"감면":18037,"물고기":18038,"폭탄":18039,"##나눔":18040,"얼마전":18041,"난민":18042,"##간다고":18043,"끔찍":18044,"라하":18045,"##분위":18046,"유혹":18047,"명목":18048,"B씨":18049,"IB":18050,"박성":18051,"##경험":18052,"토로":18053,"블라":18054,"OECD":18055,"재해":18056,"성폭행":18057,"전락":18058,"아닠":18059,"##습관":18060,"입국":18061,"전적":18062,"안양시":18063,"정했":18064,"##전환":18065,"협력업체":18066,"보충":18067,"쏟아지":18068,"여년":18069,"##상승":18070,"명동":18071,"인걸":18072,"1군":18073,"파문":18074,"##IP":18075,"구청":18076,"안써":18077,"##돌리":18078,"열풍":18079,"##현실":18080,"그땐":18081,"미흡":18082,"사료":18083,"코미디":18084,"이례":18085,"참석자":18086,"아쉬운":18087,"EBS":18088,"서문":18089,"포트":18090,"11개":18091,"##고용":18092,"##제철":18093,"##모습":18094,"IMF":18095,"랄까":18096,"산학":18097,"자회사":18098,"안쪽":18099,"국면":18100,"땡기":18101,"시흥":18102,"총력":18103,"추산":18104,"헌재":18105,"국정감사":18106,"박종":18107,"지원받":18108,"지경":18109,"입대":18110,"약한":18111,"##밀리":18112,"과잉":18113,"탑승":18114,"광복":18115,"양파":18116,"군산":18117,"부재":18118,"##다행":18119,"둘러보":18120,"피고인":18121,"던졌":18122,"별개":18123,"올라왔":18124,"이만":18125,"##한국":18126,"##쿼터":18127,"교내":18128,"버림":18129,"꼼꼼히":18130,"해야돼":18131,"그럴까":18132,"클라":18133,"농담":18134,"##둘러":18135,"송금":18136,"인센":18137,"해가":18138,"##해요":18139,"달달":18140,"##em":18141,"산업혁명":18142,"반짝":18143,"볶음":18144,"인쇄":18145,"##수리":18146,"유감":18147,"탐방":18148,"했잖아":18149,"악기":18150,"핑계":18151,"혹시나":18152,"##시경":18153,"손목":18154,"##부부":18155,"목격":18156,"실감":18157,"##셔서":18158,"안된다고":18159,"##레이크":18160,"관장":18161,"##배상":18162,"##취업":18163,"저하":18164,"ㅋㅋㅋㅋㅋㅋㅋㅋㅋㅋㅋㅋㅋㅋㅋㅋㅋㅋㅋㅋㅋㅋㅋ":18165,"인삼":18166,"요약":18167,"음원":18168,"후쿠":18169,"양치":18170,"허벅지":18171,"##탄소":18172,"##무지":18173,"1단계":18174,"크다":18175,"대륙":18176,"인체":18177,"잡히":18178,"과학기술":18179,"##일어나":18180,"진짜로":18181,"관심사":18182,"새정치연합":18183,"관건":18184,"올시즌":18185,"직구":18186,"가성비":18187,"##화물":18188,"##농가":18189,"스포":18190,"일일이":18191,"카레":18192,"화상":18193,"자소":18194,"경찰관":18195,"버전":18196,"이화":18197,"쿠키":18198,"끌어올":18199,"##버님":18200,"항공기":18201,"유전":18202,"16개":18203,"##동원":18204,"tv":18205,"다녀왔":18206,"재미없":18207,"열시":18208,"울릉":18209,"##서리":18210,"청산":18211,"##두리":18212,"보건소":18213,"공감대":18214,"이시":18215,"확고":18216,"휴일":18217,"10년간":18218,"4층":18219,"중립":18220,"##주사":18221,"우리학교":18222,"미쳣":18223,"초콜릿":18224,"##지마":18225,"입단":18226,"##들여":18227,"탄소":18228,"##제작":18229,"들어간다":18230,"30만원":18231,"모니터링":18232,"범인":18233,"여객":18234,"국수":18235,"##할때":18236,"##ur":18237,"접근성":18238,"살해":18239,"##소방":18240,"이런데":18241,"국토교통부":18242,"비핵":18243,"협회":18244,"##통일":18245,"새겨":18246,"중시":18247,"##할거같":18248,"2차전":18249,"이길":18250,"셔야":18251,"##고시":18252,"##일랜드":18253,"##동기":18254,"때로":18255,"운항":18256,"유적":18257,"생김":18258,"전전":18259,"김희":18260,"##통장":18261,"미드필더":18262,"석사":18263,"애니메이션":18264,"3분기":18265,"추출":18266,"보건복지부":18267,"크루즈":18268,"##돌이":18269,"1만원":18270,"온실":18271,"##pen":18272,"현대건설":18273,"2개월":18274,"그렇지만":18275,"도구":18276,"비공개":18277,"2점":18278,"태권":18279,"##든지":18280,"상경":18281,"##미래":18282,"무너지":18283,"아뇨":18284,"서버":18285,"더만":18286,"##브라":18287,"사각":18288,"세용":18289,"낚시":18290,"몇명":18291,"1사":18292,"두명":18293,"청원":18294,"포착":18295,"만족도":18296,"한겨레":18297,"불황":18298,"##방위":18299,"긴장감":18300,"##도리":18301,"독점":18302,"1등급":18303,"위생":18304,"##대기":18305,"##기본":18306,"중앙정부":18307,"네티즌":18308,"바디":18309,"떠올랐":18310,"전술":18311,"경북대":18312,"늘어":18313,"동문":18314,"총회":18315,"달아":18316,"단행":18317,"더민주":18318,"태안":18319,"##수막":18320,"교차":18321,"페이지":18322,"##출근":18323,"##다봤":18324,"2분기":18325,"이순":18326,"기절":18327,"경북도":18328,"##변경":18329,"트로":18330,"공연장":18331,"걸어서":18332,"##데이트":18333,"약먹":18334,"한텐":18335,"아구":18336,"마카롱":18337,"활기":18338,"가평":18339,"날리":18340,"장미":18341,"달라졌":18342,"20개":18343,"성취":18344,"키워드":18345,"좌절":18346,"##가져":18347,"복용":18348,"우체":18349,"여학생":18350,"못봤":18351,"##나갔":18352,"##산단":18353,"##톨릭":18354,"교황":18355,"기자간담회":18356,"결성":18357,"조카":18358,"##작전":18359,"플랜":18360,"쌍용차":18361,"자네":18362,"통영":18363,"간장":18364,"수여":18365,"파장":18366,"불이익":18367,"원가":18368,"##이브리드":18369,"레스토":18370,"컴백":18371,"##워드":18372,"반환":18373,"조세":18374,"게재":18375,"##3일":18376,"정자":18377,"##전용":18378,"프리미어":18379,"제이":18380,"##테랑":18381,"저축은행":18382,"상정":18383,"무효":18384,"##재판소":18385,"SM":18386,"##교과":18387,"수제":18388,"##그니까":18389,"이대로":18390,"설탕":18391,"국토해양부":18392,"매도":18393,"##지점":18394,"넘나":18395,"##풍기":18396,"##일으":18397,"##지식":18398,"상세":18399,"000원":18400,"쇠고기":18401,"마라톤":18402,"스티커":18403,"책정":18404,"##구성":18405,"##스피":18406,"여태":18407,"치명":18408,"굿굿":18409,"무장":18410,"플러스":18411,"##구매":18412,"도모":18413,"임용":18414,"집앞":18415,"NH":18416,"##봐야지":18417,"몰입":18418,"서면":18419,"##출산":18420,"##안했":18421,"4인":18422,"고파":18423,"한걸":18424,"간지":18425,"훌쩍":18426,"지성":18427,"레스토랑":18428,"##성기":18429,"품절":18430,"일본어":18431,"종전":18432,"##운서":18433,"결단":18434,"날개":18435,"박태":18436,"원안":18437,"줄기":18438,"금융감독":18439,"독재":18440,"별명":18441,"설사":18442,"줄알":18443,"##비리":18444,"보좌":18445,"##저리":18446,"경찰청":18447,"요금제":18448,"비극":18449,"우세":18450,"그런거같":18451,"대지":18452,"보습":18453,"이어폰":18454,"보태":18455,"임무":18456,"##운다":18457,"지지자":18458,"##스케":18459,"##디움":18460,"##박이":18461,"##44":18462,"내면":18463,"안해서":18464,"거품":18465,"##커스":18466,"감추":18467,"배포":18468,"오이":18469,"밝혀졌":18470,"92":18471,"돼있":18472,"뜨거":18473,"궁금증":18474,"야야":18475,"무거운":18476,"스런":18477,"정해진":18478,"향하":18479,"5배":18480,"소나무":18481,"이별":18482,"좌파":18483,"호기심":18484,"수혜":18485,"##야되":18486,"##마당":18487,"자기소개":18488,"관여":18489,"##ag":18490,"이런건":18491,"여드름":18492,"여인":18493,"조선시대":18494,"##인터넷":18495,"가죽":18496,"커다란":18497,"5억":18498,"헤드":18499,"##공천":18500,"##창출":18501,"양말":18502,"##33":18503,"정씨":18504,"포스터":18505,"왜그러":18506,"그라":18507,"교복":18508,"으루":18509,"기르":18510,"치마":18511,"크로스":18512,"##소시":18513,"독서실":18514,"2부":18515,"준수":18516,"##블릿":18517,"서점":18518,"여도":18519,"##느리":18520,"이라크":18521,"##MW":18522,"##워치":18523,"급격히":18524,"색다른":18525,"축산":18526,"##할지":18527,"쓴다":18528,"나빠":18529,"제보":18530,"학사":18531,"##요원":18532,"##ct":18533,"대서":18534,"한곳":18535,"##완전":18536,"여름철":18537,"배신":18538,"권역":18539,"아아아":18540,"낸다":18541,"드물":18542,"발탁":18543,"해놔":18544,"##준거":18545,"담임":18546,"상의":18547,"손잡":18548,"교섭":18549,"##ore":18550,"아메리카":18551,"빼놓":18552,"국악":18553,"바뀔":18554,"넘어서":18555,"납득":18556,"##정권":18557,"속속":18558,"현대중공업":18559,"달콤":18560,"술집":18561,"사라진":18562,"두시":18563,"진리":18564,"아껴":18565,"보여줘":18566,"##키스탄":18567,"일명":18568,"##거든":18569,"뭘까":18570,"수료":18571,"들어올":18572,"청정":18573,"반납":18574,"##op":18575,"출동":18576,"말레이":18577,"감지":18578,"캐스팅":18579,"탐구":18580,"##구이":18581,"극심":18582,"배상":18583,"##의대":18584,"후자":18585,"주역":18586,"##주기":18587,"구미시":18588,"자립":18589,"커질":18590,"인센티브":18591,"화두":18592,"맞대결":18593,"##도어":18594,"##댕이":18595,"들어와서":18596,"무렵":18597,"신다":18598,"##사카":18599,"##문화재":18600,"그다음":18601,"##서치":18602,"성남시":18603,"았었":18604,"라이프":18605,"허브":18606,"구럼":18607,"라기":18608,"경영진":18609,"드러난":18610,"LA":18611,"스트레":18612,"MOU":18613,"베테랑":18614,"안바":18615,"황당":18616,"구름":18617,"더위":18618,"억지로":18619,"3조":18620,"##다르":18621,"사원":18622,"진보신":18623,"선보일":18624,"두근":18625,"##면접":18626,"사격":18627,"시켜서":18628,"맡겨":18629,"비치":18630,"중산":18631,"통신사":18632,"##다는거":18633,"단식":18634,"공학":18635,"##상가":18636,"왜이렇게":18637,"불참":18638,
[...]
