[PAD]
[UNK]
[CLS]
[SEP]
[MASK]
[CSEP]
[MSEP]
!
"
#
$
%
&
'
(
)
*
+
,
-
.
/
0
1
2
3
4
5
6
7
8
9
:
;
<
=
>
?
@
A
B
C
D
E
F
G
H
I
J
K
L
M
N
O
P
Q
R
S
T
U
V
W
X
Y
Z
[
\
]
^
_
`
a
b
c
d
e
f
g
h
i
j
k
l
m
n
o
p
q
r
s
t
u
v
w
x
y
z
{
|
}
~
¡
£
¥
§
©
®
¯
°
±
²
³
´
·
¸
¹
½
¿
×
é
ö
÷
ü
ƪ
ʔ
ʕ
ʖ
ʚ
ʰ
ʷ
ʸ
ˀ
˂
˃
˘
˙
˚
˝
˵
̀
́
̂
̃
̄
̅
̆
̇
̈
̉
̊
̋
̌
̍
̎
̏
̐
̑
̒
̓
̔
̕
̖
̗
̘
̙
̚
̛
̜
̝
̞
̟
̠
̡
̢
̣
̤
̥
̦
̧
̨
̩
̪
̫
̬
̭
̮
̯
̰
̱
̲
̳
̴
̵
̶
̷
̸
̹
̺
̻
̼
̽
̾
̿
̀
́
͂
̓
̈́
ͅ
͆
͇
͈
͉
͊
͋
͌
͍
͎
͐
͑
͒
͓
͔
͕
͖
͗
͘
͙
͚
͛
͜
͝
͞
͟
͠
͡
Δ
α
β
ε
ι
μ
π
ω
А
Д
Н
а
в
г
д
е
з
и
й
к
л
м
н
о
п
р
с
т
у
ч
ы
ь
я
و
٩
ࠅ
ࡇ
ਕ
ਤ
ਦ
ਨ
ਯ
ਰ
ਲ
ਸ
ਾ
ਿ
ੁ
ੇ
ੋ
ੱ
ഃ
ට
ෆ
ง
ิ
็
้
๑
ຶ
༎
༼
༽
တ
ာ
ေ
့
း
်
ღ
ᄀ
ᄁ
ᄂ
ᄃ
ᄅ
ᄆ
ᄇ
ᄉ
ᄋ
ᄌ
ᄎ
ᄐ
ᄑ
ᄒ
ᅡ
ᅢ
ᅣ
ᅥ
ᅦ
ᅧ
ᅩ
ᅪ
ᅬ
ᅭ
ᅮ
ᅯ
ᅳ
ᅴ
ᅵ
ᆞ
ᆢ
ᆨ
ᆫ
ᆯ
ᆷ
ᆸ
ᆺ
ᆻ
ᆼ
ᐛ
ᕕ
ᕗ
ᕙ
ᗜ
៖
ᩚ
ᴗ
ᵒ
ᵔ
ᵕ
᷄
᷅
–
—
―
‘
’
“
”
•
․
‥
…
‧
′
″
‸
‹
›
※
‼
‿
⁉
⁺
⁼
⁾
₂
₃
₩
⃝
⃣
⃫
℃
ℓ
™
⅓
⅔
Ⅰ
Ⅱ
Ⅲ
Ⅳ
Ⅴ
Ⅵ
Ⅶ
←
↑
→
↓
↔
↗
↘
⇒
∀
∇
∙
√
∥
∧
∨
∼
≖
≠
⊙
⊼
⋅
⌑
⌓
⌔
⍤
①
②
③
④
⑤
⑥
⑦
⑧
⑨
⑩
⑪
⑫
ⓐ
ⓑ
ⓒ
ⓓ
ⓝ
─
━
│
┃
┈
┊
┌
┓
└
├
═
╬
╯
╹
█
▒
■
□
▣
▨
▪
▮
▲
△
▶
▷
►
▼
▽
▾
◀
◆
◇
◈
◉
○
◍
◎
●
◐
◑
◔
◞
◟
◠
◡
◦
◯
◾
☀
☃
★
☆
☎
☏
☑
☔
☕
☘
☜
☝
☞
☹
☺
♀
♂
♡
♣
♤
♥
♧
♪
♬
♭
⚓
⚠
⚡
⚾
⛴
✅
✈
✊
✋
✌
✔
✧
✨
❁
❄
❌
❓
❗
❛
❣
❤
➡
➤
➰
➿
⠀
⠄
⢀
⣀
⣿
⫬
⬇
⬜
⭐
⭕
⸌
⸍
⸝
、
。
〃
〈
〉
《
》
「
」
『
』
【
】
〜
〰
あ
い
う
え
お
か
が
き
く
け
こ
さ
し
じ
す
せ
そ
た
だ
ち
っ
つ
て
で
と
ど
な
に
ね
の
は
ば
ま
み
め
も
や
よ
ら
り
る
れ
ろ
わ
を
ん
゜
ゞ
イ
ス
ト
ノ
ュ
ユ
ル
ロ
ヮ
ヲ
ン
・
ー
ヽ
ㄱ
ㄲ
ㄳ
ㄴ
ㄶ
ㄷ
ㄸ
ㄹ
ㄺ
ㄻ
ㅀ
ㅁ
ㅂ
ㅃ
ㅄ
ㅅ
ㅆ
ㅇ
ㅈ
ㅉ
ㅊ
ㅋ
ㅌ
ㅍ
ㅎ
ㅏ
ㅐ
ㅑ
ㅒ
ㅓ
ㅔ
ㅕ
ㅖ
ㅗ
ㅘ
ㅙ
ㅚ
ㅛ
ㅜ
ㅝ
ㅞ
ㅟ
ㅠ
ㅡ
ㅢ
ㅣ
ㅤ
ㆍ
㈔
㈜
㉠
㉡
㉪
㉯
㉻
㎃
㎉
㎍
㎎
㎏
㎐
㎒
㎓
㎖
㎗
㎘
㎚
㎛
㎜
㎝
㎞
㎠
㎡
㎢
㎥
㎦
㎧
㎸
㎽
㎾
㎿
㏄
㏈
㏊
㏜
一
丁
七
丈
三
上
下
不
丑
世
丘
丙
中
丸
丹
为
主
乃
久
么
之
乎
乘
乙
九
也
乳
乾
亂
了
事
二
于
五
井
亞
亡
交
亥
亦
京
亭
人
什
仁
今
介
他
付
仙
代
令
以
们
仲
件
任
企
伊
伏
伐
休
会
伯
似
伽
位
低
住
佐
何
余
佛
作
你
佳
使
來
例
侍
供
依
侯
便
係
俊
俗
保
信
修
倂
倉
個
倍
倒
借
倫
倭
假
偉
偏
停
健
偶
傍
備
傳
債
傷
傾
像
僕
僞
僧
價
儀
儒
償
優
元
兄
兆
先
光
克
免
兎
兒
入
內
全
兩
兪
八
公
六
共
兵
其
具
典
兼
円
冊
再
冠
冬
冷
凍
凡
凰
凱
出
刀
刁
分
切
刊
刑
列
初
判
別
利
到
制
券
刹
刺
刻
則
前
剛
副
割
創
劃
劇
劉
劍
劑
力
功
加
助
勇
動
務
勝
勞
募
勢
勤
勳
勸
勿
包
化
北
匠
匹
區
十
千
午
半
卒
協
南
博
卜
占
卦
卯
印
危
却
卵
卷
卽
厚
原
去
參
又
及
友
反
取
受
口
古
句
只
召
可
台
史
右
司
各
合
吉
同
名
后
向
吗
君
否
含
吳
吾
告
周
呪
味
呼
命
和
哀
品
哈
員
哭
哲
唐
唯
唱
商
問
啓
善
喜
喪
單
嘉
器
嚴
四
回
因
固
国
圈
國
園
圓
圖
團
土
在
圭
地
址
坂
均
坊
坐
坡
坤
坪
型
城
域
執
基
堂
堤
報
場
塔
塗
塚
塵
境
墓
增
墨
墳
壁
壇
壓
士
壬
壯
壺
壽
夏
夕
外
多
夜
夢
大
天
太
夫
央
失
夷
奇
奈
奉
契
奧
奪
女
奴
好
如
妃
妄
妓
妙
妻
始
姓
委
姜
威
婚
婦
媛
嫌
嫡
子
孔
字
存
孝
孟
季
孤
学
孫
學
宇
守
安
宋
完
宏
宗
官
宙
定
宜
客
宣
室
宮
害
宴
家
容
宿
寂
寄
寅
密
富
寒
察
寡
實
寧
審
寫
寬
寶
寸
寺
封
射
將
專
尊
對
導
小
少
尖
尙
就
尹
尺
尼
尾
局
居
屈
屋
屍
展
層
屬
山
岐
岡
岩
岳
岸
峯
峰
島
崇
崎
崔
崛
嶺
巖
川
州
巡
巢
工
左
巨
巫
差
己
已
巳
巴
市
布
希
帖
帝
師
席
帶
常
幅
幕
干
平
年
幸
幹
幻
幽
床
序
底
店
庚
府
度
座
庫
庭
庵
康
庸
廟
廢
廣
廳
延
廷
建
开
弊
式
弓
弔
引
弗
弘
弟
张
弱
張
强
彈
彌
形
彦
彩
彭
影
役
彼
往
征
待
律
後
徐
徒
得
從
御
復
微
徵
德
徹
徽
心
必
忌
忍
志
忘
忠
快
念
怒
思
急
性
怨
怪
恐
恒
恥
恨
恩
恭
息
悅
悟
患
悲
情
惑
惟
惠
惡
想
愁
意
愚
愛
感
愼
慈
態
慕
慘
慧
慶
慾
憂
憤
憲
應
懲
懷
懸
戊
戌
成
我
戒
戰
戴
戶
房
所
手
才
打
扶
承
技
投
抗
折
拙
招
拜
持
指
振
授
掌
排
採
接
推
提
揚
換
援
損
摩
擇
擊
擧
攝
支
收
改
攻
放
政
故
效
敍
敎
敏
救
敗
散
敬
整
敵
數
文
斗
料
斜
斬
斯
新
斷
方
於
施
旅
族
旗
旣
日
旨
早
昆
昇
昌
明
易
星
映
春
昭
是
時
晉
晋
晝
晦
晩
普
景
晶
智
暇
暑
暗
暮
暴
曆
曉
曰
曲
更
書
曹
曾
最
會
月
有
朋
服
朗
望
朝
期
木
未
末
本
朱
朴
杉
李
材
村
杖
杜
杞
来
杭
杯
杰
東
松
板
林
果
枝
枯
架
染
柔
柯
柱
柳
査
校
株
核
根
格
桂
桃
案
桐
桑
梁
梅
條
梨
棄
棋
棟
森
棺
植
楊
楚
業
極
榮
構
樂
樓
標
模
樣
樹
橋
機
橫
檀
檢
權
次
欲
欺
歌
歐
止
正
此
步
武
歲
歷
歸
死
殉
殘
段
殺
殿
毅
母
每
毒
比
毛
氏
民
氣
水
氷
永
求
汎
汗
汚
江
池
汪
決
沈
沒
沖
沙
河
油
治
沼
況
泉
法
波
泥
注
泰
泳
洋
洑
洗
洙
洛
洞
津
洪
洲
活
派
流
浙
浜
浦
浩
浪
浮
海
消
淑
淘
淡
淨
深
淳
淵
混
淸
添
減
渡
港
游
湖
湘
湯
源
準
溝
溪
溫
滅
滋
滴
滿
漁
漆
演
漢
漸
潔
潘
潛
潤
潭
潮
澤
濕
濟
濤
濱
瀋
灘
灣
火
災
炎
炭
炳
点
烈
烏
烹
無
然
煙
煥
照
熊
熙
熟
熱
燃
燈
燒
燕
營
爆
爐
爭
爲
父
爾
片
版
牌
牙
牛
牧
物
特
犬
犯
狀
狂
狗
猛
猫
猶
獄
獨
獸
獻
玄
玉
王
珍
珠
班
現
球
理
琴
瑞
環
瓦
甘
生
産
用
田
由
甲
申
男
町
界
留
略
番
異
畵
當
畿
疆
疏
疑
疫
疾
病
症
痛
痰
癌
癸
登
發
白
百
的
皆
皇
皮
益
盛
盜
盟
盡
監
盤
盧
目
盲
直
相
省
眉
看
眞
眠
眼
着
知
短
石
砂
砲
破
硏
碎
碑
碧
確
磁
磊
磨
礁
示
社
祀
祈
祖
祝
神
祠
祥
票
祭
禁
禍
福
禪
禮
禹
秀
私
秉
秋
科
秘
秦
移
稀
稅
程
種
稱
稻
穀
積
穴
空
窓
窮
窯
立
竝
章
童
端
競
竹
笑
符
第
筆
等
筋
答
策
算
管
節
範
篇
築
簡
籍
米
粉
精
糖
系
紀
約
紅
紋
納
純
紙
級
紛
素
紫
細
紹
終
絃
組
結
給
統
絲
絶
經
綠
維
綱
網
線
緣
編
縣
總
織
繩
繼
續
罪
置
罰
署
羅
羊
美
群
義
羽
翁
習
翼
耀
老
考
者
而
耐
耕
耳
聖
聞
聯
聲
職
聽
肅
肉
肝
肥
育
胃
背
胎
胡
能
脈
脚
脫
脾
腎
腐
腦
腸
腹
膽
臟
臣
臥
臨
自
至
致
臺
與
興
舊
舌
舍
舞
舟
航
船
艦
良
色
芝
花
芳
苑
若
苦
英
茂
范
茶
草
荒
荷
莊
莫
菅
菊
菌
菜
菩
華
萬
落
葉
著
葛
葬
蒙
蒼
蓋
蓮
蔘
蔡
蔣
薄
薦
薩
藍
藏
藝
藤
藥
蘇
蘭
虎
處
虛
號
虹
蛇
蜜
融
蟲
血
衆
行
術
街
衛
衡
衣
表
被
裁
裏
裕
補
裝
製
複
西
要
覆
覇
見
規
視
親
覺
覽
觀
角
解
觸
言
計
訓
記
訟
訪
設
許
訴
註
評
詞
詠
試
詩
話
誌
認
語
誠
誤
說
課
調
談
請
論
諡
諫
諸
謀
謙
講
謝
謹
證
識
譜
警
譯
議
護
讀
變
说
谷
豆
豊
象
豪
豫
貞
負
財
貧
貨
販
貪
貫
責
貰
貴
買
貸
費
賀
資
賊
賓
賜
賞
賢
賣
質
購
贊
赤
赦
走
起
超
越
趙
足
跡
路
踏
躍
身
車
軌
軍
軒
軸
載
輕
輝
輪
輸
輿
轉
辛
辭
辯
辰
農
迎
近
这
述
迷
追
退
送
逆
途
通
速
造
連
週
進
逸
遇
遊
運
過
道
達
違
遙
遠
適
遮
遲
遷
選
遺
遼
避
還
邊
邑
那
邦
邪
邱
郞
郡
部
郭
都
鄕
鄧
鄭
酉
配
酒
酸
醉
醫
醬
釋
里
重
野
量
金
釜
針
釣
鈴
鉉
銀
銃
銅
銘
鋪
鋼
錄
錢
錦
錫
錯
鍾
鎭
鏡
鐘
鐵
鑑
長
門
開
閑
間
閣
關
门
阪
防
阿
陀
附
降
限
陝
院
陣
除
陰
陳
陵
陶
陸
陽
隆
隊
階
隔
際
隨
隱
雄
雅
集
雙
雜
離
難
雨
雪
雲
雷
電
需
震
霜
霞
霧
露
靈
靑
靖
靜
非
面
革
韓
韜
韩
音
韻
頂
順
須
頌
領
頭
題
額
顔
願
顚
類
顧
顯
風
飛
食
飮
飯
飾
養
餓
餘
餠
館
首
香
馬
駐
騎
騰
驅
驚
驛
骨
體
高
髮
鬪
鬱
鬼
魂
魏
魔
魚
魯
鮮
鳥
鳩
鳳
鳴
鴻
鵬
鶴
鷄
鹽
鹿
麗
麥
麵
麻
黃
黑
默
點
黨
鼎
鼓
鼻
齊
齋
齒
齡
龍
龜
ꉂ
꙼
가
각
갂
간
갇
갈
갉
갊
감
갑
값
갓
갔
강
갖
갗
갘
같
갚
갛
개
객
갞
갠
갣
갤
갬
갭
갯
갰
갱
갲
갴
갵
갷
갸
갹
갼
걀
걈
걉
걋
걌
걍
걐
걑
걔
걘
걜
거
걱
건
걵
걷
걸
걺
검
겁
것
겄
겅
겆
겇
겈
겉
겊
겋
게
겍
겎
겐
겓
겔
겜
겝
겟
겠
겡
겢
겣
겤
겥
겦
겧
겨
격
겪
견
겯
결
겸
겹
겻
겼
경
겾
곀
곁
곂
곃
계
곈
곗
곘
곜
고
곡
곤
곧
골
곪
곯
곰
곱
곳
곴
공
곶
곷
곸
곹
곺
곻
과
곽
관
괄
괌
광
괔
괘
괜
괞
괨
괭
괮
괴
괸
괼
굄
굇
굉
교
굑
굔
굘
굠
굡
굣
굥
굨
구
국
군
굳
굴
굵
굶
굼
굽
굿
궁
궂
궃
궄
궅
궆
궇
궈
권
궐
궛
궜
궝
궤
귀
귄
귈
귐
귓
귕
귗
귘
규
귝
균
귣
귤
귬
귯
귱
귴
그
극
근
귾
귿
글
긁
긂
긇
금
급
긋
긌
긍
긎
긏
긐
긑
긓
긔
긘
긩
긬
기
긱
긴
긶
긷
길
긿
김
깁
깃
깄
깅
깆
깇
깈
깉
깊
깋
까
깍
깎
깐
깔
깜
깝
깟
깠
깡
깢
깤
깥
깦
깧
깨
깩
깪
깬
깰
깸
깹
깻
깼
깽
꺀
꺄
꺅
꺆
꺌
꺗
꺘
꺙
꺜
꺠
꺳
꺴
꺵
꺼
꺽
꺾
껀
껄
껌
껍
껏
껐
껑
껒
껔
께
껙
껜
껠
껨
껩
껫
껬
껭
껰
껳
껴
꼇
꼈
꼉
꼌
꼐
꼥
꼬
꼭
꼮
꼰
꼳
꼴
꼼
꼽
꼿
꽁
꽂
꽃
꽄
꽅
꽇
꽈
꽉
꽌
꽐
꽝
꽤
꽥
꽹
꾀
꾐
꾜
꾱
꾸
꾹
꾺
꾼
꾾
꾿
꿀
꿇
꿈
꿉
꿋
꿍
꿎
꿐
꿑
꿔
꿘
꿧
꿨
꿩
꿰
꿱
꿴
뀌
뀐
뀔
뀜
뀝
뀨
뀩
뀬
뀰
뀸
뀼
뀽
끄
끅
끆
끈
끊
끋
끌
끓
끔
끕
끗
끙
끛
끜
끝
끠
끵
끼
끽
낀
낄
낌
낍
낏
낑
낔
나
낙
낚
난
낞
낟
날
낡
낢
남
납
낫
났
낭
낮
낯
낰
낱
낲
낳
내
낵
낶
낸
낻
낼
냄
냅
냇
냈
냉
냊
냌
냏
냐
냑
냔
냘
냠
냡
냣
냤
냥
냨
냩
냪
냫
냬
넄
너
넉
넋
넌
넏
널
넒
넓
넘
넙
넚
넛
넜
넝
넠
넢
넣
네
넥
넨
넫
넬
넴
넵
넷
넸
넹
넺
넼
넽
넿
녀
녁
년
녇
녈
념
녑
녓
녔
녕
녘
녚
녜
녠
녤
녬
녭
녱
녴
노
녹
논
녾
놀
놂
놈
놉
놋
농
놏
놐
놑
높
놓
놔
놕
놘
놧
놨
놩
놬
놯
놰
뇌
뇐
뇠
뇨
뇩
뇬
뇰
뇸
뇹
뇻
뇽
눀
누
눅
눈
눋
눌
눔
눕
눗
눙
눚
눜
눞
눟
눠
눤
눨
눳
눴
눵
눼
뉌
뉍
뉑
뉘
뉜
뉠
뉨
뉩
뉭
뉰
뉴
뉵
뉸
뉼
늄
늅
늉
늌
늏
느
늑
늒
는
늕
늖
늗
늘
늙
늠
늡
늣
능
늦
늨
늩
늪
늫
늬
늰
늼
닁
니
닉
닊
닌
닏
닐
님
닙
닛
닜
닝
닞
닠
닡
닢
닣
다
닥
닦
단
닪
닫
달
닭
닮
닯
닳
담
답
닷
닸
당
닺
닻
닼
닽
닾
닿
대
댁
댂
댄
댇
댈
댐
댑
댓
댔
댕
댘
댙
댚
댛
댜
댠
댤
댬
댭
댯
댱
댴
댸
더
덕
덖
던
덛
덜
덞
덟
덤
덥
덧
덨
덩
덪
덫
덬
덮
덯
데
덱
덴
덷
델
뎀
뎁
뎃
뎄
뎅
뎆
뎇
뎈
뎉
뎊
뎋
뎌
뎐
뎔
뎟
뎠
뎡
뎤
뎨
뎬
도
독
돈
돋
돌
돔
돕
돗
동
돚
돛
돜
돝
돞
돟
돠
돡
돤
돨
돰
돳
돴
돵
돼
돽
돾
됀
됄
됌
됍
됏
됐
됑
됒
됔
됗
되
됙
된
될
됨
됩
됫
됬
됭
됮
됰
됳
됴
됸
둉
두
둑
둔
둗
둘
둠
둡
둣
둥
둨
둫
둬
둰
둿
뒀
뒁
뒄
뒈
뒉
뒙
뒝
뒤
뒨
뒷
뒹
듀
듁
듄
듈
듐
듑
듓
듕
듘
드
득
든
듣
들
듥
듦
듬
듭
듯
등
듳
듴
듷
듸
딋
딍
디
딕
딘
딛
딜
딤
딥
딧
딨
딩
딪
딫
딬
딮
딯
따
딱
딲
딴
딷
딸
딹
땀
땁
땃
땄
땅
땈
땋
때
땍
땐
땔
땜
땝
땟
땠
땡
땤
땨
땬
땸
땽
떄
떈
떔
떘
떙
떠
떡
떢
떤
떧
떨
떫
떰
떱
떳
떴
떵
떸
떻
떼
떽
뗀
뗄
뗌
뗏
뗐
뗑
뗘
뗫
뗬
뗭
뗴
또
똑
똒
똔
똗
똘
똠
똡
똣
똥
똨
똫
똬
똭
뙇
뙈
뙤
뚀
뚁
뚕
뚜
뚝
뚠
뚤
뚫
뚬
뚭
뚯
뚱
뚸
뛔
뛰
뛴
뛸
뜀
뜁
뜌
뜍
뜐
뜜
뜝
뜡
뜨
뜩
뜬
뜯
뜰
뜷
뜸
뜹
뜻
뜽
띁
띄
띈
띌
띔
띕
띠
띡
띤
띨
띰
띱
띵
라
락
띾
란
랂
랃
랄
람
랍
랏
랐
랑
랒
랔
랕
랖
랗
래
랙
랚
랜
랟
랠
램
랩
랫
랬
랭
랰
랱
랲
랳
랴
략
랸
랼
럄
럅
럇
럈
량
럌
럐
럣
럤
러
럭
런
럳
럴
럼
럽
럾
럿
렀
렁
렂
렄
렆
렇
레
렉
렌
렏
렐
렘
렙
렛
렜
렝
렠
렢
렣
려
력
렦
련
렫
렬
렴
렵
렷
렸
령
렺
렼
렿
례
롄
롑
로
록
론
롣
롤
롬
롭
롯
롰
롱
롲
롴
롶
롷
롸
롹
롼
뢀
뢈
뢋
뢌
뢍
뢔
뢩
뢰
뢴
룀
료
룍
룐
룔
룜
룝
룟
룠
룡
룤
루
룩
룬
룰
룸
룹
룻
룽
뤀
뤃
뤄
뤈
뤌
뤔
뤗
뤘
뤙
뤠
뤡
뤱
뤵
뤼
뤽
륀
륄
륌
륑
류
륙
륜
률
륨
륩
륭
르
륵
른
륻
를
륽
름
릅
릇
릉
릊
릌
릎
릏
릐
릔
릠
릥
리
릭
린
릳
릴
림
립
릿
맀
링
맂
맄
맆
맇
마
막
만
맍
많
맏
말
맑
맒
맗
맘
맙
맛
맜
망
맞
맟
맠
맡
맣
매
맥
맨
맫
맬
맴
맵
맷
맸
맹
맺
맻
맼
먀
먁
먄
먈
먐
먕
먗
머
먹
먼
먾
먿
멀
멂
멈
멉
멋
멍
멎
멏
멐
멓
메
멕
멘
멜
멤
멥
멧
멨
멩
멬
며
멱
면
멶
멷
멸
몀
몃
몄
명
몆
몇
몈
몉
모
목
몫
몬
몯
몰
몸
몹
못
몽
뫀
뫃
뫄
뫈
뫙
뫠
뫼
묀
묏
묘
묜
묠
묨
묫
묭
묯
무
묵
묶
문
묹
묻
물
묽
묾
뭄
뭅
뭇
뭉
뭊
뭌
뭍
뭏
뭐
뭑
뭔
뭘
뭠
뭡
뭣
뭥
뭦
뭨
뭫
뭬
뮈
뮌
뮐
뮤
뮥
뮨
뮬
뮴
뮷
뮹
므
믁
믄
믈
믐
믓
믕
믖
믜
믱
미
믹
믺
민
믽
믾
믿
밀
밈
밉
밋
밌
밍
밎
및
밐
밑
밓
바
박
밖
반
받
발
밝
밞
밟
밤
밥
밧
밨
방
밪
밬
밭
밯
배
백
밴
밷
밸
뱀
뱁
뱃
뱄
뱅
뱈
뱉
뱌
뱍
뱐
뱔
뱝
뱡
버
벅
벆
번
벋
벌
벎
범
법
벗
벘
벙
벚
벛
벜
벟
베
벡
벤
벧
벨
벰
벱
벳
벵
벹
벼
벽
변
볃
별
볌
볍
볏
볐
병
볓
볔
볕
볗
볜
보
복
볶
본
볻
볼
볽
볾
봄
봅
봇
봈
봉
봊
봌
봏
봐
봑
봒
봔
봘
봠
봡
봣
봤
봥
봨
봫
봬
뵀
뵈
뵌
뵐
뵘
뵙
뵛
뵜
뵤
뵥
뵨
뵬
뵹
부
북
분
붇
불
붉
붐
붑
붓
붕
붖
붗
붘
붙
붛
붜
붤
붸
뷁
뷔
뷘
뷜
뷰
뷱
뷴
뷸
븀
븁
븅
븉
브
븍
븐
블
븜
븝
븟
븡
븤
븥
븨
비
빅
빆
빈
빋
빌
빔
빕
빗
빘
빙
빚
빛
빜
빝
빟
빠
빡
빢
빤
빧
빨
빰
빱
빳
빴
빵
빸
빻
빼
빽
뺀
뺄
뺌
뺍
뺏
뺐
뺑
뺘
뺙
뺨
뺭
뺴
뺵
뺸
뺼
뻇
뻈
뻐
뻑
뻔
뻗
뻘
뻠
뻡
뻣
뻤
뻥
뻨
뻬
뼈
뼉
뼘
뼛
뼝
뽀
뽁
뽂
뽄
뽈
뽐
뽑
뽕
뽖
뽜
뽝
뽱
뽷
뾰
뾱
뿅
뿌
뿍
뿐
뿔
뿜
뿝
뿟
뿡
뿤
뿨
쀄
쀼
쁀
쁌
쁍
쁑
쁘
쁜
쁠
쁨
쁩
쁭
삉
삐
삑
삔
삘
삠
삡
삣
삥
사
삭
삮
삯
산
삳
살
삵
삶
삻
삼
삽
삿
샀
상
샂
샃
샄
샅
샆
샇
새
색
샊
샌
샏
샐
샒
샘
샙
샛
샜
생
샠
샢
샤
샥
샨
샬
샴
샵
샷
샸
샹
샾
섀
서
석
섞
선
섣
설
섦
섬
섭
섯
섰
성
섲
섳
섴
섵
섶
섷
세
섹
센
셀
셈
셉
셋
셌
셍
셐
셒
셔
셕
셖
션
셜
셤
셥
셧
셨
셩
셬
셯
셰
셴
셸
솅
소
속
솎
손
솓
솔
솜
솝
솟
송
솤
솥
솦
솧
솨
솩
솬
솰
솸
솼
솽
쇄
쇠
쇤
쇳
쇼
쇽
숀
숄
숌
숍
숏
숑
숔
수
숙
순
숟
술
숨
숩
숫
숭
숮
숯
숰
숱
숲
숳
숴
숸
쉅
쉈
쉉
쉐
쉑
쉔
쉘
쉡
쉣
쉥
쉨
쉬
쉭
쉰
쉴
쉼
쉽
쉿
슁
슄
슈
슉
슌
슐
슘
슙
슛
슝
슠
스
슥
슨
슫
슬
슭
슴
습
슷
승
슺
슼
슽
슾
슿
싀
싄
싈
싐
싑
싘
시
식
신
싣
실
싪
싫
심
십
싯
싰
싱
싲
싳
싴
싵
싶
싷
싸
싹
싼
싿
쌀
쌈
쌉
쌋
쌌
쌍
쌐
쌓
쌔
쌕
쌘
쌜
쌤
쌩
쌰
썀
썅
썌
썜
썡
써
썩
썪
썬
썯
썰
썸
썹
썻
썼
썽
쎀
쎂
쎃
쎄
쎅
쎈
쎌
쎔
쎗
쎘
쎙
쎜
쎠
쎵
쎼
쏀
쏘
쏙
쏜
쏟
쏠
쏨
쏩
쏭
쏰
쏴
쏵
쏼
쐇
쐈
쐐
쐬
쐰
쐴
쑈
쑉
쑝
쑤
쑥
쑨
쑬
쑴
쑵
쑹
쒀
쒔
쒕
쒘
쒜
쒯
쒸
쒹
쓋
쓍
쓐
쓔
쓕
쓤
쓩
쓰
쓱
쓴
쓸
씀
씁
씃
씅
씈
씉
씌
씐
씡
씨
씩
씪
씬
씯
씰
씸
씹
씻
씼
씽
씾
앀
아
악
앆
안
앉
않
앋
알
앍
앎
앏
앓
암
압
앖
앗
았
앙
앚
앛
앜
앝
앞
앟
애
액
앤
앧
앨
앰
앱
앳
앴
앵
앸
앺
앻
야
약
얀
얃
얄
얆
얇
얌
얍
얎
얏
얐
양
얒
얔
얕
얖
얗
얘
얜
얠
얬
얭
어
억
얶
얷
언
얹
얺
얻
얼
얽
얾
엄
업
없
엇
었
엉
엊
엋
엌
엍
엎
엏
에
엑
엔
엗
엘
엠
엡
엣
엤
엥
엧
엨
엩
엪
엫
여
역
엮
연
엳
열
엶
엷
염
엽
엾
엿
였
영
옂
옃
옄
옅
옆
옇
예
옌
옐
옘
옙
옛
옜
옝
옠
오
옥
옦
옧
온
옫
올
옭
옮
옳
옴
옵
옶
옷
옸
옹
옺
옻
옼
옽
옾
옿
와
왁
왂
완
왈
왐
왑
왒
왓
왔
왕
왖
왘
왚
왛
왜
왝
왠
왤
왬
왭
왯
왱
왴
외
왼
욀
욋
욌
욍
욐
요
욕
욘
욛
욜
욤
욥
욧
욨
용
욪
욬
욭
욮
욯
우
욱
운
욷
울
욺
움
웁
웂
웃
웄
웅
웆
웈
웉
웋
워
웍
웎
원
웓
월
웜
웝
웟
웠
웡
웢
웤
웦
웧
웨
웩
웬
웰
웸
웹
웻
웽
윀
위
윅
윈
윌
윔
윕
윗
윙
윜
유
육
윤
율
윰
윱
윳
융
윷
윸
윻
으
윽
윾
은
읁
읂
읃
을
읅
읆
읈
읊
읋
음
읍
읎
읏
읐
응
읒
읓
읔
읕
읖
읗
의
읜
읭
읰
이
익
읶
인
읹
읺
읻
일
읽
읾
잀
잃
임
입
잆
잇
있
잉
잊
잋
잌
잍
잎
잏
자
작
잒
잔
잖
잗
잘
잚
잠
잡
잣
잤
장
잦
잧
잨
잩
잫
재
잭
잰
잴
잼
잽
잿
쟀
쟁
쟄
쟈
쟉
쟌
쟎
쟐
쟘
쟙
쟛
쟜
쟝
쟠
쟣
쟤
쟨
쟬
쟼
저
적
전
젆
젇
절
젊
젋
점
접
젓
젔
정
젖
젘
젛
제
젝
젠
젤
젬
젭
젯
젱
젲
젴
젷
져
젹
젺
젼
졀
졈
졉
졋
졌
졍
졐
졓
졔
조
족
존
졷
졸
좀
좁
좃
종
좆
좇
좈
좊
좋
좌
좍
좐
좔
좝
좟
좠
좡
좨
죄
죈
죌
죔
죗
죙
죠
죡
죤
죨
죰
죱
죳
죴
죵
죸
죻
주
죽
준
줃
줄
줅
줌
줍
줏
줐
중
줒
줓
줔
줕
줗
줘
줙
줚
줜
줠
줨
줫
줬
줭
줰
줳
줴
줸
쥄
쥉
쥐
쥑
쥔
쥘
쥠
쥡
쥣
쥥
쥨
쥬
쥭
쥰
쥴
쥼
쥽
즁
즄
즇
즈
즉
즌
즐
즘
즙
즛
증
즠
즤
즥
즨
즹
지
직
진
짅
짆
짇
질
짊
짐
집
짓
짔
징
짖
짗
짘
짙
짚
짛
짜
짝
짞
짠
짢
짣
짤
짦
짧
짬
짭
짯
짰
짱
짲
짴
짵
짶
짷
째
짹
짼
쨀
쨈
쨉
쨋
쨌
쨍
쨐
쨔
쨕
쨘
쨜
쨥
쨩
쨬
쨰
쩃
쩄
쩅
쩌
쩍
쩐
쩔
쩖
쩜
쩝
쩟
쩡
쩧
쩨
쩰
쪄
쪈
쪌
쪕
쪗
쪘
쪙
쪜
쪼
쪽
쪾
쫀
쫃
쫄
쫌
쫍
쫏
쫑
쫒
쫓
쫗
쫘
쫙
쫜
쫠
쫩
쫭
쬐
쬔
쬘
쬠
쬬
쬭
쬰
쬽
쭁
쭈
쭉
쭊
쭌
쭐
쭘
쭙
쭝
쭤
쭵
쭸
쮀
쮜
쮝
쮸
쮹
쯈
쯉
쯍
쯔
쯕
쯘
쯜
쯤
쯥
쯧
쯩
쯰
찌
찍
찎
찐
찓
찔
찜
찝
찟
찡
찢
찤
찧
차
착
찬
찮
찯
찰
참
찹
찻
찼
창
찾
찿
챀
챂
챃
채
책
챈
챋
챌
챔
챕
챗
챘
챙
챠
챡
챤
챦
챨
챰
챱
챳
챴
챵
챸
처
척
천
첞
첟
철
첨
첩
첫
첬
청
첮
첳
체
첵
첸
첼
쳄
쳇
쳉
쳌
쳐
쳑
쳒
쳔
쳘
쳠
쳡
쳣
쳤
쳥
쳨
쳫
쳬
쳰
초
촉
촌
촏
촐
촘
촙
촛
총
촠
촤
촥
촨
촬
촴
촵
촹
최
쵝
쵸
쵹
춈
춉
춋
춌
춍
춐
추
축
춘
춚
출
춤
춥
춧
충
춪
춫
춬
춰
춴
췃
췄
췅
췌
췍
췐
췜
췟
췤
취
췩
췬
췸
췻
췽
츀
츄
츅
츈
츌
츔
츕
츙
츠
측
츤
츨
츰
츱
츳
층
츼
칀
칑
치
칙
친
칞
칟
칠
칡
침
칩
칫
칬
칭
칮
칰
카
칵
칸
칼
캄
캅
캇
캉
캌
캍
캎
캐
캑
캔
캘
캠
캡
캣
캤
캥
캨
캬
캭
캴
캿
컀
컁
컄
커
컥
컨
컫
컬
컴
컵
컷
컸
컹
컼
컽
컾
케
켁
켄
켈
켐
켑
켓
켔
켕
켘
켜
켝
켠
켤
켬
켭
켯
켰
켱
켴
켸
코
콕
콘
콜
콤
콥
콧
콩
콬
콰
콱
콴
콸
쾃
쾅
쾌
쾡
쾨
쾰
쿄
쿅
쿕
쿗
쿙
쿜
쿠
쿡
쿤
쿨
쿰
쿱
쿳
쿵
쿸
쿼
퀀
퀄
퀏
퀘
퀭
퀴
퀵
퀸
퀼
큅
큇
큉
큐
큔
큘
큠
큡
큥
큨
큩
크
큭
큰
클
큼
큽
큿
킁
킄
킅
킈
킝
키
킥
킨
킬
킴
킵
킷
킹
킼
킿
타
탁
탂
탄
탆
탇
탈
탉
탐
탑
탓
탔
탕
탖
탘
탙
탛
태
택
탠
탣
탤
탬
탭
탯
탰
탱
탴
탸
탹
턍
터
턱
턴
털
텀
텁
텃
텄
텅
텆
텈
테
텍
텐
텓
텔
템
텝
텟
텡
텤
텨
텻
텼
텽
톄
톈
토
톡
톤
톧
톨
톰
톱
톳
통
톸
톺
톼
퇄
퇘
퇴
퇵
퇼
툇
툐
툥
투
툭
툰
툴
툼
툽
퉁
퉄
퉈
퉜
퉤
퉷
튀
튄
튈
튐
튕
튜
튠
튤
튬
튭
튱
트
특
튼
튽
튿
틀
틈
틉
틋
틍
틐
틑
틔
틧
티
틱
틴
틷
틸
팀
팁
팃
팅
팈
파
팍
팎
판
팓
팔
팜
팝
팟
팠
팡
팢
팤
팥
팦
팧
패
팩
팬
팯
팰
팸
팹
팻
팼
팽
퍀
퍄
퍅
퍈
퍙
퍼
퍽
펀
펄
펌
펍
펏
펐
펑
펔
페
펙
펜
펠
펨
펩
펫
펭
펰
펴
편
펼
폄
폇
폈
평
폐
폔
포
폭
폰
폴
폼
폽
폿
퐁
퐄
퐈
퐉
퐝
푀
표
푠
푯
푱
푴
푸
푹
푼
풀
풂
품
풉
풋
풍
풓
풔
풰
풱
퓌
퓔
퓨
퓬
퓰
퓸
퓽
픂
프
픅
픈
플
픔
픕
픙
픜
픟
픠
피
픽
핀
핃
필
핌
핍
핏
핑
핔
핗
하
학
한
핝
핞
핟
할
핡
핢
핥
핧
함
합
핫
핬
항
핮
핰
핱
핳
해
핵
핶
핸
핻
핼
햄
햅
햇
했
행
햊
햌
햍
햎
햏
햐
햑
햔
햘
햝
햠
햣
햤
향
햨
햬
햿
헀
허
헉
헌
헏
헐
헑
헗
험
헙
헛
헝
헠
헡
헣
헤
헥
헨
헬
헴
헵
헷
헸
헹
헼
헿
혀
혁
현
혈
혐
협
혓
혔
형
혘
혜
호
혹
혼
혿
홀
홈
홉
홋
홍
홐
홑
홓
화
확
환
홛
활
홤
홥
홧
황
홬
홯
홰
홱
횃
회
획
횐
횔
횟
횡
횤
효
횬
횸
횻
횽
훃
후
훅
훈
훌
훑
훔
훕
훗
훙
훜
훟
훠
훤
훨
훵
훼
휀
휑
휘
휙
휜
휠
휨
휩
휫
휭
휴
휵
휸
휼
흄
흉
흌
흏
흐
흑
흔
흗
흘
흙
흠
흡
흣
흥
흨
흩
흫
희
흰
흴
흼
힁
힇
히
힉
힌
힐
힘
힙
힛
힜
힝
힞
힠
힢
힣
金
羅
樂
落
亂
蘭
冷
勞
盧
老
綠
論
樂
寧
率
復
不
沈
兩
梁
良
量
女
旅
年
聯
蓮
連
令
瑩
靈
禮
遼
龍
劉
柳
流
六
陸
律
利
李
梨
理
離
林
臨
立
茶
宅
暴
︎
️
︠
︡
︿
﹏
！
＂
＃
％
＆
＇
（
）
＊
＋
，
－
．
０
１
２
：
＜
＝
＞
？
＼
＾
＿
｀
ｇ
ｍ
ｔ
ｗ
｜
～
｡
･
ｦ
ﾉ
ﾟ
￣
￼
𐌅
𐨛
𓂃
𓂭
𓂻
𖤐
𝒮
𝒶
𝒷
𝒾
𝓁
𝕊
𝘼
𝘽
𝘾
𝙃
𝙄
𝙅
𝙇
𝙈
𝙉
𝙊
𝙎
𝙖
𝙣
𝙤
🅲
🅷
🅸
🅼
🅽
🇦
🇧
🇰
🇲
🇷
🇸
🇺
🌀
🌈
🌊
🌙
🌚
🌝
🌞
🌟
🌱
🌶
🌷
🌸
🌹
🌺
🌻
🌼
🌿
🍀
🍂
🍃
🍆
🍇
🍊
🍎
🍏
🍑
🍒
🍓
🍔
🍕
🍗
🍚
🍠
🍦
🍫
🍯
🍳
🍺
🍻
🎀
🎁
🎂
🎄
🎅
🎈
🎉
🎊
🎤
🎨
🎵
🎶
🏃
🏻
🏼
🏽
🏿
🐈
🐍
🐒
🐔
🐕
🐖
🐝
🐟
🐣
🐥
🐦
🐬
🐯
🐰
🐱
🐶
🐷
🐸
🐻
🐽
👀
👁
👇
👈
👉
👊
👋
👌
👍
👎
👏
👐
👤
👥
👦
👧
👨
👩
👶
👻
💃
💋
💌
💎
💏
💐
💓
💕
💖
💗
💘
💙
💚
💛
💜
💝
💞
💟
💡
💢
💤
💥
💦
💧
💨
💩
💪
💫
💯
💰
💸
📌
📍
📚
📝
📢
📣
🔊
🔥
🔪
🔫
🕺
🖐
🖕
🖤
🗣
😀
😁
😂
😃
😄
😅
😆
😇
😈
😉
😊
😋
😌
😍
😎
😏
😐
😑
😒
😓
😔
😕
😖
😗
😘
😙
😚
😛
😜
😝
😞
😟
😠
😡
😢
😣
😤
😥
😦
😧
😨
😩
😪
😫
😬
😭
😮
😯
😰
😱
😲
😳
😴
😵
😶
😷
😹
😻
😽
😿
🙀
🙁
🙂
🙃
🙄
🙅
🙆
🙇
🙈
🙉
🙊
🙋
🙌
🙏
🚢
🚨
🚰
🛳
🤍
🤎
🤑
🤓
🤔
🤗
🤘
🤙
🤚
🤝
🤟
🤢
🤣
🤤
🤥
🤦
🤧
🤨
🤩
🤪
🤫
🤬
🤭
🤮
🤯
🤷
🤸
🥊
🥔
🥕
🥰
🥱
🥲
🥳
🥴
🥵
🥶
🥺
🦅
🦊
🦟
🦦
🦲
🧐
🧚
🧡
🧸
##착
##하
##ㄱ
##병
##통
##현
##진
##좀
##생
##증
##주
##선
##필
##승
##대
##구
##리
##2
##0
##칼
##로
##먹
##쳐
##놧
##어
##서
##ㆍ
##토
##론
##논
##술
##기
##반
##내
##신
##싸
##가
##지
##ㅎ
##터
##덕
##덜
##1
##5
##4
##만
##명
##싴
##ㅋ
##래
##스
##트
##롤
##점
##풀
##행
##인
##넷
##관
##사
##같
##이
##볼
##수
##잇
##면
##ㅇ
##건
##뭐
##잘
##했
##개
##떡
##봉
##정
##린
##상
##업
##시
##설
##문
##효
##씨
##T
##B
##C
##방
##송
##당
##ㅠ
##나
##도
##고
##싶
##다
##장
##풍
##습
##큰
##것
##비
##ㅜ
##전
##거
##언
##제
##되
##ㅛ
##녀
##오
##갯
##낰
##와
##갈
##있
##디
##긴
##버
##안
##국
##학
##금
##f
##8
##l
##a
##절
##척
##추
##양
##얘
##M
##J
##케
##팅
##보
##라
##광
##A
##등
##급
##퓨
##과
##계
##열
##야
##모
##히
##6
##쁘
##갔
##온
##후
##박
##립
##마
##니
##위
##조
##아
##닐
##껄
##칸
##자
##동
##차
##성
##종
##력
##잉
##크
##분
##표
##능
##르
##쪽
##락
##해
##봣
##는
##유
##군
##저
##게
##3
##v
##괜
##춘
##한
##데
##회
##프
##그
##램
##져
##봐
##알
##싼
##셕
##씀
##ㅅ
##묶
##음
##본
##부
##낭
##e
##p
##s
##h
##i
##n
##k
##y
##번
##즈
##준
##못
##영
##찮
##눼
##젴
##짜
##피
##곧
##키
##세
##요
##귀
##→
##럼
##뒤
##려
##7
##9
##근
##페
##역
##우
##체
##런
##치
##러
##u
##노
##공
##궁
##화
##베
##특
##형
##납
##품
##띠
##바
##앙
##원
##두
##를
##갱
##냄
##새
##흥
##여
##단
##협
##의
##교
##뺘
##잣
##밥
##너
##무
##멍
##뭉
##맛
##용
##쓸
##꺼
##겠
##산
##강
##남
##중
##벤
##뷰
##센
##할
##울
##난
##났
##블
##드
##X
##옹
##깐
##들
##쪄
##홉
##달
##네
##견
##켕
##운
##적
##뷔
##곤
##레
##독
##천
##닝
##말
##D
##재
##랰
##멀
##포
##밍
##돈
##림
##싿
##둥
##소
##땡
##까
##G
##껴
##써
##발
##획
##총
##빠
##믹
##삼
##법
##커
##때
##매
##더
##댐
##흑
##돼
##염
##망
##물
##억
##옴
##에
##큐
##티
##브
##켓
##복
##굴
##ㅓ
##q
##z
##r
##괴
##움
##짤
##왓
##출
##판
##규
##글
##쁜
##뽑
##앗
##던
##속
##돌
##료
##ㅡ
##슷
##듯
##왔
##섭
##챗
##챠
##책
##줄
##쭉
##몰
##캡
##펔
##객
##임
##갉
##픈
##껀
##따
##곰
##감
##d
##뛸
##챙
##겨
##E
##워
##간
##픽
##타
##각
##없
##애
##완
##윈
##짭
##♡
##함
##ㄲ
##쿼
##연
##맹
##메
##빈
##된
##힘
##넴
##투
##ㅏ
##민
##환
##받
##＋
##즁
##일
##릴
##붙
##넣
##ㅐ
##루
##험
##ㅑ
##미
##직
##걱
##월
##콘
##퍼
##벽
##줘
##실
##컵
##릉
##낱
##머
##엄
##청
##살
##른
##웃
##곀
##묭
##늦
##변
##경
##창
##잌
##탑
##긱
##년
##호
##색
##멘
##느
##낌
##파
##먼
##푸
##손
##질
##택
##떳
##ㅌ
##또
##층
##걸
##o
##m
##째
##ㅔ
##갖
##충
##든
##빵
##김
##턱
##휴
##캬
##집
##팔
##으
##약
##친
##L
##K
##b
##맞
##춰
##끈
##랭
##존
##쇼
##핑
##왕
##참
##육
##곸
##즘
##헐
##∼
##겡
##듣
##낀
##텐
##츠
##떠
##날
##떄
##잠
##엿
##탄
##접
##식
##측
##췄
##카
##잡
##얔
##범
##쓰
##왜
##똥
##태
##잦
##끝
##섯
##빚
##닉
##넹
##철
##븐
##눈
##올
##엠
##처
##례
##빔
##곳
##텔
##쉐
##뎃
##배
##밌
##초
##꼬
##🔥
##t
##렇
##편
##패
##댕
##떨
##엔
##냐
##얼
##권
##😥
##슴
##졌
##럽
##팸
##삿
##똑
##팩
##떤
##합
##졋
##욬
##평
##냥
##순
##입
##닌
##랬
##덩
##밖
##떻
##농
##길
##짝
##쥬
##탈
##펄
##칭
##O
##목
##줬
##ㅊ
##별
##테
##멜
##축
##향
##쩡
##랐
##벅
##탐
##넘
##룡
##띤
##웅
##찍
##웟
##㎡
##깜
##켄
##갓
##웹
##툰
##멋
##북
##작
##끼
##썽
##팀
##액
##솥
##링
##앖
##록
##균
##닮
##뱡
##클
##릭
##ｔ
##검
##찹
##률
##셨
##채
##널
##슬
##뜨
##킈
##션
##많
##닼
##암
##멉
##취
##람
##깃
##털
##죽
##셈
##랑
##찡
##ㅣ
##예
##냑
##햇
##됐
##댱
##낚
##담
##쌤
##름
##윤
##숙
##봄
##템
##딸
##란
##찬
##심
##왘
##빧
##렌
##Y
##R
##c
##킹
##뜬
##격
##윗
##석
##눠
##섬
##켰
##찢
##섹
##돨
##ㅆ
##팜
##ㄷ
##＝
##뭘
##죠
##탁
##량
##몀
##셜
##슐
##뼈
##↑
##걷
##튀
##럭
##갤
##벌
##놓
##탕
##확
##압
##핵
##썰
##뀌
##딱
##코
##첨
##벼
##결
##옌
##폰
##귄
##꾸
##쌩
##쿠
##ㄴ
##닭
##캐
##막
##껌
##땐
##잔
##빅
##낼
##꿈
##응
##쉬
##U
##융
##덤
##g
##w
##랫
##렸
##V
##둔
##슨
##쪼
##꿔
##누
##웠
##최
##괄
##십
##쟤
##솔
##빡
##침
##텍
##I
##첬
##었
##맙
##몇
##을
##뻑
##켜
##봤
##댘
##띰
##됨
##쮸
##높
##불
##팰
##좌
##맨
##빼
##롱
##류
##뜸
##딘
##흐
##♥
##땅
##끄
##뀐
##맂
##뎈
##튜
##븡
##띵
##앰
##웍
##㈜
##플
##족
##늘
##쫌
##ㄹ
##뭔
##읁
##곱
##x
##촌
##짘
##뿌
##햄
##줌
##혼
##딩
##랍
##엑
##윌
##낙
##ㅕ
##틀
##뒈
##킬
##엌
##둨
##핀
##찻
##컴
##렉
##찾
##ㅁ
##촨
##샹
##겤
##짆
##득
##홍
##놈
##렀
##첫
##맬
##밴
##쿵
##푼
##셔
##셀
##쌀
##됏
##뇌
##죄
##은
##밀
##ㅈ
##얄
##곶
##됫
##욕
##극
##골
##놨
##뻔
##맥
##엇
##뎅
##외
##좋
##렴
##멸
##쳤
##혜
##익
##읹
##곡
##뻐
##슉
##령
##꽃
##퇴
##둘
##셋
##섴
##쵸
##찰
##숭
##ㅍ
##값
##쟁
##옵
##룩
##흗
##H
##옜
##륵
##ㅒ
##겁
##톡
##빨
##렬
##얌
##율
##F
##헤
##뿅
##싯
##겟
##뮤
##컬
##징
##허
##뚕
##샀
##냠
##님
##깅
##슺
##맵
##돔
##뛰
##펀
##랜
##럴
##떼
##❤
##😭
##졸
##큼
##묜
##옥
##잨
##춥
##촬
##콩
##혐
##뽕
##앤
##희
##련
##옆
##딴
##찌
##앨
##샤
##쯔
##듀
##깔
##웤
##넬
##될
##항
##혀
##쿨
##ㅂ
##갑
##놐
##몬
##챔
##묵
##밤
##혁
##싄
##헀
##넌
##탛
##녜
##답
##폴
##댄
##짐
##렘
##️
##콜
##롬
##젠
##킨
##됴
##넝
##꾹
##멈
##샵
##켘
##념
##끌
##깨
##웋
##쳣
##뜰
##뮬
##숴
##돜
##⚡
##✋
##컷
##뿐
##Q
##활
##힌
##젱
##쨔
##엽
##됌
##톨
##훔
##뱃
##겻
##숑
##앸
##렙
##녁
##옸
##톤
##둬
##🙂
##헿
##짓
##썹
##😍
##붕
##줭
##뵛
##곽
##뀰
##쏘
##벙
##였
##쒀
##밸
##줰
##혈
##♀
##앞
##홀
##릇
##켯
##̆
##̈
##략
##뤼
##찝
##줔
##쨀
##▷
##됮
##Z
##팡
##릿
##랏
##맣
##닠
##녹
##았
##숱
##힞
##j
##햌
##삶
##틱
##㎜
##P
##쓴
##롭
##믿
##졍
##눌
##엉
##컨
##킥
##슥
##롣
##깻
##댜
##엘
##즙
##싫
##껍
##룹
##웨
##꽈
##헌
##닫
##흘
##며
##읽
##겅
##왤
##픟
##쑴
##찐
##댓
##킵
##깤
##촉
##뎔
##찜
##👍
##욱
##놀
##삐
##N
##끓
##백
##훈
##렛
##므
##옿
##께
##룽
##델
##잼
##뺀
##봅
##밐
##💗
##넼
##넥
##갠
##굿
##옼
##됩
##냉
##㎞
##먄
##힐
##냨
##홈
##꿧
##풔
##궈
##섶
##랔
##폼
##깊
##몸
##빳
##쉴
##쩐
##㎒
##녕
##앆
##빌
##닏
##탔
##봥
##쩜
##뉑
##킼
##앜
##헝
##☺
##긐
##푹
##쿄
##쿜
##꿀
##팁
##썸
##몽
##짱
##츙
##첵
##앚
##뚝
##빜
##땨
##홥
##겔
##S
##헷
##긍
##퀴
##쩍
##껏
##돞
##악
##썩
##걔
##갸
##²
##엥
##겼
##팠
##뤄
##뒀
##혓
##롴
##췌
##뉴
##닦
##턴
##옷
##닙
##㏊
##혹
##랄
##뀨
##핳
##냈
##걍
##횟
##볶
##뱅
##밬
##탸
##깉
##뺌
##퉁
##겸
##삭
##팟
##렷
##횡
##늠
##쌍
##탯
##롯
##홑
##귕
##덥
##벵
##얇
##닾
##짹
##헬
##멧
##쭘
##💕
##❣
##맑
##ᆢ
##×
##깟
##뤈
##😇
##콕
##꼇
##잖
##렵
##즌
##썬
##✨
##💪
##갗
##땽
##렼
##쭁
##뷱
##닥
##딧
##잏
##놔
##썼
##겄
##냘
##🥕
##츌
##딜
##씸
##줴
##쳥
##잊
##귝
##갬
##밭
##칠
##굼
##😆
##캠
##졈
##쿡
##냡
##뚜
##찔
##힝
##쑥
##な
##っ
##て
##く
##섞
##웡
##싣
##췃
##섵
##떵
##얀
##펜
##듬
##죱
##앟
##빙
##눔
##뽀
##땜
##쩔
##㉻
##뵈
##낸
##ㅗ
##묘
##칮
##깍
##왂
##돚
##랳
##렁
##둑
##윳
##냅
##읻
##챌
##헣
##궛
##셉
##뢰
##̑
##씌
##뺄
##밟
##쓔
##랙
##햐
##룸
##첩
##쌈
##썜
##굣
##늗
##엨
##④
##샷
##딥
##칙
##웈
##젼
##갰
##황
##뜩
##뭏
##폐
##쇄
##뗘
##늕
##맡
##휘
##★
##앵
##텅
##샥
##끔
##멷
##돋
##👊
##🏻
##랗
##ㅚ
##낔
##뺴
##흠
##닷
##짴
##텼
##렿
##쪙
##츤
##츈
##덴
##왁
##폭
##킴
##겈
##눙
##쑤
##읍
##꼴
##픔
##묯
##줚
##¸
##엎
##븉
##뚫
##밑
##팝
##앉
##낄
##틈
##셤
##숟
##툴
##쩌
##샌
##핫
##벗
##욜
##잤
##뺑
##잎
##긶
##읗
##벨
##슝
##쟝
##핰
##댴
##늬
##쟈
##싱
##숏
##쵝
##칩
##겹
##콤
##숨
##펌
##땀
##쌔
##쌰
##н
##а
##ч
##ь
##т
##е
##ᆞ
##쐈
##읶
##섷
##휩
##챈
##굔
##흔
##흰
##슌
##텀
##겜
##W
##엳
##🥰
##젖
##멕
##핸
##랩
##옄
##륜
##펏
##낮
##딤
##훤
##맘
##괘
##븜
##팬
##솨
##촤
##퀏
##뎌
##씩
##쁠
##팥
##쉽
##흉
##춍
##떰
##슈
##헨
##늑
##뤠
##긁
##낫
##숲
##｜
##△
##췬
##깆
##쥰
##쾌
##묻
##둠
##씹
##룰
##😓
##핟
##셰
##줫
##슙
##덬
##봨
##💖
##깬
##팢
##ට
##텁
##욘
##않
##꽉
##갚
##낳
##샘
##딬
##칫
##깝
##쥐
##잭
##ｇ
##젝
##🥲
##옇
##쌉
##펴
##틴
##걘
##샃
##넫
##욤
##😢
##꿋
##퓽
##♤
##뗭
##쉘
##쎀
##㎖
##앀
##텨
##앎
##뾰
##˘
##͈
##🧡
##팤
##춤
##흡
##얍
##냇
##얒
##귿
##믄
##갘
##륙
##ㅉ
##삘
##🥺
##됭
##떈
##닁
##튼
##겎
##욮
##늙
##끊
##캨
##뷴
##녑
##얻
##㎥
##쎈
##볃
##밋
##씻
##츄
##빛
##젇
##숩
##뜌
##떱
##쉰
##얗
##닺
##겪
##깁
##훼
##듐
##녓
##퀄
##멤
##젤
##맀
##듈
##틍
##샛
##넨
##깡
##똔
##숫
##～
##썻
##엡
##쭈
##꾼
##켈
##톱
##샅
##탱
##붘
##릎
##💛
##💚
##🤤
##짠
##잫
##뿔
##쫓
##콧
##💜
##삽
##븁
##댁
##젓
##퀘
##껑
##쯤
##줗
##릐
##뇨
##몈
##짖
##엏
##럿
##👏
##뤡
##⁺
##🤸
##곹
##쐴
##㎢
##꿰
##꽁
##죴
##쫄
##랠
##랴
##뤀
##꼭
##욥
##녔
##밧
##ｍ
##밨
##맄
##즐
##텈
##ㅙ
##젘
##뵤
##ㄸ
##쪘
##샴
##잃
##밈
##틸
##탓
##뽄
##킷
##렝
##뮈
##멓
##툼
##💓
##랼
##쿤
##뎀
##짬
##굳
##혿
##왱
##딕
##왠
##줜
##젊
##쿰
##렐
##긋
##궂
##쭝
##얏
##좔
##쎄
##꼼
##귴
##싷
##😯
##엪
##▼
##쫀
##룐
##긔
##츼
##듕
##칰
##🙆
##♂
##묨
##댔
##🤭
##룬
##쯉
##̎
##̊
##̌
##̄
##̐
##㎚
##릠
##퍄
##뇽
##に
##◆
##🙃
##넙
##⫬
##펑
##↗
##왴
##넛
##씯
##😳
##햊
##넵
##쥼
##캌
##툇
##헙
##햏
##뺏
##꼰
##맷
##갇
##윅
##핱
##럄
##궐
##텝
##팼
##슘
##뜻
##펠
##돾
##핬
##뎆
##슼
##🌸
##튕
##빴
##숰
##ㄺ
##랲
##맠
##쭙
##넜
##셌
##샸
##퓸
##쳑
##с
##벚
##뚀
##꽄
##빆
##맴
##뱌
##끗
##늄
##쓱
##😘
##뱍
##옮
##😖
##겆
##뽖
##탆
##꼈
##뎄
##및
##뚱
##뚬
##씡
##궄
##됬
##젋
##늉
##겢
##é
##즄
##튭
##떙
##롷
##탠
##핏
##덮
##좆
##꼽
##깈
##쌋
##쁨
##셩
##쟠
##쟘
##ㅢ
##껔
##숀
##샄
##륨
##헉
##뷸
##뀸
##꺽
##녾
##햣
##녘
##㎍
##캔
##㎏
##🐽
##🤮
##🤢
##뒹
##틷
##솰
##믐
##ᅵ
##ᄌ
##ᅡ
##ᆨ
##ᄒ
##ᅢ
##ᄇ
##ᅩ
##훌
##륭
##＞
##ど
##こ
##え
##い
##る
##쨩
##홧
##😄
##먿
##꿨
##퍽
##놩
##닽
##쉑
##옛
##쟜
##쏠
##놏
##꽤
##🚰
##뎡
##꿐
##뇹
##쾅
##뜯
##땁
##짇
##싹
##꽂
##뭄
##큘
##훟
##훅
##럇
##쳨
##돕
##빗
##😡
##쌐
##읋
##탭
##⃫
##겧
##훙
##맇
##쉼
##˝
##쳌
##뻣
##듄
##¯
##띄
##땈
##㎎
##겐
##뺐
##숌
##혔
##ㅘ
##닞
##쓐
##쐬
##샇
##캤
##쏴
##🥴
##😋
##셍
##앝
##🙏
##쑈
##깠
##햎
##🍒
##푀
##굽
##녈
##🌝
##봇
##넚
##の
##か
##も
##し
##ら
##ん
##몫
##윻
##텟
##쬐
##ℓ
##씬
##씁
##쨍
##텻
##훵
##벳
##껰
##짛
##옶
##쌓
##읈
##덟
##챴
##왈
##닿
##뭬
##핥
##뎋
##р
##о
##п
##л
##и
##뉸
##궆
##엫
##텤
##셬
##딪
##졔
##퀵
##궤
##둿
##싳
##▲
##쥥
##쟐
##뿡
##팍
##륑
##🙋
##곺
##딨
##う
##き
##뺨
##듓
##쀼
##렜
##얹
##퀸
##😉
##쉨
##젺
##퀼
##쯰
##웰
##힉
##쓕
##돛
##😊
##헥
##빤
##깽
##샐
##÷
##딛
##춴
##🎊
##꿘
##넉
##∙
##▶
##뻥
##굶
##😁
##넿
##돵
##곈
##룍
##싲
##릅
##캄
##볕
##녴
##귈
##횽
##읐
##흩
##뱝
##섣
##섀
##둗
##솤
##μ
##늖
##졀
##늌
##됑
##훗
##쿸
##뎉
##헛
##싀
##덱
##윙
##🐷
##땃
##💙
##읔
##숍
##멩
##㎾
##㎝
##칟
##곻
##쯧
##쭌
##👁
##댑
##눗
##츨
##팈
##챱
##뇸
##퐁
##즤
##땬
##°
##̥
##ω
##｀
##햤
##닻
##봬
##죻
##ਰ
##ਲ
##ੇ
##햬
##쫙
##붐
##좟
##뉨
##캣
##휙
##쌘
##봈
##쁀
##펨
##흣
##쥴
##젬
##펍
##됀
##죙
##탖
##랃
##뭣
##쟌
##젭
##깎
##쟀
##😜
##맺
##➡
##땟
##챵
##듷
##쏟
##밪
##륻
##뎠
##뭇
##웝
##륄
##뵬
##○
##뜀
##쏭
##닛
##윸
##쟄
##뒷
##듸
##℃
##첞
##돤
##럾
##꿍
##렄
##꺗
##웄
##얶
##꼐
##흙
##젛
##룜
##럌
##꺾
##🤣
##댈
##냌
##뿍
##ㅃ
##웢
##씽
##킁
##짯
##윜
##밯
##뿟
##쎘
##덯
##🙌
##🤔
##춧
##걀
##켁
##믕
##쭸
##긷
##낯
##뚠
##잿
##핮
##컸
##궜
##렏
##㎛
##잽
##뤵
##낵
##덨
##죸
##엣
##짧
##늨
##뗀
##엗
##빢
##□
##깢
##섳
##ー
##켑
##뽐
##턍
##겉
##앱
##푠
##뻠
##쩨
##렆
##굵
##놬
##솟
##ㄻ
##✈
##ㅞ
##듦
##핃
##읒
##췤
##롸
##줠
##윰
##봊
##텃
##퓰
##걌
##툐
##퇘
##왼
##웁
##빋
##봠
##헹
##샙
##밝
##뎁
##뱀
##떴
##핍
##뉰
##꺄
##す
##찯
##땤
##핻
##갷
##웸
##쇠
##멱
##핶
##쪗
##짚
##륽
##텡
##씈
##큨
##뉘
##뢌
##ﾟ
##츅
##쥔
##딫
##튬
##숔
##쉭
##믜
##ᅮ
##ᆫ
##벋
##ᅣ
##ᆼ
##ᄉ
##ᄋ
##뇬
##햅
##쪾
##셖
##홰
##욯
##🍀
##덧
##웜
##Ⅱ
##🐥
##닊
##첼
##늣
##홬
##폿
##눕
##텄
##츰
##떽
##뻡
##뉜
##쨋
##깰
##톧
##톈
##벆
##큔
##엩
##쬬
##럈
##𝙤
##😂
##㏈
##뽁
##둣
##뭥
##펙
##잍
##☆
##ㅤ
##짙
##룻
##ෆ
##훨
##ᅧ
##ᅯ
##ᅦ
##옦
##ᅥ
##ᆯ
##ᄀ
##ᆻ
##ᄃ
##굑
##땠
##넓
##빻
##뎊
##걑
##엤
##엊
##웧
##뎬
##컀
##☹
##퀭
##칑
##쨰
##휫
##봒
##읏
##돗
##볏
##븀
##챀
##↘
##🎶
##햠
##캉
##쮜
##윽
##퓌
##읎
##됔
##쿱
##뮥
##왛
##︎
##횤
##풱
##땸
##콰
##죵
##귤
##쭐
##겇
##핌
##찟
##찼
##쩝
##ᅳ
##🐯
##∇
##ㅝ
##뻬
##³
##쎅
##잰
##읊
##끜
##뗴
##섰
##왑
##🤬
##😔
##😌
##꼥
##갂
##👤
##👥
##띾
##뗐
##뢔
##돟
##끅
##껭
##ュ
##뽝
##젯
##읕
##튿
##캘
##꙼
##샠
##엾
##읆
##💥
##됗
##콥
##펫
##삥
##풋
##㏄
##걐
##얷
##긩
##싐
##휼
##싰
##뮌
##뜍
##밎
##핡
##눞
##얕
##😛
##츕
##🙈
##톼
##◯
##뻗
##❓
##빸
##뎤
##잗
##꽝
##켭
##뽜
##ヲ
##𐨛
##훠
##튐
##챡
##듴
##㎿
##컄
##틔
##뭨
##랸
##껩
##뻘
##겍
##갼
##낑
##㎉
##칀
##ㅀ
##얃
##깥
##😀
##👶
##릏
##ち
##と
##㎧
##댠
##꺘
##첸
##😏
##갛
##は
##솜
##눅
##횐
##즉
##ま
##⅓
##🎵
##②
##봏
##씾
##샂
##깼
##ᆸ
##ᄂ
##깋
##쇽
##㎸
##룟
##쳇
##𓂻
##𓂭
##톸
##듭
##냩
##췟
##쬘
##잴
##ᅭ
##쎔
##씃
##🖐
##랖
##짰
##렺
##탹
##앋
##숯
##´
##😚
##㎽
##딍
##삵
##썡
##붓
##☘
##🍃
##🎄
##🌱
##빽
##つ
##だ
##け
##🏿
##👌
##🏽
##젹
##읺
##ᄐ
##ᄅ
##슫
##휠
##얖
##먕
##쨜
##쨥
##멐
##풰
##쩅
##₩
##귐
##힛
##ㄶ
##뚤
##톰
##낡
##뫄
##롄
##첳
##꿎
##뎇
##웬
##랟
##첮
##좐
##룠
##좁
##❌
##™
##깧
##🤎
##🖤
##🤍
##💞
##💟
##💝
##💘
##뿨
##맏
##찓
##뜹
##쥄
##ᴗ
##≖
##몉
##쫏
##놋
##뉩
##쏵
##즛
##챕
##👀
##댇
##뭍
##졐
##퍙
##👋
##캅
##쩟
##🙇
##끙
##줏
##떔
##곁
##헠
##🙄
##칵
##앳
##폈
##헸
##떘
##닸
##봔
##뭠
##맍
##넠
##괌
##😶
##③
##뫼
##쌌
##맟
##텽
##뇠
##튄
##ㅖ
##튱
##닣
##±
##쒸
##팽
##딯
##ㄳ
##ㅟ
##쯍
##쯩
##씰
##흌
##👻
##튤
##냏
##쁭
##쑹
##땄
##짅
##껬
##😎
##❗
##돽
##걋
##🎉
##럳
##쉿
##픂
##삔
##짢
##틐
##겝
##귣
##옅
##옫
##둡
##˃
##̣
##⭐
##쩃
##🤯
##쭤
##앓
##췻
##돝
##👈
##킄
##랕
##🗣
##📣
##겣
##믈
##뻨
##Ⅲ
##씅
##뱄
##쳔
##🤦
##똬
##빱
##뮷
##챳
##솝
##묠
##홐
##쏙
##뉭
##굡
##쫑
##힙
##끠
##죤
##햔
##м
##к
##뱔
##＾
##컼
##녇
##펭
##곘
##깇
##뵙
##밷
##삮
##껜
##쯕
##🔫
##🐶
##툥
##횸
##젆
##셐
##봌
##븨
##퐈
##몆
##촘
##뙈
##럅
##팎
##훑
##엷
##챃
##뤗
##콬
##쉉
##꿑
##븅
##놉
##봫
##쉅
##쉣
##┃
##ö
##쏰
##£
##갞
##뼉
##쪜
##눨
##맼
##픙
##쉔
##괔
##낲
##핼
##샨
##뛴
##힠
##뽂
##픕
##쁍
##젔
##쉡
##켤
##힣
##괭
##곜
##껳
##ᄎ
##𝙣
##𝙖
##뎐
##닢
##퉤
##🍇
##븟
##슾
##랂
##먐
##뱈
##짔
##붑
##𐌅
##쨌
##넽
##샬
##맜
##켬
##컥
##벜
##Ⅰ
##렢
##냔
##밓
##챦
##흫
##뱉
##눜
##쟉
##쫒
##눀
##ᄆ
##냣
##씐
##멬
##귱
##😤
##⑥
##ι
##촐
##쯥
##졷
##숄
##졉
##핞
##Д
##А
##😰
##컹
##얽
##옐
##뉍
##펩
##큽
##욌
##썅
##깸
##빰
##얺
##죳
##몃
##딹
##볻
##😃
##셴
##옙
##삣
##슛
##굇
##뫃
##툭
##샜
##긑
##뎟
##줍
##좍
##쥭
##옻
##뮨
##볍
##뀬
##🐖
##틉
##팧
##죰
##떢
##얭
##겋
##눳
##큡
##똘
##🤩
##😅
##듳
##툽
##닪
##엍
##앛
##챤
##쫃
##닜
##쿙
##◇
##켐
##흏
##뿜
##댛
##껨
##팃
##벡
##🤗
##룝
##뛔
##😙
##곯
##벱
##쪌
##읰
##＜
##롹
##풉
##뻤
##ト
##ᅬ
##읂
##🇦
##😈
##혘
##퐄
##れ
##た
##캇
##𖤐
##で
##펼
##귯
##홓
##욪
##엮
##겥
##팯
##룔
##탬
##쎙
##곃
##봑
##몄
##쎵
##홤
##벎
##샏
##셸
##퉈
##뒁
##뒝
##녤
##렂
##꼳
##✌
##😬
##왚
##↓
##쏩
##в
##й
##я
##낟
##😴
##엋
##ေ
##ာ
##့
##်
##း
##쥨
##겓
##놕
##📢
##긓
##쳄
##🔪
##쳒
##촥
##멨
##뗫
##옽
##똨
##옂
##💨
##🏃
##핢
##뒙
##😻
##💫
##쑝
##쯈
##퇄
##わ
##잋
##켔
##핧
##폔
##좃
##웦
##홛
##쎠
##짞
##먀
##닯
##윕
##뙤
##끛
##잆
##휸
##뎨
##즠
##♬
##겯
##뀜
##렠
##ᅴ
##좡
##🐰
##꾜
##쑨
##쫘
##밉
##겦
##슁
##☀
##삻
##삑
##읾
##뽈
##쮀
##쉥
##⠀
##봘
##돠
##쟛
##셯
##톳
##껐
##큭
##킿
##쫩
##쑬
##늫
##긎
##똒
##꺵
##쩰
##쳉
##픜
##넏
##🎤
##봡
##굉
##춉
##◀
##렫
##뢋
##잧
##깄
##🌿
##🍂
##💐
##🌷
##🌹
##🌺
##🌼
##🌻
##닡
##꼉
##Ⅵ
##끕
##붜
##쒔
##🦅
##🕺
##췐
##볾
##탤
##뀽
##🎅
##앍
##샢
##よ
##ろ
##삳
##띡
##멎
##멂
##뗌
##폄
##쿗
##쫠
##쌕
##욷
##벧
##빝
##₃
##ü
##듁
##춋
##퀀
##Ⅳ
##꿉
##퉄
##젷
##넺
##픠
##쥠
##뒉
##띁
##곷
##쳰
##뺭
##얜
##궇
##랱
##핝
##쨘
##∧
##릳
##🤓
##뀔
##짗
##훃
##캎
##굥
##욨
##씪
##め
##붛
##뢈
##놘
##뢀
##껠
##띨
##맸
##넄
##쐰
##읜
##쥡
##줙
##😞
##솬
##탘
##똭
##𝙈
##𝙄
##𝘾
##𝙃
##𝙉
##놯
##갹
##홯
##똫
##줅
##웩
##😫
##둉
##팻
##뺼
##렦
##뭌
##㎘
##캑
##훜
##쯘
##늩
##뉠
##챸
##뉵
##졓
##긬
##씼
##쬽
##뤃
##⇒
##댤
##˚
##촠
##곗
##옝
##뼛
##낞
##뫀
##폇
##왐
##옘
##갭
##⑦
##뭅
##😦
##🏼
##럐
##햍
##쏼
##앴
##ᆺ
##읅
##뚭
##슿
##㎓
##덷
##🍺
##🍻
##걈
##💦
##찎
##갴
##줕
##눤
##곴
##륀
##랚
##튠
##🤚
##댬
##꺠
##냤
##뗏
##쨉
##껫
##́
##д
##з
##펐
##햨
##꼌
##콴
##푯
##퓬
##볌
##왬
##が
##🍊
##늡
##떧
##칬
##☏
##눟
##켠
##😣
##븝
##뉼
##😨
##맆
##싈
##😒
##먗
##쯜
##😕
##😟
##굘
##럤
##뤘
##ロ
##■
##솓
##챨
##🥳
##굨
##🎂
##←
##횻
##릊
##빕
##쵹
##릌
##깦
##빘
##짼
##궅
##홋
##🌊
##궝
##떸
##먾
##➰
##쪕
##켴
##낍
##쏨
##①
##큉
##믽
##톄
##긏
##솩
##챋
##굄
##🍚
##🍑
##짶
##↔
##🤷
##🌈
##룤
##앧
##괸
##켱
##땋
##픅
##ル
##끽
##쟨
##갵
##웽
##댚
##춚
##슄
##Ⅶ
##흨
##늏
##⑤
##읭
##꺜
##콸
##썯
##✅
##💯
##붉
##😷
##숳
##윾
##ε
##왭
##촴
##윷
##►
##푴
##늪
##둰
##🐈
##싑
##쨈
##믖
##겊
##놰
##촛
##죔
##쫍
##➿
##렣
##イ
##쐇
##뿤
##ੱ
##ਸ
##큅
##😑
##욀
##붖
##쎜
##됄
##짲
##쪈
##큥
##큩
##옃
##퇼
##뵌
##쎂
##믓
##휜
##쏜
##빟
##쒜
##뇩
##꺅
##좈
##を
##쟙
##㎐
##솽
##볐
##탂
##샾
##똡
##릥
##쟼
##칞
##🐕
##💋
##헼
##횔
##긘
##ᆷ
##そ
##🐣
##탉
##볔
##컾
##삯
##붸
##솧
##먈
##븤
##😩
##숮
##г
##ࡇ
##뵹
##쥑
##닳
##욋
##먁
##옳
##옠
##₂
##컁
##잩
##쮹
##걵
##💤
##훕
##믁
##썀
##냊
##눵
##됰
##틋
##뿝
##쨬
##떫
##🍠
##읃
##꾀
##줃
##쌜
##☜
##몹
##㎃
##お
##😿
##싘
##핗
##옾
##쓤
##😱
##휀
##댂
##찤
##챰
##쎗
##윔
##쒹
##탴
##쇤
##즇
##붇
##낏
##묫
##믺
##🍏
##뭡
##쳫
##😲
##넢
##꽇
##츔
##땔
##댯
##륌
##🦲
##👎
##얾
##🙅
##늒
##탙
##룀
##퍈
##😝
##🤪
##믱
##꺌
##👇
##듑
##뢩
##헑
##α
##볓
##ิ
##쎌
##🔊
##✔
##폽
##뇰
##펰
##묀
##돴
##덛
##줨
##뚯
##뺸
##슽
##쁩
##쁌
##욧
##긌
##띈
##쫜
##튽
##̵
##˂
##탇
##콱
##튈
##넸
##셒
##앏
##꿩
##쩧
##🍓
##즹
##뢴
##ば
##🇲
##🇷
##🇸
##🇺
##🇧
##🇰
##틑
##웆
##깩
##뼘
##♭
##㎗
##힁
##⊙
##●
##⋅
##냫
##쾃
##섦
##솸
##냬
##│
##륩
##쑵
##❄
##캿
##읖
##㉪
##귬
##😹
##뗄
##쬭
##곂
##🤨
##☔
##뵐
##쎼
##땍
##덞
##ノ
##ス
##귘
##👨
##👩
##👧
##뷁
##⃣
##괼
##ヽ
##👉
##뱐
##롰
##꽹
##쒘
##🍎
##댸
##퐝
##큠
##죨
##딲
##뤌
##춌
##슭
##촏
##젲
##귓
##뾱
##쟎
##ㅄ
##댭
##💡
##◈
##괨
##걉
##톺
##✊
##찧
##샆
##😧
##뒨
##햘
##뇐
##섲
##♪
##🌶
##🌀
##쬔
##뜁
##뷘
##¹
##볽
##█
##╬
##😗
##🤟
##꼿
##싵
##햑
##꿇
##∀
##줓
##킅
##뚸
##쁑
##◟
##췍
##멶
##쒯
##뮐
##ｦ
##춈
##묾
##싪
##탰
##🐍
##짷
##셧
##쨐
##돳
##냪
##👦
##촹
##┊
##━
##볗
##뽱
##랒
##잒
##퐉
##눴
##⢀
##⣿
##쓩
##💃
##뵨
##좇
##읓
##됳
##즨
##햿
##뻇
##💩
##촵
##껒
##죡
##캭
##🙊
##곪
##샊
##덪
##쨕
##🚨
##쩖
##せ
##り
##갲
##켝
##쥽
##ᅪ
##꾿
##や
##쑉
##꺀
##▮
##듘
##꽌
##뵜
##뤱
##츀
##힜
##귾
##낢
##🐸
##☞
##𝕊
##뒄
##죌
##˙
##셥
##🐟
##뜽
##쬰
##솦
##엶
##좊
##듥
##붤
##💎
##띔
##♧
##끋
##됙
##쳬
##줳
##🦟
##у
##뙇
##🛳
##🚢
##⚓
##⛴
##ꉂ
##さ
##맗
##숸
##𝘼
##𝙇
##푱
##🌟
##캥
##넋
##켸
##깹
##뵘
##덖
##ы
##썪
##컫
##🧚
##꺙
##썌
##ⓐ
##팹
##헵
##쥣
##ン
##뢍
##퍀
##됍
##☃
##쀄
##롲
##앻
##횃
##돰
##잀
##녚
##딮
##텓
##ᄑ
##쟣
##뵀
##옭
##꾾
##뮹
##좨
##뱁
##¥
##뗑
##벛
##삡
##®
##벹
##🤝
##겾
##◡
##뼝
##≠
##쩄
##┓
##릔
##⅔
##짵
##̂
##̃
##̤
##̫
##̮
##🧸
##쾨
##벟
##̻
##춐
##뤽
##뺵
##뮴
##맻
##٩
##웎
##얬
##춬
##럣
##꿴
##💧
##굠
##🐻
##죈
##뜡
##믾
##̛
##🌙
##🍕
##뺙
##０
##퉜
##쫭
##왯
##갊
##멥
##쳡
##꾺
##맒
##롑
##칡
##휵
##옧
##욐
##あ
##낶
##녠
##뗬
##딋
##짣
##츱
##뫈
##🐔
##퇵
##윱
##㎠
##횬
##📚
##じ
##쭵
##❛
##춫
##띱
##쿕
##줒
##롼
##힢
##욭
##탣
##쓋
##핔
##쥘
##🐱
##췸
##덫
##똣
##늼
##쒕
##눚
##힇
##😠
##쾰
##β
##몯
##벘
##⑨
##볜
##슠
##🐬
##🅼
##🅸
##🅲
##🅷
##🅽
##み
##왖
##붗
##∥
##갣
##͙
##꺴
##뫠
##촙
##엧
##꽐
##녱
##헴
##ੁ
##ਨ
##ਕ
##쉈
##딷
##㏜
##⍤
##⃝
##옺
##🦊
##꺳
##웂
##◎
##멏
##팓
##뷜
##뜜
##둫
##๑
##☎
##🎁
##🦦
##ᄁ
##늰
##꽥
##쿅
##뭑
##킝
##⑪
##윀
##댙
##̀
##😮
##😵
##삠
##풓
##̯
##욛
##쎃
##욍
##👐
##💌
##흄
##롶
##ʕ
##̈́
##̾
##͂
##̍
##̓
##͗
##̓
##͋
##͛
##̅
##̀
##͌
##͊
##͠
##̕
##͒
##͆
##͘
##̿
##̏
##̇
##͐
##͑
##̚
##́
##͝
##̋
##̔
##͎
##̼
##̩
##̜
##̠
##̭
##̘
##̢
##̳
##̱
##͕
##̨
##̡
##̰
##̞
##̹
##͚
##̲
##̗
##͔
##ͅ
##̟
##̝
##͓
##̺
##̬
##͇
##̧
##̖
##̦
##̪
##͜
##̙
##͍
##͖
##͉
##̉
##̴
##̒
##̽
##◑
##줐
##͡
##췩
##꺆
##ਦ
##⌑
##걺
##낻
##╯
##췽
##좝
##묽
##⠄
##😐
##🍗
##ˀ
##ね
##휑
##쳘
##왝
##🥔
##🎈
##⬇
##첟
##꿱
##똠
##땝
##２
##˵
##ღ
##묹
##뵥
##🙁
##좠
##᷄
##⌓
##᷅
##🧐
##챘
##̷
##텆
##큿
##삉
##퉷
##🍆
##긿
##🥊
##됒
##Н
##앺
##됸
##𝙎
##𝘽
##쿳
##🍫
##뤙
##쮝
##솼
##🙉
##◞
##캴
##🤘
##끵
##웻
##🤧
##풂
##얎
##✧
##🎀
##￣
##뭊
##쇳
##헗
##줸
##찿
##◉
##ﾉ
##돡
##솎
##쐐
##뜷
##뀩
##─
##̶
##📌
##뚁
##꽅
##꼮
##☕
##뇻
##놑
##벰
##똗
##븍
##🍳
##🥱
##🥶
##🥵
##🤑
##🤫
##팦
##⚾
##☝
##캍
##헡
##뜝
##１
##흴
##춪
##￼
##🌚
##귗
##긂
##짊
##🌞
##궃
##큇
##뫙
##쥉
##얐
##တ
##π
##쾡
##🍔
##💏
##츳
##ユ
##💸
##⭕
##🎨
##⑧
##뤔
##⁼
##ᵒ
##쳠
##휨
##븥
##햝
##🐒
##📝
##녭
##쬠
##쭊
##ʰ
##ʸ
##▾
##◍
##😪
##㎦
##뀝
##흼
##∨
##껙
##퍅
##🙀
##띌
##씉
##눋
##휭
##╹
##⑫
##틧
##⑩
##괮
##꾱
##쫗
##㈔
##즥
##넒
##맫
##💢
##웉
##😽
##뀼
##็
##뺍
##🤙
##้
##⣀
##◠
##밞
##죗
##🍦
##ࠅ
##🖕
##⚠
##괞
##▽
##◐
##쟬
##녬
##퓔
##챂
##긇
##Δ
##뻈
##🐝
##Ⅴ
##뉌
##ヮ
##┈
##묏
##ᵕ
##ਾ
##🤥
##짦
##͟
##̸
##㉡
##💰
##ⓒ
##🐦
##ੋ
##췅
##걜
##뭦
##ᗜ
##ᵔ
##▣
##늅
##쓍
##ƪ
##욺
##🍯
##𝙊
##©
##깪
##쏀
##ഃ
##뭫
##컽
##ʔ
##㉯
##잚
##홱
##헏
##뜐
##▪
##◔
##ຶ
##뽷
##͞
##ⓝ
##솅
##♣
##و
##놂
##얆
##ʖ
##췜
##끆
##√
##ਯ
##½
##ｗ
##ᕙ
##ਿ
##⬜
##ⓑ
##◦
##ง
##𝒾
##𝒷
##𝒶
##𝓁
##ᩚ
##゜
##▒
##𓂃
##📍
##ʚ
##얠
##◾
##┌
##ᕕ
##웓
##☑
##샒
##왒
##❁
##⌔
##⊼
##𝙅
##ᐛ
##𝒮
##︡
##︠
##═
##ㅋㅋ
##ㅋㅋㅋㅋ
으로
에서
##ㅋㅋㅋㅋㅋㅋㅋㅋ
는데
##00
한다
아니
ㅋㅋㅋ
까지
ㅋㅋㅋㅋㅋ
##ㅠㅠ
지만
라고
면서
사람
20
ㅋㅋㅋㅋㅋㅋㅋㅋㅋ
##니다
우리
그래
다고
지난
다는
근데
생각
ㅋㅋ
부터
진짜
에게
##ㅋㅋㅋ
사진
한국
지금
해야
라는
대한
너무
10
보다
으면
된다
오늘
그런
그러
위해
ㅋㅋㅋㅋ
ㅎㅎ
해서
어서
ㅠㅠ
때문
그냥
201
이번
니까
많이
문제
그렇
서울
지역
아이
이제
통해
200
이나
이상
다른
대해
더라
인데
이런
다가
하나
들어
대표
가능
그럼
함께
19
시간
정부
만들
##만원
##ㅎㅎ
경우
경기
##시간
습니다
그리
시작
한테
##통령
그래서
12
사업
대통령
##니까
다시
어요
필요
밝혔
정도
미국
아서
교육
아직
11
따라
처럼
자기
지원
도록
은데
ㅋㅋㅋㅋㅋㅋ
위한
30
##위원
가장
는다
후보
관계
모르
중국
사실
ㅇㅇ
##지만
의원
관련
이랑
그거
학생
프로
##000
세계
대구
같이
지난해
자신
사회
어야
학교
ㅜㅜ
올해
하지만
엄마
이후
일본
친구
이어
최근
그리고
어디
기업
15
특히
이름
진행
국민
상황
모두
경제
ㅠㅠㅠ
아닌
현재
교수
여기
는지
##학교
##억원
계속
이거
거나
국내
라며
어떻
##렇게
이날
남자
마음
시장
##대로
ㅋㅋㅋㅋㅋㅋㅋ
인가
##기업
영화
나오
여자
##ㅋㅋㅋㅋㅋ
##라고
대학
계획
내일
바로
민주
다양
##스트
괜찮
만나
을까
이미
결과
##시장
##ㅜㅜ
사용
처음
운영
언니
못하
알려
사랑
##ㅋㅋㅋㅋㅋㅋㅋㅋㅋㅋㅋㅋㅋㅋㅋㅋ
얼마
이유
정치
해주
##거같
관계자
얘기
아무
예정
전문
사이
어떤
최고
이야
선수
##사업
공부
일단
국가
다음
문화
준비
언제
새로
##다고
##나라
어떻게
중요
##운데
가지
거기
이용
자리
추진
설명
해도
참여
이렇게
보이
##0년
100
감독
엄청
삼성
18
회사
##어나
ㅋㅋㅋㅋㅋㅋㅋㅋ
보여
대상
힘들
한번
시민
그래도
운동
##교육
어려
모습
##가지
기대
합니다
##요일
투자
16
보내
려고
국회
그러나
관심
그렇게
##정도
평가
어제
##레이
하루
개발
13
내용
##그램
25
기록
##비스
요즘
연구
여성
전화
조금
전국
이라고
만큼
이야기
##지역
##센터
잖아
맛있
##시아
##ㅋㅋㅋㅋㅋㅋ
확인
한다는
해보
오빠
주장
북한
결정
역시
활동
모든
나가
##인다
무슨
거든
라도
주민
감사
웅웅
물론
직접
당시
발표
50
지방
으며
정말
돌아
##랜드
인터
14
##동안
오후
##위원회
##ㄱㅋ
가운데
조사
따르
마련
현대
시키
17
고민
##소리
라면
다면
저녁
마다
떨어
한데
수업
최대
국제
지적
동안
과정
인지
##이트
가족
가격
선거
그게
정책
나타
경찰
##ㅠㅠㅠㅠ
입니다
##스타
##자기
##다는
나요
상대
응응
한거
회장
일부
##위기
구나
이해
아야
##아니
인천
스타
머리
올라
행사
방송
일반
금융
기준
##머니
없이
##문화
노력
새로운
안되
수준
개인
빨리
던데
프로그램
경쟁
거의
관리
여러
발생
느낌
원래
전체
피해
입장
##마트
연락
요구
제품
##자리
환경
포함
다니
성공
건강
40
또한
한편
도시
강조
완전
##부터
드라
기술
부산
안전
이러
인사
밖에
##해서
먼저
찾아
내년
##거리
들어가
세요
##부분
24
##사람
아침
제공
##개월
누구
ㅋㅋㅋㅋㅋㅋㅋㅋㅋㅋ
##이스
나온
##산업
의미
생활
##은행
배우
광주
기억
한다고
혼자
구성
어느
어도
아요
21
정보
열린
효과
그건
##ㅋㅋㅋㅋㅋㅋㅋ
예상
그때
아파
외국
민주당
성장
해외
얼굴
전망
##없이
중심
병원
22
부분
결국
시험
판매
선택
분석
거같
혹시
공개
기자
기다
피부
##단체
실제
추가
역사
ㅋㅋㅋㅋㅋㅋㅋㅋㅋㅋㅋㅋㅋㅋㅋㅋㅋ
확대
인정
사건
##지막
상태
활용
공동
산업
##심히
시켜
규모
##연구
예산
내려
걱정
갑자기
해결
시즌
자연
##기관
지나
증가
더니
자유
##사회
나왔
신청
현장
더욱
##의원
결혼
##진다
마지막
행복
작품
서비스
그것
보인다
##8년
못했
아빠
23
강화
특별
검찰
집중
고마
뭔가
주변
으니까
어린
##스템
방법
책임
비롯
##지원
자체
오전
방문
##관리
생산
부담
아님
그럴
미래
##조사
조성
오래
##와서
노래
ㅋㅋㅋㅋㅋㅋㅋㅋㅋㅋㅋ
역할
##학년
제대로
##한다
대부분
##주의
여행
##시설
공연
네요
대로
소리
몰라
사장
설치
##업체
정상
잘못
1년
사고
추천
발전
어렵
다행
직원
##2년
적극
##대표
##도시
소비
별로
노동
##스크
대전
##라인
관광
반대
나이
위원
##리아
세상
##동차
언론
선정
얼마나
도착
기존
분야
대회
26
분위기
평균
끝나
##그래
의견
영어
도움
정신
대해서
##정부
27
에선
##5년
경험
라서
현실
##경제
이게
기간
드러
##전자
저거
##공사
##7년
경영
기회
점심
변화
##경기
건설
##이크
인기
제주
경북
##대회
##으며
비슷
영향
##레스
유지
기본
28
개선
##운동
당연
검색
무엇
인터넷
이뤄
안하
그치
가져
기분
그니까
##야지
ㅎㅎㅎ
##4년
##아아
부모
목표
냐고
실시
주요
##너지
궁금
서로
##BS
수사
음식
나라
화장
고객
지속
바람
부족
우선
중앙
우리나라
성적
지지
그만
비판
롯데
청소
##환경
그랬
##무원
##9년
##디어
아파트
그런데
우려
##6년
아주
##개발
ㅋㅋㅋㅋㅋㅋㅋㅋㅋㅋㅋㅋ
차이
##하나
방식
##리그
위해서
스러
이전
으니
음악
대신
해당
다르
누가
참석
해요
열심히
연기
나중
고려
##린다
##1년
버스
스트
##활동
##3년
약간
아냐
그동안
스럽
보도
전문가
##라이
일찍
거리
제일
업체
6월
선물
지하
미안
사무
가까
표현
행정
치료
3월
업무
개최
만든
제작
##수있
출신
소개
##회의
##학기
대비
카페
주말
확보
29
대박
판단
적용
##누리
##진짜
려는
지난달
##생활
졸업
60
방안
재밌
##의회
이사
##버지
각각
5월
취업
199
##인트
##그룹
2년
드라마
상품
##친구
4월
##학생
질문
우승
스마트
##워서
중소
##가능
##병원
상승
조선
차지
가치
##와대
통합
##등학교
논란
게임
그런거
청와대
##어난
시행
기타
의사
계약
전시
아마
커피
지도
브랜드
달리
시대
느냐
고마워
참가
##리스
9월
충분
##스로
아까
선보
구조
인간
경기도
##이지
울산
앞서
##히려
여름
유럽
선생
전했
공격
오히려
##로벌
더라고
못한
ㄹㅇ
희망
출발
ㅎㅎㅎㅎ
제기
목소리
안나
각종
으려
##자인
려면
수출
로서
##어지
7월
##림픽
SK
할까
유명
시스템
한나라
LG
비교
도입
보고
새누리
1위
3년
반면
약속
위험
영상
무대
일정
기능
12월
선발
신경
더라도
##는데
공간
자주
10월
작가
퇴근
##세대
ㅋㅋㅋㅋㅋㅋㅋㅋㅋㅋㅋㅋㅋㅋㅋㅋㅋㅋㅋㅋㅋㅋㅋㅋㅋ
보통
글로벌
##회사
체험
맨날
대화
스스로
그런가
8월
##이어
##선거
##프로
달라
한나라당
작년
똑같
##달러
올리
논의
따른
비해
벌써
##근혜
전략
겨울
장관
어린이
##서관
대선
교통
다녀
대형
유치
아프
##포츠
##er
핵심
과거
등록
인생
그대로
환자
회의
1월
공공
조직
##려서
나와
##기간
작업
안정
제시
주목
재미
의료
카드
##ㄱㅋㄱㅋ
자동차
출근
본인
미친
높이
건가
##위원장
로부터
이동
ㅋㅋㅋㅋㅋㅋㅋㅋㅋㅋㅋㅋㅋ
정리
박근혜
위치
##단지
이하
이건
경남
스타일
70
공급
이것
으면서
할때
해봐
상당
##스터
##정책
##ㄱㄱ
해줘
##카드
절대
일어나
##BC
처리
외국인
에요
검사
도전
단체
##동산
은행
홍보
##20
인상
전통
매출
2월
밥먹
가입
넘어
공사
위기
여명
제도
마을
고생
승리
소속
일자리
와서
협력
##관계
위원장
반영
##조건
공무원
어려운
##기술
안돼
사례
헤헤
##정보
##이터
##반기
그걸
주인
11월
움직
ㅡㅡ
보였
안보
수도
31
합의
나타났
자료
1만
과제
중간
청년
동시
교사
##본부
보험
##민국
수원
할인
소비자
##운드
솔직
불편
혐의
진출
만드
최종
카톡
항상
보여주
본격
시설
능력
주택
##공원
##대학
해야지
공식
국정
봐야
전남
수익
##생각
최소
확실
해지
성과
투표
매우
##무리
전기
아시아
주제
전혀
디자인
주문
대한민국
##과정
오른
구축
##계획
출연
최초
##000원
아하
복지
여부
맞춰
예전
불안
바라
##수록
잘하
귀여
강의
전달
이곳
매일
##발전
##준다
으러
정확
3일
기획
##ㅠㅠㅠ
불법
##in
알바
아예
대책
야지
##간다
축구
아들
건물
이명
개정
제출
##회장
알려졌
지켜
독일
모델
연대
##차피
대출
할거
활성
우수
시청
영업
장애
서울시
연결
미리
느끼
##on
의혹
저번
존재
이루
대응
부동산
기사
비싸
35
사라
2차
강남
ㅠㅠㅠㅠ
##연합
포기
열리
80
지정
##아가
종합
##ㅌㅌ
여전
##으나
동아
검토
영국
##으면
상관
방침
는가
##문제
반응
거래
제외
그림
따로
되게
세종
##평가
분양
수능
순간
알아
민간
차량
중소기업
##00원
아버지
길래
##로나
총리
주식
피곤
오랜
ㅋㅋㅋㅋㅋㅋㅋㅋㅋㅋㅋㅋㅋㅋ
또는
여론
##영상
가정
수술
어차피
##들어
##복지
##30
안해
##호사
내놓
이끌
자꾸
가진
포인트
대체
현지
예술
신고
2008년
할게
마무리
평소
비용
##마자
예약
학원
수학
확정
이따
오키
10년
고용
1일
##주일
##마을
아름
나서
는디
기관
신기
회원
어쩌
##고기
보수
2012년
시기
##보험
수상
시절
어케
건데
보호
##자체
자세
##주택
스트레스
##른다
마치
광고
##드컵
생기
덧붙
청소년
불과
연애
학부
등장
이르
기초
내부
프랑
이명박
##러스
남성
히히
구만
촬영
과학
분명
전공
기다리
##ㅇㅇ
사과
직장
오르
에너지
발견
어머니
도로
날씨
방향
ㅇㅋ
안좋
자고
바꾸
정권
요청
연속
이런거
진심
예비
재정
설립
장기
인해
심각
다만
물어
5년
인식
##난다
##아들
안먹
배고
감소
바이
공정
매력
원인
아도
30분
제안
아닐
성격
앞두
못해
의지
실제로
강원
프리
혁신
무서
아아
댓글
##지사
원장
취소
나온다
##규모
3개
2010년
토론
5일
상담
구매
대구시
아닌가
고양
##스코
기념
훈련
아래
근무
출시
마시
##다가
으로서
담당
안가
전자
##것같
지급
##일보
저런
스포츠
꾸준
##어들
통한
행동
인근
어때
솔직히
가슴
니깐
동생
##후보
발언
시도
##사고
나갈
##가구
당선
조치
소통
##건데
##10
##투자
프랑스
고자
무료
힘든
짜증
시켰
여전히
##00만
고기
창업
##우스
무조건
##때문
호텔
대기업
2009년
평화
수입
느껴
##페이지
대중
##어났
이미지
거쳐
단순
통화
감정
부정
회복
올랐
구체
덧붙였
##건설
노조
##선수
전환
통과
올려
간다
실패
할머니
KBS
10일
##50
##아지
##협회
면접
2011년
에어
온라인
규제
규정
소득
코스
공감
자마자
근로
##전거
##져서
정당
198
새벽
나올
다리
충남
바뀌
눈물
비율
##영화
재판
연출
자랑
빠르
짜리
남북
##이드
제한
TV
챙겨
자는
나머
인터뷰
대단
나섰
##노동
을지
10시
교과
소재
##나가
다며
##or
사전
15일
##페인
##버스
1차
##화점
차례
인거
치킨
세월
매년
##근데
불러
훨씬
축제
##이팅
만족
4대
2014년
인도
통일
학습
몇시
4일
스마트폰
##세계
부탁
갈등
MBC
잘했
귀찮
##en
중단
##해야
시킨
당장
##00만원
아닌데
전해
안된
20일
코로나
KT
수요
그룹
9시
조심
##이션
##다니
떨어지
6시
러시아
방금
외교
##an
해줄
##금융
##관광
겁나
향후
##천원
##젝트
떠나
나머지
4년
남친
스러운
계기
마스크
7시
인물
##이브
사태
안타
일까
조합
##나무
2일
출전
##거래
했었
저기
자격
##지구
따뜻
내리
ㅋㅋㅋㅋㅋㅋㅋㅋㅋㅋㅋㅋㅋㅋㅋ
마자
버리
더불
도와
펼쳐
36
한달
지하철
서울대
봉사
##드리
국회의원
2개
목적
공장
타이
기반
편의
2013년
노인
예방
나선
바꿔
2007년
패션
이래
ㄴㄴ
해볼
##공항
군대
출마
##시대
했으며
진정
##om
단계
이번주
7일
아름다
##피스
어여
운전
파악
진보
##토리
유통
오오
##그러
##연구원
투입
전쟁
제2
인수
강력
자녀
어야지
##같이
##예술
##거운
만약
##체육
보장
자전거
야당
완성
지키
##안전
45
##디오
한가
1000
귀엽
원내
여야
조차
야구
제발
##드시
8일
주도
##텐츠
##ㅅㅇ
말씀
인구
둘러
천안
마저
12일
사망
##부장
남편
학부모
##분기
생명
##텐데
한다면
공유
##벤트
조정
##통신
입주
바탕
##니스
수정
연습
일주일
조아
차원
문재
관한
경주
부르
느라
동영상
##이상
25일
으나
신뢰
충분히
삼성전자
애기
선배
##방송
자금
##단계
점수
9일
누나
16일
이쁘
가르
##재단
14일
##규직
11일
본다
범죄
연계
달성
어쩔
얼른
##리즈
골프
가을
주차
해야하
독립
올림픽
##민주
##시민
22일
바다
##성장
할지
1인
당연히
관객
주로
키우
6일
지자체
포항
몰랐
90
##대책
경쟁력
홈페이지
형태
편하
32
부상
##소득
##도로
보유
17일
받아들
불구
이어지
으로써
4개
##만명
걸로
하락
##서비스
매장
두개
으로부터
국토
어려움
건축
##려야
##at
23일
일상
19일
충격
굳이
24일
나눠
합격
소식
제1
생일
택시
18일
연장
반드시
##자치
11시
돌아가
무리
13일
프로젝트
##보이
변호사
2015년
33
헤어
실력
나무
조건
월드컵
21일
##자금
따라서
가끔
줄이
이벤트
장난
요리
확산
김정
브라
유일
해왔
##시즌
26일
##사진
동네
##등급
비중
인권
혜택
##산물
언급
잠깐
끼리
차별
27일
좋아
국방
##게임
전반
##ar
불리
##이익
8시
##조원
1천
##시지
개웃
##머리
##회견
속도
오바
여보
##0년대
##조정
단지
28일
마찬
##봐야
꾸준히
선언
외부
##정치
둘다
시각
ㅇㅅㅇ
전력
집가
육성
아쉬
모아
34
빠져
특정
걸리
공약
배경
공천
유리
##구나
거부
이달
협상
뉴스
부문
신규
미치
마찬가지
잘해
기부
대변
네이
제조
주인공
생겼
##직원
현상
##건가
##ㅋㅋㅋㅋㅋㅋㅋㅋㅋ
옛날
여수
##전문
문자
##리카
알리
##이너
만난
그려
협의
특성
총선
라니
밝혀
수비
가구
블랙
여유
창원
살아
500
##프트
결제
만날
기자회견
화장실
##제도
##구역
달러
##라리
새누리당
기여
국립
학점
금리
더라구
노동자
하이
들어오
장소
##행사
##경찰
##공단
안내
직업
나누
인증
알려주
실적
자원
지식
##지어
반발
대기
시킬
텐데
5개
피해자
##al
에이
장면
절차
케이
##반도
쪽지
보냈
절반
인재
난리
인한
##케팅
미술
사상
완벽
촉구
도서관
##레기
##과학
##사자
비상
##메달
그린
강한
초반
휴대
대표팀
3명
생긴
심사
##바일
가수
쇼핑
모집
상상
300
아무리
특징
##다른
최선
30일
2위
활약
##아냐
그러면
##버리
신촌
모양
동의
한화
입학
##시험
정해
##너무
잠시
신문
위반
당신
##제품
##자원
##지방
준다
창출
부지
배치
##프라
최대한
연예
##란다
금방
뭐하
승부
웃음
김치
행위
하늘
##조합
라구
##릭터
설계
##나오
요새
어울
변경
사무실
총장
휴가
해석
##메라
로운
오픈
38
최저
토요일
응원
늘어나
과목
##아파
##퓨터
5시
2명
신용
걸어
ㅋㅋㅋㅋㅋㅋㅋㅋㅋㅋㅋㅋㅋㅋㅋㅋ
##검사
채용
들여
점점
근거
체결
즐기
우리집
평생
인력
의무
노트
무시
예쁘
올렸
이모
해소
지사
근처
전용
##법원
수행
부럽
아쉽
구입
##아이
눈치
판결
향상
통신
##보내
##차례
고통
다이
베이
맥주
20대
수시
세종시
##연구소
소화
##번호
심지어
배달
모바일
세대
관광객
법원
지구
그녀
구속
그나
##청장
돌려
멤버
권력
##기준
려나
접근
다이어
연말
##서트
금액
잘생
캐릭터
##어진
보건
철저
##증권
시원
##처리
라이
장점
##여행
아내
##교통
29일
컬러
동물
일대
불가능
##주년
데뷔
실천
개혁
작성
한게
##신청
할수
미쳤
세금
벌이
##가족
관람
애플
임대
식당
살펴
하고
금지
비정
두산
펀드
친환경
일으
형성
202
원내대표
##리어
##세요
답변
필수
생태
항공
구미
원칙
개막
다운
##야하
##대상
긴장
그러니까
심리
##워크
##온다
오랜만
2만
##교육청
지요
진단
2시
나타나
##많이
37
세월호
##이이
아니면
문재인
덕분
모여
컴퓨터
##시스템
##통합
김영
빠른
의심
셔서
연간
해달
이틀
돼야
된다는
##라도
부부
##능력
올라가
##기구
빠지
우울
못할
오호
반복
다구
##TV
모임
두번
눈길
집행
업계
수강
교체
2006년
조언
후반
허용
누군
##터리
현금
대충
4대강
인스타
마니
흔들
메이
돼지
##축제
된다고
폐지
애초
만났
12시
계산
##연대
불가
##준비
##식품
강제
상처
긍정
1억
10분
담주
##st
한반도
##바로
개념
##파크
가득
의장
##가락
했으나
핸드
선진
##피언
##지컬
가까운
자산
맛잇
유튜
##천시
##ㅜㅜㅜㅜ
1시간
공모
역대
투수
ㅇㅈ
어깨
##상품
##협력
임금
계절
ㄷㄷ
이재
가방
냄새
##전화
맞춤
비싼
에타
나름
전부
당하
이른
##물관
점검
아름다운
전면
##노조
##신문
명예
콘텐츠
금요일
미디어
이기
조용
효율
허리
3시
##tt
그날
39
##회담
키로
적당
##ou
차라리
고교
자율
측면
실수
55
##호선
찾아보
##중앙
비행
봐도
라인
대학생
크리스
##올림픽
##다리
동기
고맙
##사랑
감동
그만큼
참고
거듭
##구조
조기
수영
접수
##라운드
부인
##겠다
대규모
##걸로
비난
아동
지방선거
자동
무섭
197
독서
##이사
##경영
대리
박사
4시
##주시
소설
감안
간단
무상
제주도
특수
전형
마케팅
시점
흑흑
예요
끝내
밝히
##ㅎㅎㅎㅎ
베트
##사이
체계
고등학교
표정
오케
##해지
차단
걸쳐
것같
저희
##게요
헌법
확실히
4명
극복
화려
이란
##금리
사실상
건립
센터
월급
##던데
노무
해놓
추억
시위
##어어
응답
의해
정의
##고사
한국인
##축구
경선
48
안양
플레이
리더
2016년
##국제
농업
카메라
KB
데이터
##저씨
전북
##마리
##오오
보단
보상
김씨
##바이
##지도
한명
웃기
벗어나
다하
집단
공항
정기
##어날
##가스
발굴
비밀
후원
##야구
배출
ㅠㅠㅠㅠㅠ
복귀
들어갔
##공간
##장애
축하
동아리
그나마
영양
흐름
##문학
거든요
메뉴
상위
가보
다소
보낸
연주
전년
논리
끝났
이탈
이익
재산
초기
출범
##행위
한지
##11
슈퍼
##려주
장학
##it
##계약
쓰레기
해라
가까이
자본
그정도
소송
추석
##교수
여서
갈까
기계
부장
계열
듯이
서민
ㅠㅠㅠㅠㅠㅠㅠ
영역
##년간
포장
라면서
ㅜㅜㅜ
##TA
진로
6개월
법률
우린
##치료
한계
할듯
국무
##안하
답답
단어
마감
베트남
뉴욕
와이
##스티
달려
42
전세
의도
해봤
던지
식사
자극
사이트
이사장
##ㅋㅋㅋㅋㅋㅋㅋㅋㅋㅋ
##국장
##ㅅㅋ
##지수
##자동차
##연금
##얘기
시선
제목
힘내
고급
어용
현대차
##럼프
1명
이뤄지
는다는
다섯
취지
과연
새롭
실험
생리
##담회
내세
##웨이
산책
##대학교
단일
안했
IT
지상
초등학교
전날
##바지
여친
취임
암튼
저렴
##ic
는다고
어떡
결승
물리
해온
일요일
치열
##학원
##라스
다이어트
아이폰
모자
지내
증상
곳곳
뿌리
군사
사퇴
##가격
괜히
대변인
려구
키워
##자료
고양이
해양
아웃
설정
이승
실현
##IA
별도
오리
수석
압박
그래야
커지
놀라
펼치
체육
과장
바르
누리
##따라
어이
##투표
신설
는구나
태도
혹은
냐는
밝힌
##le
##언니
공대
65
즐길
com
상관없
상징
완화
##사무
당초
종목
신발
대답
바닥
이내
150
경력
살짝
기울
대안
2000
웃겨
화제
대우
해졌
ㅇㅇㅇ
수용
물건
네이버
사항
외모
번호
##그런
유튜브
##40
맞추
구단
부여
##비용
##플레이
##가요
근육
##수업
주거
교회
##러운
위협
죽음
야권
남녀
바쁘
어려워
##천히
결론
공직
수치
##결과
##오늘
##리트
챔피언
입시
성남
한시간
노무현
열정
거짓
##만나
바란다
실질
아닐까
까진
구래
화이팅
이웃
존나
여당
아무것
법안
이성
미세
##디션
희생
##ing
이자
보고서
##실장
1시
심하
##으니
아르
##NS
굉장
담배
해준
구하
모으
사정
##협의회
상반기
재수
##훈련
예쁜
갖추
앨범
선호
요금
##걸리
양성
##그럼
처벌
적절
무기
##ttp
구간
을까요
건지
소중
##이크업
##수수
편의점
될까
통계
위주
채권
나쁜
갖춘
하반기
어른
##트워크
비대
##체험
임시
47
##주민
http
##카오
강원도
일제
떨어진
직후
올린
##ww
프리미
고속
##공업
2주
심심
##끝나
##볶이
오바마
강하
연예인
서류
추정
깨끗
43
성인
원전
완료
월요일
##보호
초대
사주
2005년
진입
살리
##re
트럼프
##항공
정원
폭력
팀장
데려
46
##시티
레이
##러워
아픈
고향
문학
이정
광역
##사일
44
체력
천천히
각자
콘서트
뭐먹
찾아가
체제
화장품
근로자
##법인
뮤지컬
##세기
공기
##000만원
75
내렸
저자
충전
끌어
한마
택배
6개
##모르
안들
소장
유도
움직임
##데이
5명
생겨
소유
정비
홈런
확장
스토리
고위
내내
크기
헬스
##줄게
종류
시청자
##he
주가
투자자
##올리
##개혁
던가
41
##아리
언어
증거
적응
초등
의식
초청
정규
노트북
##로그
수수
어우
불만
피자
메이크업
중도
자살
##학습
금메달
손해
##공장
52
##오르
##업계
보조
##람회
##리오
메시지
www
골라
어머
식품
역량
뛰어
49
A씨
든지
##종합
##세트
아이템
아우
알아보
폭발
##이래
ㅠㅜ
리그
##교사
##차이
백화점
##전략
고요
##철수
##의료
##쳐서
인하
중학교
끝난
진료
트위
지시
##폭력
검증
태양
교육감
싸우
호주
용인
##총장
늘리
##지금
거주
기다려
작용
당일
개성
1개
자라
##봉사
열린다
굉장히
나와서
##러리
송도
##000억원
아이디어
인듯
##학과
인제
##티브
여론조사
##대출
의문
활발
수많
##총리
##국가
어떠
완전히
##감독
상임
##감사
과외
줄어들
배려
녹색
##크림
3개월
아울
##조선
다음주
31일
##타임
페미
집안
유니
느낄
귀여워
대북
배고파
##전형
##친다
포스코
##❤️
3만
누워
진실
##작용
##12
강아지
##급식
연세대
한건
##마스
부진
며칠
##ㅏㅏ
나쁘
주관
애매
김성
구경
복합
이쁜
해본
구글
민주주의
비정규직
당국
옮겨
영남
티켓
2번
네여
법인
##래도
##우리
연봉
딱히
김태
인공
체크
ㄱㅊ
파업
저렇게
종교
흥미
196
당했
2시간
경고
##운영
신한
대사
다수
SNS
미니
##효과
kr
연극
인줄
후회
지분
디지
가리
바라보
##km
예측
떨어졌
예고
##모델
##엄마
SBS
의회
기소
창조
예비후보
돌리
찬성
동료
인정받
시내
동원
계란
권리
가로
단독
##국수
위안
움직이
득점
와우
인원
제3
##시안
신입
##아버지
##의식
시인
##상황
아저씨
탄생
심장
강사
해진
집회
취재
긴급
논문
됩니다
마이
주최
화면
소방
스페인
자치
메일
요소
도심
싸움
##연맹
중고
##가량
등록금
교류
만남
이때
선고
호소
##미술
3번
##먼지
거론
1조
##사건
##여자
명품
친박
개정안
후배
품질
일어났
돌파
##보고
KIA
##파이
##상태
재료
토지
브라질
돼서
59
머물
부자
1층
박정
늘어난
매각
으시
세우
아닝
바지
##봐서
가게
가졌
짜증나
향해
아녀
악화
##정신
주력
한대
독자
대만
최우
##순위
으려고
으신
##ㅎㅎㅎ
드리
축소
##프로그램
공원
한강
이젠
잘자
청구
3위
##아닌
사귀
범위
##아님
더라고요
안철수
감염
여러분
##ㅡㅡ
##도착
나갔
타격
##립니다
##느낌
원자
##ㅋㅋㅋㅋㅋㅋㅋㅋㅋㅋㅋ
내말
시급
##다면
건조
제거
맛나
##새끼
스피
대법원
매주
아니야
##봐도
##80
선보이
56
민원
페이스
충청
구분
부실
##15
##마시
30대
동일
세트
학과
진학
##려고
후기
못가
형식
요인
1회
400
첨단
호남
무려
##분야
이럴
동반
직전
개편
##란히
정하
방지
2017년
아무래도
해야할
재미있
개봉
트렌
##생명
진지
뭔지
승인
##000만
##그래도
보일
학기
##란드
##하우스
##드라
매달
누군가
##먼트
##공연
실내
깔끔
노출
이슈
호흡
대학원
방학
안산
트위터
편안
아기
##하하
핸드폰
배송
ㅅㅂ
들어간
수립
해야되
인가요
고등
2천
감성
교환
다음달
성분
부드
유엔
20분
##트리
감기
##안타
##억달러
##에에
##비아
정체
부대
표시
어찌
전주
이대
##까봐
시범
##et
복잡
챙기
##내기
생존
##백화점
투어
##개국
이중
전원
무릎
스크
##거지
안녕
##ion
CE
안될
기름
##여서
부회장
사법
##져야
선임
화학
자존
지배
53
클래
와인
##다보
임명
##레이드
##들어가
54
##대체
1번
vs
근본
광주시
순위
게다가
아나
군요
##권자
권한
##종일
##회관
시리즈
조례
##스쿨
흘러
선두
아항
균형
멀리
##기사
가요
고소
개설
##철도
##행정
므로
개방
비리
둘째
형사
##등록
##아내
문의
임원
큰일
##러지
현안
기에
회계
침대
우와
못먹
왼쪽
##놀이
##국민
촛불
국어
##해도
개별
질환
당한
교육청
캠프
장비
자식
##시다
증권
공주
해줬
비행기
##사장
##장고
갈게
제재
ㅋㅋㅋㅋㅋㅋㅋㅋㅋㅋㅋㅋㅋㅋㅋㅋㅋㅋ
농촌
사기
한국당
##방안
##이야
부품
소녀
2004년
##카페
전개
##어도
정치인
발휘
##줘야
카카오
51
##am
##기록
3차
달하
##헤헤
단속
해명
3대
##뉴스
##체계
홍콩
##ㅇㅋ
57
##부지
상장
들어갈
그쳤
생각나
뜨거운
할수있
##과목
대폭
##라면
99
##공부
##ㅜㅜㅜ
임기
##스토
문제점
추세
5분
부당
징계
경계
조절
수십
분리
우웅
##수사
삭제
##방식
2층
중구
공공기관
예능
가동
아라
##작업
나눔
인프라
설득
당부
##펀드
용산
풍부
사안
대결
편집
데리
이걸
본사
가져가
창의
넘어가
계좌
떡볶이
##하이
느낀
지휘
성향
인디
분노
##니아
디지털
합리
없애
##대사
교과서
안오
함께하
연구원
##패드
아이돌
과일
장학금
수고
이주
지나가
바보
20년
고령
노선
##조아
지방자치
우유
##장관
즐거
마리
##테크
10개
치즈
##해양
게시
##차나
유행
##임금
나아
부처
##이제
안맞
##줘서
가량
##힌다
해봐야
김종
이탈리아
##예산
조합원
##부르
충북
클럽
안동
편지
수리
당황
미만
2018년
10명
안된다
##문회
이렇
##지대
편성
##용차
전하
숙소
##니어
로봇
58
익숙
##의장
경향
어라
오지
까먹
1학년
천연
##호텔
드러났
사이즈
나옴
##마넌
타자
##플러스
우주
코트
세워
스케
교육부
어릴
FTA
##리스트
개입
##화학
구제
협약
법정
지점
통증
투명
##르신
##럭시
줄어
파트
##에너지
서구
##퍼스
화성
출산
파리
2학년
그저
뛰어난
85
가스
남겨
기아
저장
새정치
심의
정확히
화이트
##건축
뭔데
보완
스위
평일
66
무게
바른
살아가
들어왔
저게
커플
##기능
##기념
에어컨
##기획
##물질
아울러
##수없
##학점
취향
##만들
##퇴근
##쇼핑
퇴직
어어
께서
여의
오른쪽
안경
출석
종이
##ㄱㅋㅋ
민족
제정
##진흥
집계
저지
유기
남자친구
##분간
취약
재활
##사지
철도
##당국
스카
깜짝
떨어져
노사
##22
출입
조심히
통보
##30분
실무
갤럭시
##타운
##수잇
평범
건너
##버거
걸려
무한
인천시
물러
가볍
환율
반박
##CC
은퇴
##아프
철학
##일리
백신
이외
##다시
의대
티비
##면적
120
죄송
마라
고서
영입
##드려
국내외
휴식
살펴보
김재
참가자
지인
정성
철회
의한
대처
도내
파일
##자산
도와주
운행
잖아요
조명
나아가
##개선
현행
##소년
쉬운
스벅
##es
##수원
법무
은근
왤케
빠진
열렸
봐서
거짓말
감자
관측
부작용
내려가
마트
부채
세력
발사
##공동
만원
수분
기도
실업
재난
고르
만화
##워지
꺼내
단순히
헤어지
원하
에스
왜냐
##추진
##배우
설문
##⫬ㅋ
숫자
물량
동부
공포
##이름
한정
ㅈㄴ
개헌
##니깐
추구
안쓰
블루
비전
계열사
줘야
순수
##타민
어르신
##올라
이마트
##말로
출판
모았
주소
인연
버렸
칭찬
##19
선사
4차
발행
##기지
##어졌
알려진
이른바
초과
한미
당근
엉엉
무역
미세먼지
써야
주의
인턴
어울리
부끄
고정
##체제
##니터
결혼식
안팎
64
ㅋㅋㅋㅋㅋㅋㅋㅋㅋㅋㅋㅋㅋㅋㅋㅋㅋㅋㅋㅋㅋㅋㅋㅋㅋㅋㅋㅋㅋㅋㅋㅋㅋㅋㅋㅋㅋㅋㅋㅋㅋ
투쟁
##버렸
여자친구
이어졌
물가
전해졌
동구
https
재무
설마
PD
커뮤
가만
##오프
##부문
##경쟁
혼란
피하
상인
메이저
실망
농협
대가
##로드
주위
이행
##정당
보낼
##00억원
인성
한두
가깝
유출
돌아오
구조조정
##필요
MB
기상
고구
국방부
볼까
토욜
에겐
유권자
무서워
왜이
급증
마주
된거
##한거
된다면
##나다
신인
##사항
갈수록
좋아하
일방
가시
넘치
##아웃
풍경
들어서
탈락
음료
##긴다
단위
신중
##스티벌
##심사
빠졌
##고속
CEO
지도부
협조
채널
상생
신체
##즈니스
##000명
맛집
김연
지진
ㅇㅇㅇㅇ
교장
2002년
신호
크림
뒤집
##25
멋있
이씨
지역사회
사업자
확률
수험
6명
복원
상호
색깔
신분
##메일
기차
##60
##동생
진다
확진
선출
##박물관
신나
사라지
##박스
다름
화재
자취
##모임
국정원
사드
서명
##수석
##건강
##그냥
성명
##중공업
##웨어
분명히
ㄱㄱ
3분
이정도
평택
캠페인
이수
##나이
##노총
배제
엄청난
##음악
드디어
배고프
살인
사먹
63
온다
몰려
블로그
신선
##클럽
##금액
모른다
##공개
##공학
여건
분류
불가피
적합
허가
8개
샤워
##볼게
역전
재능
상대방
실시간
바빠
드러나
시민단체
오해
스테
최악
##혁신
##나와
고발
글고
박지
##생산
직무
그르
합류
##이닝
양국
고고
겨우
탄핵
등산
##도서관
##볼까
할아버지
채택
동남
바쁜
##범죄
다른거
알려져
보관
한글
##운거
정작
10만원
##70
##엑스
코치
나설
간부
날짜
발라
안주
욕심
임신
##FC
##ㅋㅋㅋㅋㅋㅋㅋㅋㅋㅋㅋㅋ
##텔레
재단
답장
야간
도대체
##오키
안받
지도자
그분
객관
새해
주차장
여권
##전쟁
공통
김해
연령
고대
테마
개통
유학
##수준
누르
2018
프리미엄
평창
불과하
소프트
##과제
그랫
내린
자면
외환
수수료
순천
미사일
어떨
##본다
##여야
명절
슬프
##현장
문화재
걸린
레드
당당
진상
억울
독특
두려
시사
##참여
담긴
부과
앞둔
할거같
네트워크
##오빠
가계
##혁명
용역
##아아아아
농가
##자유
재개
##들이
선보였
2010
##이블
추모
케이크
남기
내꺼
분당
신세계
노후
##기자
는데요
5만
##안보
어느정도
따지
명확
될지
워낙
02
통제
못한다
습관
결코
##수지
##수도
내신
변신
무소
목요일
상가
##인사
질병
이스
배터리
빨간
7개
냉장고
유형
##가루
손님
선진국
##이얌
몇개
한마디
크리스마스
연휴
유사
김현
통해서
똑같이
##ac
소문
증시
무너
막상
편리
드러내
김대
데이트
브리
마친
정착
해준다
이과
##신고
자격증
등급
수성
행보
##레인
##가치
선도
오피스
95
##1일
과자
오프
놀이
프린
##ㅠㅠㅠㅠㅠㅠㅠㅠ
보안
청약
폐기
공지
입지
고개
앞장
갈아
은지
##요금
전역
그러게
대거
거두
ㅇㅋㅇㅋ
도쿄
부서
걸까
파견
3학년
토대
##서울
이같
매입
여개
내말이
광장
대장
##아트
골목
간식
아이패드
2000년
적발
증명
지지율
심한
깊이
손실
##질환
##한번
용기
허허
구상
빌려
강연
CJ
느꼈
##난거
##아빠
##연히
195
잠실
언젠
3천
##기금
유력
감각
잠들
##텔레콤
84
비타민
##설팅
##덩이
보내주
모니터
시상
필기
아프리카
##무역
될듯
##el
이라
심판
다닐
너희
과도
무관
##미널
부천
올라오
종료
##안되
캐나다
어려울
##여성
바이오
이뻐
갈거
현역
2회
아진짜
##ST
##로스
어플
국가대표
가벼
수요일
최다
재판부
힘드
몇번
##관련
2003년
보증
꼼꼼
##상담
##마켓
동참
군인
새끼
맞아
##빨리
참사
수주
전교
메르
##우드
이종
든다
##순환
2배
거치
##ㄷㄷ
최소한
AI
치르
##걸이
다문화
수단
##러드
일부러
##ol
세탁
좀더
ㅋㅋㅋㅋㅋㅋㅋㅋㅋㅋㅋㅋㅋㅋㅋㅋㅋㅋㅋ
취득
적당히
느껴지
##르트
걸렸
단기
안심
##다녀
##선언
##13
유치원
62
맞이
토론회
시계
세여
상당히
해먹
##시청
취하
원정
##투어
4번
자신감
면은
김진
바꿀
석유
##극장
훼손
##인력
거대
##동강
##하우
인건
해야해
파이
붙이
받아들이
정규직
최고위원
확충
에다
재배
아시안
시정
고민중
미용
##의사
##조직
영업이익
##인드
안할
재밋
조작
클래식
1도
##스포츠
##과장
전투
융합
##ed
업종
벌어지
케이스
간담회
치과
기대감
##스타일
버려
##사무소
어딘
초점
테러
한참
옮기
##방법
안타까
조만
김동
##피아
ㅠㅠㅠㅠㅠㅠ
장르
##운전
연금
잠재
끊임
소수
하루종일
김상
기숙
4만
입법
즐겁
압도
결의
아야지
아카
##나갈
경상
충돌
들이
##특별
감시
##러진
72
##뜨리
김포
##만큼
소외
다를
지켜보
오잉
연수
박수
##은이
##is
##용품
허위
##바닥
그리스
사로
민주통합
절감
방어
고장
##중심
오홍
조만간
2016
대학교
넘기
국장
결합
신속
변수
2020년
모색
안됨
대목
목숨
##조치
채우
##영업
둘러싼
적어도
##아파트
휴대폰
ㅎㅎㅎㅎㅎ
67
##득점
10만
##스테
패배
##안해
마침
특유
속상
꿈꾸
높였
이어질
전시회
강릉
파티
더해
위로
##으로
지리
등등
바뀐
가려
와야
운용
판사
##상공
시골
정식
상무
한쪽
새내기
갖춰
기말
태풍
철거
보인
중동
전제
##보드
##포트
##변화
통상
붙여
에서부터
곧바로
##본부장
휴대전화
77
아끼
##우우
##복합
면세
준공
사로잡
벌였
앞세
쿠폰
68
힐링
진술
버티
##협약
금강
태국
프레
복수
불쌍
어두
전당
발목
##18
안대
만만
##조트
들으면
임직원
존중
폐쇄
적자
패스
자문
180
검정
##마이
40분
온도
고백
미군
뭐해
가사
이겨
야겠다
실장
어이없
여긴
즉각
원주
##구리
2억
거절
반성
건가요
40대
산하
재벌
동해
기후
아무런
커뮤니
##산시
##웃겨
입증
사유
개꿀
in
##한다고
##00명
수있
당분간
각오
반도
프로야구
는겨
논술
매매
수면
페이스북
손가락
중반
흐르
상당수
##구장
다짐
집권
연인
##⫬ㅋ⫬ㅋ
김밥
##드라마
의자
##경찰서
으론
데이
여의도
운명
특허
##바람
해군
고추
여섯
학생부
무소속
##버린
문화예술
해질
주목받
GS
음성
한잔
정시
탄력
무상급식
보급
장사
##캠프
69
안타깝
밴드
##잖아
야외
##로운
채워
컨디션
식물
응급
##GA
##시반
##마크
##포인트
주부
낙동강
공익
한창
맞서
야근
연평
해고
첫날
경비
예뻐
##세력
신경쓰
핑크
착용
을래
5만원
##14
지출
##24
농민
버스타
##그리
회식
어린이집
##에도
봉사활동
리얼
토익
옹옹
베스트
ㅜㅠ
침체
멋진
실행
미소
##그거
##전공
이용자
내주
심화
본선
접촉
타임
바람직
##책임
입원
원피스
담겨
면적
##실점
지명
시달
##걸음
상승세
세부
##한데
유산
##16
##사이트
##ED
##월드
스님
실정
소주
극단
런던
##비율
고수
몰아
예매
치매
봐야지
##동력
고시
##대문
으라
처분
오랫
##포럼
다루
일반인
조각
민감
##미나
최상
탈출
몰라서
글쓴
3시간
침해
##학기술
라디오
입맛
오케이
목사
이민
다음날
5천
일시
##장치
타이틀
방해
넥센
##줄알
10대
7명
일각
넷플
##워하
##작가
스킨
리더십
트렌드
들려
일일
취미
살려
##원장
마셔
물질
모은
완공
##연패
문과
알려지
가르치
농구
##줌마
떠오르
비즈니스
유발
##나왔
홍대
##낸다
방사
안사
74
오염
중대
공기업
모를
마쳤
상주
##TE
그간
일원
점차
##CD
##보여
##코리아
##유산
소감
##17
환영
테스트
##페라
터지
##맛있
급격
도망
명단
부위
파괴
정수
너무나
표준
##므로
숙박
##더라
교육과정
그중
##확인
적립
##내용
이불
측정
선박
입구
의존
저소득
북구
##담당
민심
한때
SK텔레콤
K리그
아픔
뚜렷
스티
파워
##처분
풀이
가난
조화
##ent
이영
유아
드러냈
차기
돌입
환경부
고구마
빨래
##as
##주인
동양
##직자
저축
향한
잘라
직장인
박스
피아
##환자
상영
쏟아
아쉬움
##다수
그쪽
네네
지연
##학년도
운전자
##자이너
##il
노하우
비하
시중
각국
베이징
##선물
자아
##부대
떠올
유해
##팀장
군수
##스키
금융위기
독도
존맛
거아니
3D
사업비
세일
밀려
##음식
교양
예민
다른데
월세
한방
##다음
CC
아오
아가
출장
슬슬
##독교
다행히
부활
##남자
##겹살
상업
입사
할래
##재정
레알
방치
지나치
이같이
73
생길
끝날
LG전자
춘천
##통화
##박람회
지역경제
저건
지역구
기숙사
##동물
##재판
100만
는다면
##계층
##사실
부각
반도체
##ㄱㅋㄱ
갈라
보여준
88
##어디
성형
황금
재학
##싸움
즐겨
##진영
언제나
해운
6년
합동
외면
김정은
의결
다해
몸매
##지법
보존
##온거
이른다
당사자
중점
##비싸
변하
##이거
마이크
한층
소름
교재
다먹
FA
산림
##리티
수백
마산
##의자
##경북
못생
통하
들어와
이론
잘못된
라는데
좌우
말투
할만
##전시
##정리
##세포
##실험
진화
착한
왠지
관람객
나간
클린
알려줘
스키
ㅁㅊ
징역
잇따라
딸기
소형
높여
국세
##예정
사회복지
그럼에도
안다
취급
판정
여사
##광장
##코스
세웠
안드
으라고
한국어
그래두
당내
상식
##모씨
노리
연합
왜냐면
단장
책상
비례
##더니
사무총장
신라
병행
대하
##cm
1등
벤처
태어나
##드립니다
##스크림
정서
그런건
그걸로
그사람
다는데
오랫동안
##수산
4위
##화문
대해선
귀여운
오옹
니당
환불
03
##찌개
##보건
호응
가만히
##갈비
3점
통장
##어져
필리
그곳
지닌
뷰티
##혼자
ㅋㅋㅋㅋㅋㅋㅋㅋㅋㅋㅋㅋㅋㅋㅋㅋㅋㅋㅋㅋ
반찬
도덕
##연승
훌륭
##신도시
바이러스
벌금
소년
계신
자제
추워
술먹
강행
도발
매번
똑똑
졸리
과감
250
성능
초코
50대
이뤄졌
미드
확신
##다는데
##oo
위원회
그니깐
대전시
고려대
친절
급식
케이블
배워
가해
변동
감상
창작
농산물
마르
비오
됐으며
##수술
##제한
##진보
섭취
발달
최적
##이자
##에스
안그래도
보육
양심
아메
패턴
스타일링
구도
우산
선보인다
##월드컵
LH
공략
보여줬
하천
NC
도시락
무난
비서
##시기
배당
이사회
강요
##랫폼
##렉스
##시절
##안나
파트너
로스쿨
심해
유동
실종
진영
76
모른
철저히
올바
저렇
주사
서초
앙앙
무산
특화
##결정
엔진
이혼
탄탄
어색
##협정
먼가
서해
지난주
도약
##겨서
##으으
정지
구현
##골프
이태
아깝
걸릴
다녔
가질
휴학
난다
78
제약
한것
대외
##소송
##ㅅㅋㅅㅋ
개빡
은가
합병
미칠
항목
국비
##ㅅㅎ
8명
##대전
기기
차관
소요
##유치
##벨트
경기장
##ㅋㅋㅋㅋㅋㅋㅋㅋㅋㅋㅋㅋㅋ
중국인
의뢰
진주
##케이션
멘토
30년
공동체
##몰라
줄여
그런지
ㅋㄱㅋㄱㅋ
품목
줄어든
흡수
항의
일어난
피아노
##시코
##동네
##근무
동계
##분양
육아
3회
매치
워크
##마니
일어
오가
이래서
2014
격차
주무
시술
위상
김민
##인권
##관위
하도
해설
로써
극대
##소비
오키오키
명문
으려나
최강
하구
현황
영향력
발급
##정상
선전
스펙
##산업단지
교통사고
재건축
착수
갔다
내정
7년
##인터
바꿨
잘되
##시리즈
고문
the
배운
##아녀
고도
전후
##IC
##키스
##90
괜차나
##드릴
마냥
거뒀
##학회
##범위
PC
저러
양산
구먼
##현진
살까
음주
일산
##업무
최신
졸려
화요일
펼쳤
연관
##피해
코리아
링크
2017
##ak
##때매
##린거
##단체장
결심
최순
유입
그랭
주체
61
계시
2015
##저기
서운
보여준다
##갈까
은디
김연아
##보장
인류
박물관
매니
애니
납품
물류
되돌
수집
형제
안전하
##판매
동성
밀어
강점
획득
IC
글쎄
당첨
입금
15분
마이너
에휴
##냄새
국무총리
아이디
소개팅
##티콘
##토론
골프장
조지
엑스
작전
선거구
광양
해상
##학자
##위치
도민
공인
##총회
로맨
손상
격려
어휴
종종
잘먹
복전
##협상
국토부
안나오
##사정
##무대
##재정부
나왓
몰래
연차
급하
##치기
생물
부적
학업
한개
##키지
##릭스
이랬
얼음
배정
창문
##불러
공산
즐거운
유족
재발
장치
시민사회
개그
구리
내꾸
##학번
승진
하하
전액
점유
아트
올릴
시켜먹
##합니다
##지션
##보증
이병
김경
##웃기
1분
먼지
##바다
기원
오우
##귀여
관점
ㅜㅜㅜㅜ
첫째
기독교
중순
한시
아줌마
민생
비록
##매매
EU
공화
설레
ㅁㅈ
막판
영광
샐러드
모이
사물
흔히
괴롭
총재
실화
##id
194
한겨
##보도
나선다
가공
장식
콜라
##zz
##로리
##스턴
뒤늦
등판
면역
##인원
금호
용돈
##ㅌㅌㅌㅌ
##갈때
디자이너
##런스
##정원
남부
붙잡
애정
사면
스터
##버려
교실
더블
##셉트
저녁먹
##FA
기운
기쁨
기획재정부
번역
왜곡
눌러
양상
염색
놓치
##못하
##단위
대다수
문장
삼겹살
1박
빨라
##kg
##디아
오일
##노래
입술
넘겨
##저히
대형마트
도지사
겨냥
컨설팅
##지검
600
인형
앞선
##차별
##저것
새우
아이스크림
족보
##연합회
는군
##셔츠
미루
향수
주전
광명
막내
##기기
현직
##테일
회담
가입자
##혀있
젊은이
이따가
안방
##주얼
##계열
필리핀
일으키
##홈런
일관
보험료
극장
##식당
자세히
김용
솔로
자칫
##1명
녹음
메모
##어울
충실
내수
흥행
##레일
친한
##고리
연상
##포르
지났
co
소음
##바이트
늘어났
##대비
2인
##언제
순서
전기차
메인
구해
월드
줄게
달한다
성실
전담
김광
지갑
박정희
매체
써서
##프리
3년간
간판
고인
대표이사
반전
한진
##데미
개웃기
고스
작곡
수록
어머님
주주
연고
끊임없이
시퍼
##어질
무슨일
##공무원
00
##운용
##야해
동북
건의
한일
달했
들리
##할거
자존심
사이버
맞대
구요
트리
매출액
당원
##그렇
노노
##만5
##풀이
정상회담
100만원
강동
유로
의상
체포
##지않
##ㅠㅠㅠㅠㅠ
IS
아베
##번에
한숨
구성원
사업장
남겼
##방학
##언론
흔적
##2명
##테리어
다녀오
계단
무사
##지원센터
총괄
ㅇㅎ
서울시장
단점
산다
##소재
급여
광화문
지수
봐요
##nd
연다
청주
자발
대상자
##3명
관절
최우수
##ve
민주노총
아닙
박지성
##영화제
##시작
때리
특이
여지
대법
군포
2학기
##ow
절실
스러워
조항
##갈게
가상
문구
함유
점포
자부
못받
사찰
편입
##♡♡
피로
지낸
장례
##케어
2001년
겁니다
박원
##스팅
이지
구냥
학술
화보
4강
강경
해오
##업자
2011
글쓴이
에게서
착공
야징
섹시
이적
섬유
될거
냉동
한양
습니까
스타트
##안가
근대
##히히
##6명
##미디어
##발표
##인구
안자
플랫폼
##28
에여
타율
3층
햄버거
소스
인문
중독
한듯
아니아니
예선
##센트
소환
우아
드림
출제
조리
로비
홀로
##까요
##ig
무선
봐주
세무
나눈
무용
이밖
주행
제작진
설비
혈액
그런게
##주자
유연
연설
낮추
##ec
유독
남양
##니당
모의
##가리
##장비
김기
폭행
이뤄진
이것저것
##평화
승점
스프
##텍스
갈래
오피스텔
무지
그럴수
무죄
##타자
멀티
24시간
구제역
면담
양식
농사
여자애
풀리
##ay
사내
모래
모름
##4명
##싱턴
돌아왔
입찰
중견
조선일보
코너
ㅋㅋㅋㅋㅋㅋㅋㅋㅋㅋㅋㅋㅋㅋㅋㅋㅋㅋㅋㅋㅋ
이슬
어지
한자
어떨까
##ㅋㅋㅋㅋㅋㅋㅋㅋㅋㅋㅋㅋㅋㅋ
패딩
해제
동화
신부
기아차
다큐
이라도
##ㅋㅋㅋㅋㅋㅋㅋㅋㅋㅋㅋㅋㅋㅋㅋㅋㅋㅋㅋㅋㅋㅋㅋㅋㅋㅋㅋㅋㅋㅋㅋㅋ
기조
실습
사립
제조업
이득
편한
시켜야
##5명
잘햇
단원
맞음
##대학원
할라
##교류
처방
누워있
김대중
위안부
대량
고쳐
꼽히
사연
##스트라
계정
넹넹
하얀
##잡이
본부장
##아시아
다같이
79
##아아아
가이드
##길래
납부
일종
##ㅎㅋ
파주
국산
##져있
버린
멕시코
치유
코스피
부딪
##혀서
캠핑
전통시장
언젠가
신임
해하
교정
대한항공
원자력
##교실
스페
누적
생생
충족
터키
페스티벌
한거같
조용히
든든
고전
숙제
종로
연구개발
##대박
##주행
달라지
미뤄
##역사
늘어날
의정부
##방향
조별
##차량
설거지
후속
오류
그만두
1호
서양
죽이
##ad
##간지
의왕
슬퍼
하나하나
들어온
의외
흰색
꼽힌다
##7명
05
최저임금
##힘들
차질
헷갈
빡세
삭감
최순실
영원
적정
소지
##이런
내놨
니께
쇼핑몰
스파
재개발
음식점
##ㄱㄱㄱㄱ
강좌
##행동
당선자
##ot
초등학생
##절차
불과했
귀국
태극
퇴사
해줘야
##터테
지방자치단체
마당
정답
##받침
##마토
필요없
9개
##하루
오를
털어
시나
강남구
권고
특검
##사업자
방통
억지
##베이
인테리어
시끄
위축
남구
이천
스위스
신흥
그런가봐
재생
16강
##밸리
원활
하트
이끄
접속
사우
외치
관찰
##재료
공고
나란히
져서
3만원
바꾼
발효
남아
팩트
##ㅠㅜ
한류
##스틱
깨달
##농구
슬로
파스타
##갈거
##르르
##라이트
수시로
어리
##무게
보건복지
화물
정면
다던데
한우
##장면
테이블
개웃겨
##통상
즐거움
괜춘
고딩
또다시
공방
양념
청문회
##23
즉시
##판사
청춘
전교조
널리
이룬
##정지
사라졌
##이다
##ver
브리핑
ㄱㅅ
##타점
거긴
마땅
##페이
##둥이
##외선
돼요
ㅎㅅㅎ
명분
건전
만두
예의
##공정
수렴
자매
콘셉트
으려면
세련
몰리
세운
5년간
겠다
설문조사
##영향
4천
만점
전파
어려웠
커뮤니티
케어
130
이어진
메르스
거실
배울
상관없이
멋지
몇몇
2012
타입
한도
때려
##디자인
공군
냐구
상금
83
크루
골드
못보
4분기
동작
##얼마
더하
##화장
로드
놀랐
미쳐
매운
경로
육군
내비
##분석
FI
##부담
아르바이트
에이스
예금
부사장
특혜
고유
두드
양보
2조
지표
도중
아마도
추락
늘려
박주
기재
##군수
##이용
자국
그전
올게
용도
처지
실태
진도
##농업
##❤️❤️
##발전소
##DP
착각
자리잡
본질
신용카드
잘생긴
##랑이
게이
##nt
동아일보
앞장서
넉넉
불렀
인거같
해수
패키지
명시
신종
전설
압력
##공헌
태양광
스탠
주자
이력
or
익명
##8명
예산안
G20
오마이
시상식
박씨
쿠팡
이번달
물어봐
차장
화합
##할듯
대법관
단축
##내리
맛없
월욜
##건지
##점수
감축
##처럼
안함
##가정
##기반
미팅
##m²
##볶음
3주
혁명
공수
그릇
사교육
신화
막대
##지주
책임지
감당
뇌물
우울증
지각
올바른
김수
##스플레이
봐봐
재원
##사리
저항
##가포르
국물
더워
##소연
1학기
을라
담당자
문경
##노동자
3억
##티나
9명
한해
##추천
떨어질
##덜란드
주방
채소
불교
셔츠
벤치
##2일
언능
맡기
##그래서
흔들리
강세
##근로
##코드
교원
해체
##29
2만원
무서운
KBO
전무
온갖
서브
어쨌
5번
바닷
오디
##여대
나을
그래요
해진다
서울중앙
조국
스웨
신축
매진
안성
소셜
반려
000
못해서
일듯
##의학
드릴
##고생
##모집
##금지
##저축
추적
네덜란드
지역민
경제학
어렸
##소개
연세
살아남
될거같
공짜
본회의
보조금
개장
##가운
방탄
울산시
오토
안해도
아시안게임
엉덩이
워싱턴
고스란히
고지
##영장
우즈
##네시아
빼앗
위탁
##아직
지우
쟁점
마사지
촉촉
##빠지
##허가
선착
유가
파란
갈때
##사태
스크린
다가오
표명
싱가포르
##이야기
##서구
소금
##부리
돌아다니
해줘서
건설사
승객
흘리
으셨
##45
트레이
보여줄
구멍
답했
##27
##회복
다채
국민연금
거친
##라엘
포토
##투수
학력
돌아온
명성
걸어가
내달
웹툰
다니까
이메일
가속
되찾
##이후
선거운동
붕괴
##균형
구석
98
you
감수
호감
##일리지
포르
포스트
기성
110
재수강
강정
입력
환상
명령
##스레
##ew
사진찍
라이브
비결
마인드
견제
자르
는대
인강
전지
고치
탈북
그지
아이스
김장
##약품
강도
날아
싱글
##브랜드
##리포
##꺼같
페이
2009
1대
##저녁
흡연
점심먹
노란
명칭
주류
소속사
엄격
안남
밀리
##시스
##예방
커버
해용
해써
벌어진
세미나
태어난
부러
##트로
허락
시세
##26
##미술관
##교회
소프트웨어
저소득층
쓰이
중장
##스카
##해주
##그치
아이고
기술력
##커피
그래그래
of
한복
대구경북
86
점심시간
내외
김지
모기
##광고
IP
제고
원리
다면서
71
에다가
포털
순환
50분
5위
분쟁
침몰
유망
실용
뛰어나
연구소
과시
류현진
촉진
개관
존경
보강
160
##노동당
스터디
IM
시켜주
##어리
작동
일수
경매
바둑
인도네시아
8년
이스라엘
3000
주기
화나
지향
##안먹
목욕
##인증
멈추
##전문가
구랭
##ut
헬스장
탈당
천재
체감
대입
교과부
탁월
진흥
개강
무더
생선
어쩔수없
##국대
유전자
초래
피고
여기저기
막걸리
해바
풍성
일환
지냈
행정부
으니깐
인용
법무부
관중
렌즈
가벼운
대립
액션
##버그
4시간
##지부
매수
##오래
힘입
소고기
발매
조회
##화재
공격수
4학년
아름답
커서
수강신청
더라구요
초콜
##만9
##부족
매월
1분기
색상
따져
개척
생계
##주도
창립
극혐
해져
##메이션
차세대
타당
지상파
논쟁
수원시
글쓰
성폭력
한꺼
길이
##흥민
중국어
면제
##기계
일어날
몇년
지목
이런식
맞춘
##자본
할텐데
비비
출간
간다고
야채
##교체
글구
산거
##급여
시비
동력
응시
사회공헌
증권사
윤리
##천만원
##9명
고집
단다
대대
스피드
CCTV
도서
나타내
안됐
수질
치우
하위
한동안
##정비
박람회
##선생
집값
##전력
##대교
##처장
알파
안와
언론사
척추
시국
정밀
##인지
##공제
다룬
서부
들어선
못함
##아무
##백질
열기
손흥민
취직
##ro
더군
평양
##크스
권위
시발
타이밍
스튜
맛난거
##주주
임상
##구니
격리
지침
선제
##방지
개성공단
아파서
대세
##ㄴㄴ
마이너스
일년
한꺼번에
오페라
수상자
글쿤
##아침
배웠
요거
해볼게
##이도
행진
시킨다
##ㅌㅋ
메달
신장
##점검
지위
갤러리
거울
접목
코드
행태
8강
곱창
가라
갑니다
당선인
KTX
기구
문서
내친구
시공
장악
##거나
ㅋㅋㅋㅋㅋㅋㅋㅋㅋㅋㅋㅋㅋㅋㅋㅋㅋㅋㅋㅋㅋㅋ
5대
건강보험
##간담회
뒷받침
떠난
종편
들으
방역
특강
관행
먹거리
##파티
이뿌
을걸
꼬리
남긴
##주차
실리
##ation
측근
병신
LP
웃긴
##이프
몸무게
메이저리그
3배
누리꾼
해줄게
##대행
##무기
##검진
##여름
담보
모범
##평등
놀러
##비전
##PC
국세청
지역주민
평가받
##나나
##확실
##오픈
다했
개이
##특위
통합진보
선수단
기적
##대구
헐랭
##ㅋㅋㅋㅋㅋㅋㅋㅋㅋㅋㅋㅋㅋㅋㅋ
뜨겁
내릴
걸음
##설명
##경기장
##그레이드
나타냈
##군데
의류
으므로
줘서
##타워
포럼
오프라인
##십분
무거
구워
만기
사자
간호사
공영
잃어
볼거리
열차
##근처
민주노동당
당뇨
박영
거점
##결제
140
가르쳐
먹이
##푸드
수확
##개사
샌드
영웅
공직자
마크
러브
시러
합쳐
눈썹
섹스
비빔
예외
김선
농어
##수익
금속
드라이
니트
학년
우리은행
3인
무인
부리
토끼
몰라도
견해
마실
뮤직
해가지
청장
치러
97
소규모
##시마
고성
수다
세수
인문학
해법
적금
호수
상실
87
웬만
##가슴
김천
세번
착하
상하
게시판
엇갈
##미안
갈비
##청사
##경주
##초등학교
줄일
공시
푸른
심정
음반
##잔데
망했
자영업
##먼스
대중교통
키스
간편
골든
##지능
관세
초록
아산
목포
##무성
바깥
조달
잇따
##인데
##수당
수급
전직
##수기
##OC
울집
##체육관광
96
원천
해안
800
수습
열려
##민주연합
맞춰서
주간
##도우
아리
##부처
박원순
밤새
##애애
##오염
##폭행
생각중
##로이드
##체육관
##징어
김주
##나바
##재생
양쪽
4회
##가게
엄빠
만성
구두
인가봐
해피
다닌
##설계
2루
##교육감
잘생겼
벌어졌
새마을
89
영화관
기울이
말리
하긴
##괜찮
송파
따라가
국토교통
고무
단호
재현
##려가
##챙겨
##미터
별루
##경찰청
주름
##어스
네집
잉글
창원시
활력
##리드
거지
193
170
애인
더이상
성별
##채널
❤️
아맞
금감
##준표
2013
앞세워
1주일
이리
이뤄질
규칙
기쁘
북미
떠났
조교
##아보
##미친
별다른
유성
##데이터
구호
##안정
##ch
에코
##권력
여수시
든가
어딜
상하이
##로우
가전
기금
분량
이념
##세상
마운드
양측
개인정보
실물
공백
관내
중계
##조리
사후
위장
94
##평양
간접
학문
##렌지
출구
맥락
FC
700
##회계
오버
##치킨
대구지역
아무튼
버릴
같이가
퀴즈
##수학
상품권
워터
뛰어넘
야생
내게
GM
눈앞
##단장
단백질
##할까
시너지
유승
녹화
보임
##전지
마늘
댄스
아닌지
가맹
마일리지
##내일
집착
불안감
일선
증언
통합진보당
혐오
##집회
높일
거둔
##국회
9단
지원금
피부과
도저히
선행
190
자구
시나리오
구청장
##부모
새정치민주연합
원고
위해선
##지나
동서
내려오
글씨
아스
할말
신도시
수목
정문
82
바퀴
##김치
패러
떠오
업그레이드
뿌듯
연방
외식
부평
##연수
기온
선보인
LED
보람
##미디
프라
##기부
##어넣
외출
받아들여
12개
##드림
그런듯
일본인
후후
숨겨
재고
오세
##보고서
##까스
유용
탑재
##ㄱㅅ
##그랬
영등
해두
컴터
쇄신
15년
전세계
##인상
주먹
실전
펼쳐진다
기량
범행
환승
너무너무
##사원
방송사
들어야
민선
20명
설명회
커졌
##처넌
연어
믿음
고양시
불펜
만지
중복
영화제
물품
주한
##여부
이집
위대
##용지
##어요
나같
마스터
유가족
리스크
##나물
##재산
##패스
##5일
동행
시의원
##로지
창단
성사
##포먼스
인먼트
플레이오프
열악
자외선
철강
벌인
본적
##OU
오래된
입점
엘리
20만원
##아먹
강렬
미드필
신천
##입자
던져
발주
용어
to
이목
부패
간절
주재
건축물
##캠퍼스
##갔다
##뱅크
단단
된대
재직
학회
##매장
##노트
베이스
지혜
슬픔
##포구
##루션
##심리
터뜨
문건
볼게
한사람
이슬람
로그
아닙니다
가짜
돋보이
##한다는
외교부
두루
##엄청
기후변화
신상
중학생
으세요
##수증
약자
정국
주연
장군
원유
100명
일곱
합성
계곡
우왕
추첨
협박
보편
93
막히
약물
기억나
여주
약국
##임대
##수수색
이산
수정안
OE
침묵
국제사회
도청
정무
가해자
1998년
장착
##동아리
다이소
##동조합
멀쩡
걸림
부드럽
톡톡
국토해양
홍준표
주유
멍청
갑작
##에이
회수
내세우
열릴
##공급
##자나
압수수색
이루어지
토록
통행
배구
##부채
어쨌든
신혼
인접
##se
싸이
##매김
유효
재택
감사원
친박계
##잘하
두꺼
##구만
##만8
공중
세제
드레스
주석
##강의
수성구
1점
승용차
남아공
꼬집
잠수
2단계
편해
에붕
외국어
뒤지
여겨
##캐피
쾌적
부산시
일지
자리매김
특별히
집중력
관광지
공세
초밥
체중
토마토
농장
캠퍼스
##ㄱㄴ
채무
리모델
마카
항소
수변
##어진다
백제
위하
금감원
염증
엄청나
##대표팀
기증
##귀엽
##농협
더러
안보이
으응
낮잠
요건
무척
최씨
모금
##사례
공문
##안돼
성매매
통산
노래방
##장학
##예약
##니즘
##어서
##밴드
##드름
한전
상환
할부
클린턴
둘러싸
주고
##러져
##티즌
출퇴근
##진거
좌석
모인
##선택
북부
원료
건수
접하
지루
타인
방영
치아
내걸
##효율
##외과
버거
##르몬
마싯
제로
##현상
그치만
어쩌면
공정위
꾸며
용량
포도
##신기
돌아보
명의
해임
부추
일거
##비서관
신제품
두시간
빛나
거세
##un
시의회
MC
거제
유니폼
협업
##시오
1승
불신
차분
증말
하필
##너스
다지
##전기
생애
##어때
전수
그야
정유
탈모
자원봉사
전철
##유통
퇴진
더욱이
수비수
분산
퍼포먼스
##인치
##호인
면세점
남자애
##붙이
응답자
판매량
대치
##선진
한국은행
4개월
##성비
아르헨
성숙
신공항
안무
할게요
김승
오늘날
사령
터져
사설
##토토
에어팟
##통제
비례대표
살거
전임
신동
매니저
바위
에바
히트
급등
끈다
이뤄지지
마약
일기
권대회
##하면
인사청
기지
밀양
##노인
##000억
장성
불거
회동
스웨덴
문화체육관광
고등학생
오타
해볼까
연료
##어치
##반대
##작품
우정
##휴가
##라카
계층
이뤘
호기
갠차
돈벌
증정
다녀와
달랐
정황
기다렸
현대자동차
소홀
##트롤
##마음
##티드
눈빛
단톡
반지
그대
한건데
추경
간호
##다란
##수요
##역시
첫번
시달리
땡큐
##저스
갖췄
##고속도로
##200
적성
모시
맨유
스카이
형편
##프레
##피곤
까다
##셔널
인천공항
티셔츠
풀어
수영장
매트
장수
##고등학교
큰거
##청소년
조율
할일
부스
조속
지원자
##창조
##벅지
보전
부러워
##소식
##레이션
1년간
1999년
인건비
고3
발간
대여
증세
##만6
된장
네일
추운
플라
한적
##부품
병역
미용실
금품
타선
요양
라니까
느냐는
와이파이
1997년
가져오
금연
주고받
참치
하드
초딩
추격
2대
외로
KCC
수신
슬픈
미술관
낭비
아싸
증인
해야하나
5회
가중
##검토
1억원
두부
홍성
지문
##그만
세개
벚꽃
제4
걸그룹
부드러운
st
해놨
시크
정세
##여건
시집
정규리그
테크
박찬
무겁
재선
##돼지
복구
아름다움
곤란
불확실
명백
##알바
가져다
##스리그
브라운
##쟁이
투기
그런것
특별법
##35
터치
남한
아닌거
##투자증권
수위
식단
사망자
##유지
한국사
찾아오
행사장
상향
##상금
1순위
##청소
##매치
겹치
재킷
할꺼
##일찍
공단
셋째
유료
달라진
일상생활
규명
##회원
##라지
##본거
필라
스페셜
염두
몽골
##어린
세포
편견
##공동체
별거
어땠
꾸미
##투명
횡령
인게
둘이
무력
와중
아용
원작
상한
호호
##협의
배추
북측
클리
##im
##소문
여파
정한
빌리
##속도
다른사람
거아냐
가까워
##티스트
##베리
레이스
##ir
발의
북핵
화해
누워서
인공지능
제자
우연히
한결
어쩐
억제
대체로
고래
##높이
프린트
아르헨티나
뛰어들
오징어
홍삼
##식품부
권유
전신
흑자
못지않
횟수
센스
줄줄
휴게
보험사
지능
##닉스
방통위
##um
경제성장
##보조
##아동
##가봐
##집행
##21
신재
튼튼
대면
실효
영혼
열받
산업단지
플래
##센스
##타이
2019년
농림
깨닫
##부인
못자
##입장
사인
안건
최우선
선착순
동계올림픽
지니
펼쳐지
유세
으려는
부지런
수차례
##생태
향기
보행
백수
1차전
AP
도박
바나나
##자연
그야말로
##사용
선포
파격
##저우
##ame
##생물
##몬드
할걸
구역
##콘서트
동남아
소상공
안들어
글자
어딨
딱딱
비닐
나타난
생활비
##실적
소원
샌드위치
##지노
신한은행
##한대
발길
하여
##NG
떠올리
쪼끔
##수단
한옥
수천
자부심
서강
##투쟁
카이
할까요
사오
사측
해내
##그럴
발레
판교
##네트워크
##워야
한식
개좋
중부
전격
##나옴
##ce
김병
##유럽
기출
마셨
##만7
##영역
아홉
스케줄
스타트업
리조트
##영어
머릿
빠질
면허
출국
##DI
##인식
상권
한남
##모닝
##하위
시신
달래
소위
잉글랜드
방과
##상관
##우승
안마
정상회의
요가
인민
서서
왕복
GDP
가산
핵실험
추천좀
##계좌
##더파
선관위
##태프
81
2년간
남북관계
자사
로또
##만달러
희생자
끊이
당해
달렸
##나온
##데스
등지
##지르
지속가능
##개인
##강사
##평균
거보
##55
분열
감면
물고기
폭탄
##나눔
얼마전
난민
##간다고
끔찍
라하
##분위
유혹
명목
B씨
IB
박성
##경험
토로
블라
OECD
재해
성폭행
전락
아닠
##습관
입국
전적
안양시
정했
##전환
협력업체
보충
쏟아지
여년
##상승
명동
인걸
1군
파문
##IP
구청
안써
##돌리
열풍
##현실
그땐
미흡
사료
코미디
이례
참석자
아쉬운
EBS
서문
포트
11개
##고용
##제철
##모습
IMF
랄까
산학
자회사
안쪽
국면
땡기
시흥
총력
추산
헌재
국정감사
박종
지원받
지경
입대
약한
##밀리
과잉
탑승
광복
양파
군산
부재
##다행
둘러보
피고인
던졌
별개
올라왔
이만
##한국
##쿼터
교내
버림
꼼꼼히
해야돼
그럴까
클라
농담
##둘러
송금
인센
해가
##해요
달달
##em
산업혁명
반짝
볶음
인쇄
##수리
유감
탐방
했잖아
악기
핑계
혹시나
##시경
손목
##부부
목격
실감
##셔서
안된다고
##레이크
관장
##배상
##취업
저하
ㅋㅋㅋㅋㅋㅋㅋㅋㅋㅋㅋㅋㅋㅋㅋㅋㅋㅋㅋㅋㅋㅋㅋ
인삼
요약
음원
후쿠
양치
허벅지
##탄소
##무지
1단계
크다
대륙
인체
잡히
과학기술
##일어나
진짜로
관심사
새정치연합
관건
올시즌
직구
가성비
##화물
##농가
스포
일일이
카레
화상
자소
경찰관
버전
이화
쿠키
끌어올
##버님
항공기
유전
16개
##동원
tv
다녀왔
재미없
열시
울릉
##서리
청산
##두리
보건소
공감대
이시
확고
휴일
10년간
4층
중립
##주사
우리학교
미쳣
초콜릿
##지마
입단
##들여
탄소
##제작
들어간다
30만원
모니터링
범인
여객
국수
##할때
##ur
접근성
살해
##소방
이런데
국토교통부
비핵
협회
##통일
새겨
중시
##할거같
2차전
이길
셔야
##고시
##일랜드
##동기
때로
운항
유적
생김
전전
김희
##통장
미드필더
석사
애니메이션
3분기
추출
보건복지부
크루즈
##돌이
1만원
온실
##pen
현대건설
2개월
그렇지만
도구
비공개
2점
태권
##든지
상경
##미래
무너지
아뇨
서버
더만
##브라
사각
세용
낚시
몇명
1사
두명
청원
포착
만족도
한겨레
불황
##방위
긴장감
##도리
독점
1등급
위생
##대기
##기본
중앙정부
네티즌
바디
떠올랐
전술
경북대
늘어
동문
총회
달아
단행
더민주
태안
##수막
교차
페이지
##출근
##다봤
2분기
이순
기절
경북도
##변경
트로
공연장
걸어서
##데이트
약먹
한텐
아구
마카롱
활기
가평
날리
장미
달라졌
20개
성취
키워드
좌절
##가져
복용
우체
여학생
못봤
##나갔
##산단
##톨릭
교황
기자간담회
결성
조카
##작전
플랜
쌍용차
자네
통영
간장
수여
파장
불이익
원가
##이브리드
레스토
컴백
##워드
반환
조세
게재
##3일
정자
##전용
프리미어
제이
##테랑
저축은행
상정
무효
##재판소
SM
##교과
수제
##그니까
이대로
설탕
국토해양부
매도
##지점
넘나
##풍기
##일으
##지식
상세
000원
쇠고기
마라톤
스티커
책정
##구성
##스피
여태
치명
굿굿
무장
플러스
##구매
도모
임용
집앞
NH
##봐야지
몰입
서면
##출산
##안했
4인
고파
한걸
간지
훌쩍
지성
레스토랑
##성기
품절
일본어
종전
##운서
결단
날개
박태
원안
줄기
금융감독
독재
별명
설사
줄알
##비리
보좌
##저리
경찰청
요금제
비극
우세
그런거같
대지
보습
이어폰
보태
임무
##운다
지지자
##스케
##디움
##박이
##44
내면
안해서
거품
##커스
감추
배포
오이
밝혀졌
92
돼있
뜨거
궁금증
야야
무거운
스런
정해진
향하
5배
소나무
이별
좌파
호기심
수혜
##야되
##마당
자기소개
관여
##ag
이런건
여드름
여인
조선시대
##인터넷
가죽
커다란
5억
헤드
##공천
##창출
양말
##33
정씨
포스터
왜그러
그라
교복
으루
기르
치마
크로스
##소시
독서실
2부
준수
##블릿
서점
여도
##느리
이라크
##MW
##워치
급격히
색다른
축산
##할지
쓴다
나빠
제보
학사
##요원
##ct
대서
한곳
##완전
여름철
배신
권역
아아아
낸다
드물
발탁
해놔
##준거
담임
상의
손잡
교섭
##ore
아메리카
빼놓
국악
바뀔
넘어서
납득
##정권
속속
현대중공업
달콤
술집
사라진
두시
진리
아껴
보여줘
##키스탄
일명
##거든
뭘까
수료
들어올
청정
반납
##op
출동
말레이
감지
캐스팅
탐구
##구이
극심
배상
##의대
후자
주역
##주기
구미시
자립
커질
인센티브
화두
맞대결
##도어
##댕이
들어와서
무렵
신다
##사카
##문화재
그다음
##서치
성남시
았었
라이프
허브
구럼
라기
경영진
드러난
LA
스트레
MOU
베테랑
안바
황당
구름
더위
억지로
3조
##다르
사원
진보신
선보일
두근
##면접
사격
시켜서
맡겨
비치
중산
통신사
##다는거
단식
공학
##상가
왜이렇게
불참
지옥
용서
쟁이
비트
사촌
##여고
1만5
2분
호평
##도전
강호
버튼
육상
##욕장
##전선
##ㄲㅋ
##뉴얼
랭킹
코스닥
폭염
형부
탈퇴
##르기
부른
이준
##시위
##러블
저런거
온몸
##중간
노벨
ㅋㅋㅋㅋㅋㅋㅋㅋㅋㅋㅋㅋㅋㅋㅋㅋㅋㅋㅋㅋㅋㅋㅋㅋ
어떤거
비번
클렌
##간거
우위
해줌
##언더파
모야
들어도
이대호
써보
일가
잔뜩
김무성
토크
그랜드
원화
추위
실기
##의미
동점
이어진다
신도
프라이
고마워요
##순간
욕구
법조
119
##보수
칠곡
체질
친하
한가요
의학
정통
##ap
머먹
동북아
불투명
오디션
15개
욕먹
##TX
##보냈
시간표
##구간
두피
살림
여대
나뉘
##것도
##짜증
공모전
바부
목욜
두려움
##안좋
민망
불행
신사
##그릇
##요리
이석
민중
해결책
##캐피탈
내년도
두달
##어제
대요
시티
문법
배불러
##얼굴
유인
##리즘
재활용
##고민
약점
##타수
부가
연동
열두
##준다고
##키퍼
##드렸
##만4
가꾸
삼성화재
##자회담
21세기
병원가
느낀다
스튜디오
##88
까닭
##관왕
금융당국
하이브리드
3곳
##피소
박차
홈플러스
경위
자진
머하
헌신
##밥먹
##머스
미스터
성주
획기
흥분
키울
코코
흑인
치른
합법
벌여
##행복
##패딩
창조경제
##이이이이
바꿔야
채권단
##ㅇㅈ
불량
었었
##현대
겨울철
남쪽
##테스
경희
팔리
10억
##콘텐츠
##NA
대놓
적시
##ㄱㄱㅋ
표면
아나운서
청렴
##홍보
한국시리즈
해킹
빌딩
##역량
동대문
##파일
합격자
방한
김형
위법
##다닥
##부럽
##감치
어캐
증원
지불
캡쳐
패널
##전드
빈곤
종일
전당대회
양평
이창
##us
양도
제치
정보통신
순대
##연습
놀라운
박병
내려서
대우조선
욕망
부턴
선동
학자
##해보
백지
정우
##케이
한양대
오오오
가디
이색
##대장
##자격
고마웡
그레이
온거
##사관
##ㄱㅋㄱㅋㄱㅋㄱㅋ
고리
고조
성범죄
##물가
##대응
누릴
##메뉴
장마
##추행
여쭤
##와이
드라이브
이동통신
컨셉
음식물
김정일
##클래
##국어
아이유
택시타
이듬
친일
##축구연맹
안아
##찌감치
시속
50만원
증진
증대
##터미널
##드린다
##IST
##승부
란다
명소
올거
묘사
고사
청사
넘어섰
경찰서
##2천
##성적
##MC
리스트
##리안
조짐
영주
외우
오마이뉴스
불공정
쏠리
왜저
레이저
경남도
##어야
철수
돈까스
득표
12명
##어로
##라스틱
앞머리
이겼
실버
접종
신생
교감
앞당
노잼
양해
햇빛
그럴거
이어져
구로
하우스
정몽
귀신
블록
##77
역임
잘할
지장
##아하
##투리
금융회사
##구석
##후군
##된다
연일
##여있
그리구
5000
부장판사
##배구
SU
##부장관
서서히
##수입
##중학교
100년
연이
공조
소용
로맨스
돋보
##잔치
어째
할리
##ㅂㅇ
6회
be
했으니
비유
프랜
##99
대부
수지
여신
이듬해
미네
신비
할것
어유
##러스터
무언
알렸
##멘터리
책임자
생겨서
##업소
여만원
##수급
경유
짬뽕
컨트롤
글쿠
존버
하나님
##류장
고속도로
태블릿
데려다
ㅎㅎㅎㅎㅎㅎ
비핵화
이마
##사령
상시
##봉사자
##ao
스러움
아카데미
ICT
리우
족발
##차이즈
길거리
30명
서식
##자재
##패션
울리
알레
##여친
쓸데
정동
거슬
마디
손톱
인종
리라
무단
실체
##소설
엘지
역설
3선
쇼트
##조각
한눈
아버님
이직
1500
조별리그
##어먹
이윤
재보
##출신
개시
대략
페북
##내려
다듬
이써
셔틀
문화체육관광부
진작
삼각
##만3
##전철
텔레
바른정당
터졌
##oc
찾아볼
지랄
가라앉
반값
에프
학계
면모
관료
학벌
##학력
해방
써도
##ul
사흘
해여
라던데
과천
올때
발령
월화
말레이시아
든데
##다이
멘탈
재즈
필름
칼퇴
맞물
기다려야
비정상
##피티
생산량
등재
절약
프레임
낯선
유쾌
유물
##ab
저정도
타이어
##융합
올리브
스무
진흥원
머거
상속
##더스
##♥♥
##만족
영장
##ip
예술가
##경쟁력
노예
위성
##규제
간사
골키퍼
국적
근디
파우
##설비
##💛💛
주축
##인정
일치
##유증
name
##엑스포
일으킨
빡치
##트랙
192
불러일으
브로
8회
소매
엇다
초보
펼칠
##바퀴
##브리
단골
##가슴살
지난번
숨기
go
원룸
응용
걸맞
동상
FIFA
드론
##줄까
##PS
ㄱㅅㄱㅅ
려니
소신
사랑받
##학부
##그라
난방
박주영
기다릴
가맹점
호랑이
##메이
ㅎㅎㅎㅎㅎㅎㅎㅎ
##활성
세탁기
2승
신년
##세이
어쩔수
손해배상
박상
비추
무서워서
현수막
권영
스토
평등
##소스
어릴때
못사
##린데
##천군
국민은행
올라온
##아닌가
##소장
자궁
##아무개
슈팅
접어들
폭로
여배우
끓여
##부진
친척
포수
로그인
##개편
불필요
##신수
분기
마른
스승
일욜
혈관
해보이
롯데마트
훈훈
##상선
##출발
##창단
소독
##저거
5개월
1995년
경산
3가지
##첨단
려는데
kt
스윙
날카
기세
봅니다
아티스트
##미리
롯데백화점
머무
##식장
조성사업
녹차
갓다
##취소
해경
브이
영화보
결승전
지붕
뽀뽀
##지니어
##저런
해야함
2사
차려
##습기
##고파
##플렉스
##버드
KA
내려놓
방문객
고작
사형
못들
##투스
##웅웅
고가
임대료
##무용
MV
공존
원서
힙합
##무니
손꼽
넘쳐
오케스트라
##악관
응모
아그래
외곽
4억
부를
냐면
##산지
15명
아유
치솟
텃밭
현명
개많
부근
정장
공정거래
일찌감치
6번
쪼금
시가
오직
##렉션
이인
표지
##할인
재검토
종사자
홍수
타협
##65
운동장
배후
##셀로나
유투
기준금리
60대
이경
##오일
한라
더군요
##ㅠㅠㅠㅠㅠㅠ
을수록
온천
친해
교직원
두통
유죄
장인
지방분
부착
직면
전용면적
대본
버텨
스캔
##드려요
안겨
농어촌
술마시
창고
기분나
시행령
벌레
장난감
감싸
한판
귀농
주저
키키
개이득
군데
현타
##자책
서술
하수
온실가스
메시
사야
쌓이
##아주
밀집
반기
안한
중재
입체
검거
지원사업
##귀여워
심상
니다
나지금
##담보
##멘트
발판
가하
모발
무작
저번주
수욜
아랍
표기
육박
기침
남다른
채플
##고마
기득
전복
11명
래요
보증금
사모
St
나간다
##저트
수령
##론가
넘겼
##적으로
금융기관
오카
보컬
소집
으까
상임위
open
##신경
공론
생긴다
##경영자
잘잤
판타
이견
속초
다가가
영재
##제일
저것
피할
##맞춰
6천
샴푸
동아시아
##문화예술
##문화재단
91
제휴
##코트
출판사
발음
##워주
옥상
##거기
더구나
오사카
자이
피겨
##파업
도달
섬세
얼만
장기간
##명령
도요
약하
이끈
불구속
지리산
넷플릭스
##벤션
모공
##공고
##akao
닥터
돌아와
통일부
나온거
01
잘됐
윤석
국감
다치
##써서
본거
발송
인것
##갈래
학교폭력
행정안전
추신수
##준대
3단계
내정자
일수록
##6억원
되살
일베
챙겼
자원봉사자
##벌레
터미널
##태료
동결
우대
##려구
##페스티벌
제5
상용
##조작
점프
##비치
대원
##부서
하셈
기분좋
##사정관
긍까
##테이너
표결
놀랍
현지시간
잔여
##케이스
국책
기각
빅데이터
조종
반해
19대
자치단체
저걸
##위험
엽떡
이분
배우자
중소형
달린
##추어
정의당
요기
기업인
##접종
여행가
치안
폐기물
프랜차이즈
가세
회피
거북
화내
그해
반팔
또래
##00억
##사이즈
닭가슴살
산정
##소통
의료진
고용노동
잘어울
조문
학위
##공화
선명
소변
부끄럽
박지원
대행
솔루션
시킴
크크
##주의자
정년
다큐멘터리
미분양
##ㅜㅠ
사직
테니스
리버
포르투
개원
LTE
일행
이걸로
장병
어쩐지
상원
##건물
##질서
오리온
부양
스트레칭
발상
##부상
볼때
결과물
당기
할라고
##열차
##트라
1990년
관할
기상청
다네
##린지
##집단
챔피언스리그
드래
##촬영
과태료
##특구
##애기
같이하
##면허
##말기
오예
이승엽
이원
포켓
##2개
##ity
##인생
1심
##IS
SS
엄마아빠
그립
상사
오라
모양새
수거
인사청문회
장거리
항공사
헌법재판소
중년
후유증
에버
##증명
##대책위원회
##장소
상자
웨딩
##식간
챙겨주
식량
이현
지켰
##구단
유승민
미친놈
유난
##일단
350
초중
김모
출생
2곳
##진단
##체육회
추워서
후임
베이비
간거
슴다
유방
##카락
독려
세시
##걱정
소아
의제
멈춰
또다른
온전
일회
US
어두운
3루
플라스틱
크로
##내역
중간고사
다름없
시력
불꽃
사도
휴양
##보다
##랍니다
긱사
려다가
##타임스
가뭄
배부르
김준
미끄
독감
챙겨먹
##두르
레전드
대선후보
디스플레이
화사
##못해
##주차장
잠정
시트
##대병원
##연락
부풀
흐음
해운대
질서
천원
##업종
트랙
##중독
##블록
항만
##자유구역
성추행
##섬유
비서실장
##엔터테
tvN
미역
kakao
다던
보물
간격
##게티
##커트
려다
악재
아닌거같
##버릴
국경
경관
미션
보도자료
DJ
목동
계파
망하
회색
검출
로고
복무
코레일
금융시장
##가입
나주
합작
사가
유관
길러
쳐다보
##바운드
변함
불합
각질
나눴
비디오
행운
성대
중기
리뷰
##무슨
##맛잇
여러가지
##2억원
##징금
공동대표
공제
성희
진전
백악관
KO
선대
##치즈
##강화
##남도
국회의장
모터
사무국장
데려가
9회
후보자
정신없
성균
옮겼
외롭
카트
##리조트
다이아
우체국
##바위
##목적
로켓
실명
진동
##진료
##일정
DM
후반기
##모레
와요
20만
어느새
서초구
이집트
돌렸
유재
오렌지
시교육청
고속도
원조
봐라
##시켜
대접
ㅜㅜㅜㅜㅜㅜ
제어
회전
##캬캬
규탄
와도
##러가
인데요
신지
저작
디저트
##데기
포부
인지도
##매일
이해관계
보복
일걸
물러나
##관절
##타르
##청구
소망
버락
모자라
삽니다
여왕
내역
##희망
관계없이
분할
축적
##보상
##알려
##목표
오브
##혈압
자본주의
##승환
될까요
이케
자니
##궐선거
##공약
입학사정관
메가
머리카락
면역력
도출
##택시
매물
##정산
##훼손
오만
진해
올라와
개인전
냉면
##부로
단체장
던진
피의자
##재밌
울진
최하위
##75
프로듀
바빠서
중등
사소
낮춰
절망
##ㅎㅋㅎㅋ
군민
비서관
너무하
환호
100일
가축
가봤
입양
잇달
##겨운
##집가
예수
191
##렌즈
감탄
과세
##호기
일제히
갑작스
유대
해병
내장
내각
보라
이청
##식물
도시재생
##라이프
재계
할께
##을까
입문
6위
더더
토종
건대
익히
머물렀
모의고사
남산
지친
##세지
##빌딩
새삼
옥수수
회화
##숭아
경인
우회
어필
##관리위원회
소소
##유예
MVP
##스토어
##나이티드
마져
자야
터널
국채
지주
볼래
성희롱
##규명
##침체
안해주
##주교
선별
트럭
제조업체
여봉
영하
갔었
학생회
리드
심사위원
키보드
한디
##프라이
##민족
이런게
개소리
##나도
가치관
##금자리
친정
납치
단정
근절
우편
로마
오산
말라
혁신도시
신대
간직
학대
올려놓
운송
##물산
##곡동
##해고
##우주
06
단연
스코
삼촌
소액
순식간
약화
아팠
알림
보여서
유기농
무언가
가늠
확립
노화
져야
신종플
찬반
법인세
헤이
통학
부적절
체류
아휴
아근데
려던
각광
##그때
수색
잘못했
상해
##하늘
##주식
열람
계약서
1∼
하남
손쉽
이진
발걸음
본부
##ㅏㅏㅏㅏ
##4억원
파마
둘중
포지션
방송통신
남양주
한약
타고
7회
오로지
이를
내다봤
노숙
미국인
성균관
전산
아놔
건강검진
베를
깜빡
청바지
그런걸
##방문
임진
접전
##지하
존재감
느껴진다
서둘러
양극
맞붙
##완료
##안부
1부
급속
수장
##니스트
포항시
클렌징
부도
틀린
견인
디테일
의욕
##공화국
푸드
고는
구라
삼국
##베이터
애교
##퍼런스
눈높이
##잘못
퇴출
##조절
느리
##3억원
##음료
##지기
버섯
클릭
##구래
당진
어마
영수증
영등포
동갑
일괄
한상
##IT
문명
천사
반갑
캐주얼
##아치
영유
출자
12년
##무서
수명
허니
수박
단발
부총리
어선
염려
##플랜
인명
##걸려
##주간
13개
야스
스러웠
낙찰
##8억원
걸친
##법안
##글라스
안나가
피드
##완화
옵션
##EA
부탁드립니다
안왔
##이유
조립
레벨
더했
소모
공통점
맞췄
ㅈㄱㄴ
법관
##해운
버디
필자
##리케이션
서울역
다운받
##따리
##가방
##머거
되풀이
전시장
짐작
함양
고용노동부
친해지
취준
##배송
1990년대
##삼성
모비스
여원
##회의소
비대위
엑스포
박재
5시간
밀가루
몸살
잘모르
여덟
##조심
인나
파이팅
##종목
부위원장
초고
##7억원
##창업
달라질
4년간
신곡
구원
##언스
##기한
##생기
연평균
거듭나
물려
드립
잘가
주유소
금융감독원
폭넓
동맹
칭구
살피
노답
도우
##시트
##어머니
7천
문항
심플
##주소
발전소
##art
ㅇㅂㅇ
가야
##모양
##외교
사법부
잔치
##맥주
삼성생명
압축
잔다
협력사
농도
##식사
##고객
갈아타
##저축은행
발병
최애
##파리
라이벌
##올때
북쪽
##500
대개
봣는데
개막전
각계
##과학기술
필터
라인업
난이도
페미니즘
2호선
##마다
##먼저
개개인
##교시
못찾
##개념
##출마
##듯이
##ㅌㅊ
##셀러
검진
##아까
##ㅌㅋㅋ
##성분
##휴일
주머니
##ri
분담
##보전
언론인
의정
재질
맛보
털어놓
##개정
##그림
소극
40년
년간
CD
의성
##금속
김윤
견디
이뤄지고
##대우
##정말
그래야지
존잘
중장기
##사기
집주인
코딩
여름방학
업데이트
둔화
##만대
17개
차타
##도소
정신차
대놓고
각별
산소
영천
해변
##대상자
4분
##블리
탄압
2000년대
마침내
아사
영구
워크숍
##규칙
할까봐
##바르
경제위기
가즈
##합의
이용객
중증
동호
대명
연루
정화
해선
영남대
SUV
자긴
##1억원
##심판
보금자리
##오리
이광
좀처럼
돼지고기
잡지
##클리
집행부
기어
마라탕
##끼리
이룰
들여다보
##그건
##다임
나비
##아래
사냥
알바하
이르렀
농성
동탄
후드
TK
기법
파도
김문
산재
구려
정직
04
The
건네
한의원
##ㄱㄱㄱ
##상수
안나와
교대
10위
막막
원형
마음껏
마신
연하
오락
준우승
골자
과다
파라
퍼지
한중
##공대
6자회담
머릿속
연내
추측
한다며
##포장
연구위원
국고
모아서
배고파서
한자리
한심
바로잡
이뤄지는
걸림돌
앜ㅋㅋㅋ
케익
##ss
이장
##밀히
##버림
##동구
500만
남미
줄어드
신념
##지원금
##규정
사당
##나잇
##해야지
포르투갈
노원
뭔소리
카카오톡
##다닐
##4일
과반
전경
나타날
##거래소
잠재력
부합
1996년
충전기
찐따
후문
##희정
이뤄진다
##아나
어카
노동조합
슬로건
##산부
고비
자정
헤어졌
수월
##쓰레기
독립운동
장애인
그라운드
회계사
올레
왜왜
##공자
성장세
부임
팽팽
박용
석탄
열공
안지
영세
끌어올리
첼시
학교생활
조류
##어린이
저질
50년
게이트
##리얼
이세
##1천
띈다
으리
보일러
전염
자유선진
##맞이
객실
나눌
##벅스
모순
피우
매직
##계속
동성애
##돌아
##메시지
참으로
7번
단풍
##달라
##운트
제의
경기력
간만
반반
양주
맘대로
##수저
##조례
박경
원금
준거
더워서
스틸
투구
포스
##불가
라이트
함부로
액수
영문
##그렇게
온다고
5점
잘안
경품
산지
야기
캐리어
안햇
대덕
해짐
##부르크
논평
용지
박탈
##이전
##베이스
##린다고
바랍니다
알뜰
연비
영덕
준다고
휩싸
휴지
히어로
##노동조합
달성군
최후
##네스코
##쿠폰
면서도
##운동장
도마
불어넣
산행
##방울
그루
불쾌
##달래
금강산
키웠
바르셀로나
PO
##ㄱㅋㅋㅋ
##뿌리
스프링
##이따
막말
해외여행
UN
4만원
##시각
14개
ㅋㅋㅋ나
1994년
할수록
협정
안타까운
물어볼
소득세
##혜택
##정상회담
더럽
##̈ㅋ
계명
경사
대검
속옷
직권
##바바
응급실
태우
유나이티드
포괄
예배
전도
##산동
찾아내
을라고
재임
감사합
##궁금
기념식
변했
시리아
##TI
구독
동향
삼성그룹
6학년
##시피
##보안
1급
숨진
제사
고모
병사
돌보
리듬
어긋
지역발전
##아닌데
아냐아냐
기장
이런것
자유무역
저출산
비싼거
태극기
1조원
이태원
구할
일본군
##피소드
4곳
의하
청송
##마케팅
마이클
비자
##오스
ET
놀이터
유예
거꾸
서거
랜드
for
##ㆍ중
##봐봐
커리
카드사
폴리
당할
지킬
도요타
괴물
한건가
게스트
총무
동해안
벤처기업
##⫬ㅋ⫬ㅋ⫬ㅋ⫬ㅋ
무덤
잔디
##실업
대조
누군지
뭐야
이사람
팬츠
해야한다
BMW
식탁
전월
평가전
##잘해
나타난다
권장
정형
환급
##사단
##민지
유씨
지르
적폐
조형
##학규
여섯시
동선
국제대
안드로이드
방위
900
출력
가져와
##터지
경북지역
기업체
가파
##5억원
##스토리
##꾸미
신천지
##장학금
손절
신차
##기회
유네스코
남짓
미달
순천시
##100
##mm
##oT
날라
정진
왜안
직선
##지오
th
휴무
질주
받아들일
배분
백두
아웃도어
다시피
##그런가
앜ㅋㅋㅋㅋ
칼국수
피피티
300만
나노
수소
조장
코엑스
튀김
변호인
신데
조상
##베르
차리
파산
##우유
공청
전문직
사라져
넓히
에피소드
누웠
습니당
##농장
꾸려
달서구
##품질
용인시
낭만
학기술
아쉬워
펼친다
정말로
이야말로
##버트
지식경제
시내버스
탈북자
##여기
올라갈
작곡가
고흥
메디
심해지
##접수
30만
몰랑
취재진
단과
단말기
복학
시야
환기
##고문
이번학기
시간대
##날레
MS
연체
##요소
서산
컨테이너
태어났
본보
셀카
신세
##억5
측은
보리
안감
##닷컴
부시
KBS2
비와
##if
연초
하원
최고경영자
ㅋㅋㅋㅋ아
##널드
성당
지워
아플
엘베
속상하
볶음밥
강진
진짴
타석
##벌이
##얼리
##폴리오
알려줄
우짜
ㅠㅠㅠㅠㅠㅠㅠㅠ
터진
창당
##체스터
취약계층
영토
축사
활짝
오른다
시민사회단체
약해
아미
야구장
경호
동지
보석
형상
골반
종강
##∼20
ㅇㅈㄹ
##EC
매립
이력서
500만원
교훈
대권
던디
모였
휩쓸
달라서
##벤처
##바이오
광산
트리플
거꾸로
온대
##개소
나와있
마세요
메리
이치
##주문
줄줄이
매몰
##est
사귄
한인
##정기
##결혼
연기자
할수잇
자위
청도
트레이드
스트레스받
예년
튀어나
피시
한발
황제
회원국
혈압
##모션
청탁
급락
##th
정례
##연설
떠들
전과
##의견
외고
짱나
##이당
##9억원
오오오오
천국
전문의
친노
소녀시대
극중
다크
진행할
전남친
1박2일
마법
저리
##매수
##넘기
왜그래
10번
일으켰
##선발
스노
아쿠
##차원
서울중앙지검
2박
그랴
패드
부천시
암것도
자자
채취
##레이터
이이
싸강
적기업
디스크
존예
##케이크
##마일
TF
야식
##나타
김일
김창
##가수
##커녕
비춰
##용역
ㅋㅋㅋㅋ나
이모티콘
승자
호르몬
##안내
##총액
올려주
돈없
십분
틀리
스테이크
행정안전부
만난다
몇살
스태프
##아닐
기피
베네
##이쁘
총학
##66
##프티콘
중형
전화번호
일반고
업무협약
수요자
증액
냉정
통계청
진정한
서장
부른다
배움
최장
아니근데
다할
##기억
다아
찾아온
5층
비염
립스틱
미미
구사
재계약
셀프
위력
인선
안갈
표창
주민등록
배드
최경
4조
##광역시
파고
2군
##라구
다잉
짜장면
##자문
고심
남경
신성장
자기소개서
내밀
##작물
##맞춤
임차
정선
##조명
애국
##나와서
##해결
물음
사육
1000만원
넘긴
열쇠
##34
다섯시
민자
그림자
##겨울
신영
##유플러스
개발사업
강구
스타벅스
##질랜드
2008
바리
##떨어지
올라갔
표출
##두부
유럽연합
김은
인싸
표본
흔한
간단히
너무좋
##기다
시중은행
내방
횡단
직거래
광저우
특집
세계선수
손학규
##테이션
살아나
한껏
하향
##아픈
양자
남해
도둑
모텔
선풍기
##모아
베를린
도장
퇴임
비로
알레르기
왜지
##진출
기리
조현
##대원
##연료
##RA
8천
구자
##란스
제압
시험기간
민정
이쪽
중진
후딱
##어여
언덕
줄였
개그맨
백퍼
##오바
JT
정산
싱크
예스
타결
김혜
##가보
##티비
나마
오토바이
##드리드
##리포니아
##설명회
삼성물산
경희대
경향신문
레저
끌려
약정
인맥
##BA
##비디오
아앙
대도시
텐트
6만
강해
밀착
사명
식구
베르
##칼텍스
##물량
##랭킹
엘리트
으으
선보여
and
설날
함정
햇살
##이미
낙하
서있
##정동
연구실
031
개막식
서른
##신용
##원전
민속
가이드라인
관심있
저조
글쓰기
올스타
##와중
##사주
잘해주
대타
망설
머해
##성향
노릇
탄산
##코올
패러다임
감옥
돌풍
버블
사천
과학자
줄까
찝찝
후퇴
물어봐야
개운
펼친
203
한은
사무처장
3사
원격
##문자
노르
들러
내세워
아카라카
잡혀
할당
꺼지
친근
경제민주
##잘했
은메달
그럴듯
신용등급
사운드
##공식
개미
보드
을껄
며느리
울엄마
유포
##야드
결실
민영화
##ㅡㅠ
뿌려
전이
명예훼손
라떼
변형
수건
##소시엄
굿모닝
학자금
연희
단편
법제
오름
네유
방콕
안봤
##대금
##84
##갓다
이왕
##세우
역동
질투
##테스트
녀석
호박
안읽
요원
처한
삼척
##티아
주민투표
종로구
하버드
##공주
나오늘
50명
실리콘
다더라
맨체스터
두세
##주로
##기에
##비드
뜬금
협의회
질의
눈치보
대강
서정
수당
##GB
샘플
시한
임산부
내세운
산악
##포터
치료제
거액
세입자
뉴질랜드
촛불집회
장담
##편성
책임감
선비
생에너지
대구시장
나눠주
대성
와라
##철학
105
##경비
지켜야
가습기
발산
버터
소품
양육
##FTA
수호
##신저
구속영장
300만원
멜로
배부
시그
약세
##북도
허허허
보성
##네마
이동국
기뻐
마비
선점
슬리
송파구
##예금
보험금
1980년
판타지
태평양
타이거
##르륵
ㅋㅋㅋㅋㅋㅋㅋㅋㅋㅋㅋㅋㅋㅋㅋㅋㅋㅋㅋㅋㅋㅋㅋㅋㅋㅋ
서강대
볼넷
IoT
이형
카라
돌아갔
영원히
만일
##바꿈
##페이스
장난아니
동메달
모닝
무튼
아토
##모니
##윤리
본래
##지엄
##중국
##RL
증가세
시일
체인
##줘도
##배기
##배추
##예선
아마추어
졸귀
##계절
봉투
세균
승률
홈쇼핑
그렸
배수
이럼
화욜
##그런거
으악
##공격
니까요
이제야
반문
##유기
##3개
피드백
대국민
멸치
손자
##리스마
볼거
비박
##할머니
푸르
본지
여정
중지
해져서
30개
개조
희귀
##고교
##빠르
수업시간
##즈니
강력히
GS칼텍스
원자재
비준
##네스
느껴졌
의약품
##소기업
줄곧
##무실
할리우드
정준
아마존
입소문
##과세
오빤
##살이
여러개
아무렇
합치
뚜껑
박인
업적
##버전
이강
화석
50만
진한
청담
대림
옹호
총수
##비슷
지나친
나이제
삼진
잔인
파스
자치구
유난히
그늘
천장
##댄스
다각
더운
들려주
##비행
선고받
입건
LG유플러스
방과후
##십자
갈색
자란
피티
##임스
쌓인
##금융지주
악용
##친화
##and
65세
반려동물
현대캐피탈
##제약
##러움
안입
청량
맛난
도의회
1루
수년
기미
남측
##피부
##년층
##생일
##36
LPGA
공룡
도의원
변명
챔피언십
저지른
날려
경기침체
안갔
어학
CG
캘리포니아
최상위
##공예
##RI
잃어버린
닭발
##런트
고혈압
버려야
3경기
기프티콘
복숭아
싼거
애깅
늘렸
암기
##응응
##국제공항
학우
##기소
가져왔
4점
유병
점령
정가
경쟁자
쌓여
##기분
전선
공동주택
졸업식
그말
마찰
##부인과
아메리카노
1라운드
미련
박진
신흥국
##말라
범죄자
몇일
써있
응ㅋㅋ
이면
줘도
도시철도
is
한줄
조례안
3㎡
급한
아랫
늦잠
안올
적힌
참모
룸메
좀비
집도착
국외
로선
바바
거창
##갈등
김명
무실점
치밀
살아온
멋져
백양
칼로리
카리스마
트라
##연장
유투브
꼴찌
래서
##ee
##양식
##결승
산타
트러블
##SI
복사
##참사
##프로젝트
강변
사생활
임의
목록
조망
김치찌개
동방
비자금
뮤지션
##72
계승
아일랜드
박찬호
넓혀
차가운
망고
보류
이식
장갑
제동
거라
주중
해산
##이나
만져
백성
영동
덴마크
봉화
분주
잘생기
공로
어버
에센스
옮긴
주식시장
급감
인권위
##타이어
##혈관
어쩌구
##000만달러
시동
으이
##포기
안치
천주교
걸린다
손길
##수정
JTBC
뭔일
우호
##바꾸
##북부
장벽
전진
남사
다툼
평균자책
##놔야
##85
강의실
밥상
10억원
소설가
센터장
키즈
늘릴
##티지
학기술부
단절
ㅜㅜㅜㅜㅜ
승마
열매
그쳐
##AE
선거법
법령
##리시
##문고
장보
막혀
##어내
명확히
이완
후진
##증진
##두환
성금
쫓겨
13명
보궐선거
신성
##프로골프
양재
통통
##LL
정권교체
원동력
정조
형평
뽐내
안잡
청계
고난
다정
##악단
해본다
부동
토너
##사스
피지
##노선
##나용
##중동
##처벌
내세웠
라던
##그게
##화면
##ang
기호
##엌ㅋㅋㅋ
상처받
##담보대출
벤츠
터질
##3천
그래가지
수련
저래
넘어선
##고루
노동부
프리미어리그
디젤
전성기
코디
진압
##원래
##질문
무기력
4배
대금
엑셀
장터
장려
인가보
필라테스
시진
##요법
##원지
증폭
질타
##od
요거트
ㄱㄴ
소폭
자질
##이동
깔려
일러
##TN
##나리
제자리
특위
후손
음주운전
일체
1000만
통로
반수
전송
기둥
잇따르
9년
뒤져
산업은행
##관계자
퇴직금
제대
하루하루
딴거
보름
으실
추후
우리동네
번거
아재
엑소
##인물
##중계
200만원
##ong
쉬워
##바겐
##망이
100억원
의료기관
로맨틱
드문
재래
##PA
김현수
파급
합시다
들렸
나와야
공청회
지방세
##사전
##육성
참여정부
마드리드
스파이
##되게
##제이
##박사
떨어진다
힘든데
보정
##교섭
ㅋㅋㅋ아
돌아갈
##어어어어
본능
뷔페
흐흐
##민턴
##쿠버
합계
사양
관악
포트폴리오
가톨릭
##시원
교보
프로농구
##00만달러
광교
소박
조원
황사
앞뒤
##봣는데
가미
브레이크
갈수
가져올
도미
미사
분수
취해
해치
##LS
곤충
##정돈
시카
##무늬
3승
신조
끌어들
화질
##물어
만끽
체납
##서류
마켓
경제협력
대피
연탄
일자
지름
##꿈치
쓴거
조경
ㅋㅋㅋㅋㅋ아
백인
원한다
##앨범
국민참여
박태환
밀접
특목
##만㎡
김한
괴로
##인간
##온대
나눠서
무작정
기용
김관
산학협력
대동
짜릿
떠오른
크리
##아여
##og
100개
##증명서
토트
였으며
선글라스
##기름
##미군
찾아왔
박보
지지층
강자
낯설
특급
##라기
한국전력
연중
입상
주어진
2경기
센서
6시간
##지표
러닝
레몬
쌍용
##일자리
유보
조사결과
사령탑
키운
음악회
45분
101
##교육원
##경관
##란트
##최고
다이어리
결석
##폭탄
터뜨리
특기
##세스
애플리케이션
농축
악취
##향소
│→
프로축구
이겨내
많이먹
##타인
위촉
화운동
##복지관
문득
드러낸
도보
동창
8개월
해야겠
주임
몇시간
커리어
##인거
##나올
결선
김유
로션
화성시
##상공회의소
5000원
이시간
##증후군
##체전
ㅋㅋㅋㅋㅋㅋㅋㅋㅋㅋㅋㅋㅋㅋㅋㅋㅋㅋㅋㅋㅋㅋㅋㅋㅋㅋㅋ
창업자
후원금
이글
증여
7위
붙였
한장
블로
스릴
포스트시즌
삽입
헬기
##95
##마르
노동당
꼼수
##세서리
수입차
몰렸
장단
코스트
##코인
CN
증설
##끝났
안보여
성욕
핵무기
전해지
임대주택
##교대
정치자금
실종자
내생각
할것같
##38
갈수있
김남
펜션
달간
알라
##긴데
리스
아이콘
중심지
이청용
레시피
분단
##아카
##피자
자기주도
자연스레
가져야
뭘로
추리
니가
박해
효능
빌려주
##터널
시설물
무궁
##all
##정식
찾아와
직결
##주군
##버스터
##야마
##봐요
하와이
시ㆍ
깨지
씨앗
##태우
##채권
##들어오
주상
경영학
답니다
여행지
##계획서
하동
하락세
라운드
중위
특색
AS
결집
##파트
18대
공구
그른
뮤직비디오
개소
##플라
##의료원
경연
on
사학
바짝
고딩때
어짜
잔소리
##립대
##마라
좋아함
으래
##os
시드
앜ㅋㅋㅋㅋㅋ
차트
경제부
##정보원
오세훈
지치
시위대
유산균
LCD
충주
나혼자
등극
안전사고
에붕이
##남친
날렸
니깤
악마
힘쓰
효성
##수첩
놓인
##37
##단일
라네
위조
ㅂㅅ
폭풍
지방정부
명함
안들어가
##누나
이딴
##ain
도시계획
손질
스피커
##1패
만찬
##김밥
반차
조영
##본적
만료
##타리
##징계
거칠
셔요
임하
하넹
산업통상
##지원청
상류
##자원부
단기간
연말정산
신랑
쌀국수
##ㅂㄷ
선원
스쿨
중개
계신가요
##경원
벨기에
불린다
빅뱅
파행
평상
김인
놔두
제네
제임스
##투자자
부결
궁극
오메
##퀘어
240
신약
돌아올
1980년대
감세
비해서
엔트리
영감
##라떼
골고루
구별
해냈
김원
토양
품격
##시픽
##거아니
먼데
분식
멘토링
수송
##보육
엄지
채팅
##주류
컬렉션
피력
시진핑
알람
엄중
##igh
왼손
웃김
하차
사왔
##다지
##전망
달려가
지식경제부
됐으나
취했
##일러
##ob
카타르
창구
녹색성장
귀차
읍니다
환전
##날두
성적표
현관
##든가
1992년
ㅎㅇ
그런말
거르
1987년
로움
욕설
진자
순이익
부담감
이순신
잘거
태워
##린다는
무사히
놀리
자택
칼럼
이십
친이
트레
공영방송
나유
반등
영양제
빠짐
##ER
##불안
##봅니다
비로소
##내내
터뜨렸
부유
##송이
인간관계
언넝
외야
우연
##약속
내줬
##사면
##연속
STX
YTN
젤리
사막
전작
자서
정교
200만
프로모션
지형
라는거
두렵
둘레
분포
제법
##진행
##조성
톡톡히
##AS
천안시
엉뚱
자나
##탈출
##해야하
목걸이
오스트
화가
##갑자기
식욕
##매체
술마
소외계층
##팩트
베이지
스팸
DMZ
호날두
##차전
호전
사외
청취
쪽지주
대주주
##포스
##줄거
8시간
헤어진
영통
실크
절박
루이
##들리
아니요
##급적
이한
못쓰
우동
##48
##확보
##믹스
고령화
##석유
입수
갤럭시S
잘보
하체
간당
결말
##학사
당국자
마오
5천원
##요건
URL
래여
##크리트
4000
주춤
카지노
##인척
##업원
스물
심했
##일간
기생
##토지
배송비
거얌
고액
다요
마취
무책임
##널티
걸러
승격
인뎅
콩나물
사회생활
입주민
역대급
고른
충당
##연주
##주석
본연
세븐
##신호
보답
##보스
사람많
현대인
생겻
아디
##tu
묵묵
양질
##플루
이선
어서요
과징금
최고위원회
반가
용병
전사
불안정
열흘
고의
내보내
##수영
주민센터
개교
기저
상공
김세
술자리
##경선
사수
##바리
아우르
발족
저마다
##연전
ㅈ같
네시
미지수
살빼
이런저런
##암동
##폐기
자유무역협정
서귀
##올린
ㅋㄱㅋ
벌인다
산부인과
약사
아까워
체육관
마우스
생성
##추워
##39
##원자
##카톡
이재명
##엔날레
항소심
##음파
##퇴직
신분증
심야
어떰
잔잔
잘맞
최첨단
##나간
원로
6억
국밥
##배치
자취방
##무시
##예고
##ate
대관
헌혈
##무진
경복
공교육
어딘데
으아
죄다
퇴원
해봄
해야될
매일경제
세심
가루
망가
##한시
##바구니
자율주행
드나
떨리
런닝
##교과서
한끼
여행사
느냐고
설득력
막바지
인건가
##개웃
신청서
대리점
##테크노
이은
##줘요
들어설
신입사원
는구만
다가왔
전지훈련
소상공인
벨트
##여겨
##기타
##반응
유선
수익금
그닥
##어마
인내
일조
##5천
동백
시공사
안부
쿠바
##루미
다저스
세로
##미사일
##일반
##대책위
밝혀지
이화여대
ㅡㅜ
페널티
##별로
오래전
##클래스
안팔
##상환
##각서
선물세트
무등
준결승
국립공원
날아가
대포
도교육청
##방해
경과
나아지
##해라
##지방경찰청
쿠션
하하하
컵라면
##고양
모여서
김제
##난리
드렸
비누
호재
동두
떠날
조개
기부금
영남일보
동쪽
아무거
성찰
악영향
##블러
##호흡
##대신
##체어
전시관
화순
##연기
상상력
정정
제작사
매뉴얼
상큼
어우러진
##누구
당뇨병
서귀포
##미팅
이뤄져야
##도그
만나보
1993년
앵커
갈아입
바닷가
수산물
장시간
드려
##안함
##려면
털어놨
11번
반품
씁쓸
염원
##변인
중앙당
어쩌다
##보유
속한
##제재
##학위
롱패딩
스폰
연쇄
실점
양호
정운
경부
마니아
해병대
실세
##때리
##골목
##퍼센트
컨소시엄
폐업
##시스트
대우조선해양
09
광범위
김미
상봉
시군
눈여겨
남경필
비법
식재료
집필
담아
마음대로
경주시
시끄럽
극본
수납
##4천
##MA
강남역
게끔
취업률
잇몸
##공모
미얀
외신
체온
인증서
스쿼
자생
##고마워
중견기업
##지출
##네이
막강
한국전쟁
성균관대
침수
코칭
따내
연임
은은
존잼
여잔데
앞섰
##개발사업
학급
##거장
##티켓
정책위
아주머니
레인
로워
싸울
치렀
메신저
모드
분비
엔터테
적잖
전라
에용
##유로
##호수
가로막
저금리
##일드
##여론
화력
##할게
유통업체
메카
##가드
##상인
##재해
매경
그런건가
끝남
어니
##다녔
##장구
안돼서
어딘가
의석
하소연
중앙대
제6
전자랜드
##ist
관해
미스
문화관광
쏟아졌
바이어
천명
해나가
##두근
##라이드
하도급
겹쳐
##손실
음료수
강성
사들
고부
재편
장원
VR
멜론
##수수료
모험
틀렸
현대백화점
기한
##시키
도자기
##조금
##요인
놓여
최정
토플
보호자
돌려주
표방
08
비주얼
ㅋㅋㅋㅋㅋㅋㅋㅋㅋㅋㅋㅋㅋㅋㅋㅋㅋㅋㅋㅋㅋㅋㅋㅋㅋㅋㅋㅋ
협동조합
사각지대
UAE
근력
리콜
불고기
피씨
무늬
혼나
관리비
토스
##구멍
##스프
1000명
기하
신기술
싸웠
가계부채
정재
팔레
취한
포천
##카메라
각지
모욕
##검색
세안
국군
##흐흑
7대
##릿수
이틀간
각도
##불편
소유자
##전이
##적자
외환은행
1호선
쪼개
피방
마구
들으면서
여럿
풍선
##아저씨
##중기
##구청
##왈왈
아부지
폴란드
##지정
##토론회
정보기술
뉴타운
알코올
아닌가요
##40분
날씬
##차기
과열
노려
담장
갯벌
모레
불출마
잣대
학번
##세자
2억원
사죄
##크라
빠져나가
다운로드
돈주
소서
어그
예보
중고차
더더욱
##회로
취업자
표절
낙하산
##아카데미
AC
연락주
충성
크레
##롯데
알써
휘발
제철
Ch
안열
학창
##양성
조합장
대항
##스톱
##실천
진상조사
강북
##구경
한파
##필드
##종이
##릅니다
##도시공사
다녀온
두배
무분
미모
혼합
동반성장
##센터장
떨어져서
##버섯
##청년
꼽혔
디즈니
##토록
##그려
배고픈
##격수
안전관리
의왕시
전두환
##ㄹㅇ
소속팀
##방어
##확대
쓸모
##계탕
국정조사
제1회
거듭하
CO
영리
할줄
##댓글
##닐라
안보리
갈께
##총생산
##갑니다
무관심
유정
낄낄
히로
##폴리스
수직
알차
접할
##위안
셰프
유머
전한다
박병호
성경
유래
450
여느
전대
지대
##자꾸
고립
밸런스
회고
##수행
##DA
아닌듯
클라우드
르노
도리
서쪽
복지부
케미
탈바꿈
##충전
퇴장
##우마
상설
열두시
적혀
주지
##입금
코스트코
##rt
프로필
8번
##다발
민사
##러졌
맥북
못살
바비
지음
쏟아져
배드민턴
엄정
주니어
한몫
티켓팅
아리랑
재보선
여가
춤추
1000원
방북
심층
연안
##모드
평균자책점
과실
##계산
도망가
김광현
담합
##보리
다스
입니까
연재
와이섹
re
벌일
전세금
골문
##나왓
국무회의
##4개
어딘지
서대문
세무조사
하청
##구도
##용량
##임자
##축하
##HD
강수
운운
DNA
##1개
시카고
사표
준비중
해수욕장
##추가
##ive
##활약
업소
18개
##ㅌㅌㅌ
특례
연구팀
사거리
어둠
모은다
덩치
##부탁
##요구
두께
해양수산
되새
쉼터
학살
##무사
2세
당당히
공립
클러스터
중앙은행
김두
절대로
챙긴
여러번
갈지
조롱
주택담보대출
생일선물
기달
비빔밥
아토피
외환위기
조속히
자막
##하고
##수육
##발언
방사능
여동생
절제
20살
액세서리
우째
입주자
5조
##일치
##심의
선장
##50분
##티스
##갤러리
피트
##중근
헤헤헤헤
ㄷㄷㄷ
##눈썹
하나은행
금토
서열
순회
괜차
원두
왜냐하면
맞물려
볼륨
봣어
대우건설
웰빙
어버이
망할
##보디아
바빴
회상
##도라
220
볼수있
총액
##봐라
따라하
경제정책
방사선
##수출
##그마
##그랭
는데도
거침
물결
##줄기
도정
머지
훔쳐
189
에버랜드
무능
1988년
PGA
유신
정관
패밀리
##실력
40명
내비쳤
특목고
LI
문체
에릭
1991년
##대화
제국
지롱
##인프라
자아냈
글쿠나
부의장
위헌
생전
정세균
돌이
##인단
##써야
수시모집
쌍둥이
##47
##6천
##러브
##협동조합
스러울
전남도
1개월
뭐했
봐야하
무더위
담화
신원
외쳤
##갈이
즉석
어디갔
챙길
##대국
전체회의
사외이사
##리나
##일때
##챔피언
꼬박
이호
웅ㅋㅋ
관심없
편의시설
휴게소
노골
잡아
##퍼니
걸려서
김학
##열심히
##해줘
공직선거
권익
냠냠
이공
풀려
허물
##제공
##표현
회사원
##유치원
거둘
내보
##절로
##자랑
##산성
인천항
밝힐
탐사
대의원
삼일
회의실
다기
##동맹
리버풀
각기
끝냈
사이드
어짜피
거아님
성지
잠옷
##미스
내려와
철새
##시행
##교환
정전
준대
볼링
일등
코오
##이라
##20분
텍사스
2라운드
전여친
토목
소름돋
토트넘
방구
##TO
##제기
국가안보
갔다오
7만
수중
컴활
트래
14명
미역국
##맨날
꼰대
멸종
풍기
##러워서
ㅋㅋㅋㅋㅋ나
##매도
해장
##논리
##체크
마포구
배기
불균형
주어지
준설
##유출
구했
조식
이루어진
광역시
##TS
##ell
쌀쌀
외화
해따
돌려받
##래요
기업은행
5인
##용수
드럼
##조림
담달
로즈
금융위
효력
##유리
유망주
재테크
캄보디아
##어가
주한미군
수산
##ard
괴롭히
공판
담날
데일리
분해
화백
교육비
할땐
KBO리그
차종
##채용
2연패
맞출
##퍼트
아이구
펼쳐진
못생긴
가급적
문닫
##깨비
소파
영산
갈꺼
에구
후쿠시마
##pp
뚱뚱
참배
##안오
자사고
##vs
병력
##투맨
진이
충무
한국시간
열일
##보라
헷갈리
주얼리
걱정마
##원자력
몰두
미성
번지
광대
돌봄
##컨대
낙관
보직
중딩
연락처
ㅂㄷ
간첩
본관
폭스
항암
가위
오십
유상
##장터
##바라
극한
일당
신작
##통계
##현황
##동의
230
번갈
저절로
##바디
클래스
윤성
##발생
연평도
농지
안개
첨가
ㅈㅅ
그니
재차
차근
나이지
다뤄
실상
인격
출하
##점심
한다는데
이르렀다
미혼
3억원
승무원
##ia
##재난
은폐
어떤지
은근히
여튼
왕따
같이먹
공산당
민관
엿볼
호구
차이나
보좌관
##맞아
##촉진
조아조아
떨어뜨
5곳
간섭
남용
조중동
##현동
##봣어
##컨설팅
거니
차림
취할
##다운
신안
잔류
화폐
##그제
다녀올
맛볼
친분
침투
##축산
찬스
15만원
##개웃겨
포켓몬
상습
전라도
청순
##흑흑
벗어난
##리더
##링크
너무해
##ine
노랑
AR
모던
##영리
열광
어울려
무한도전
6대
끓이
sk
간신
안한다
##집니다
정리해고
구직자
야심
거의다
##학생회
정점
전화통화
긴밀
분홍
예시
배민
수식
##웃음
진상규명
귀걸이
출품
참여연대
압구
파크
설렘
역점
##지급
##학대
##졸업
##기념관
모하
##모금
아니다
ㅅㅅ
남잔데
헤어질
한진중공업
십시오
올림
겸손
몇달
저때
지굼
참조
##과자
##그랫
##화력
##몰이
##튀김
엘리베이터
내몰
##콜라
성원
중앙선
구합니다
##든다
겨울방학
7개월
부들
##리터
기재부
해물
##49
##엔자
성명서
##어민
호두
##고래
안간
흐규
##소수
수법
당사
주입
픽업
꿀잼
불평등
개발자
반격
앜ㅋㅋ
캐시
화랑
##머신
경기지역
우우
누락
먹여
음모
이산화
##테마
가격대
인천지역
유튜버
##영향평가
##행진
거머
독해
탁구
심포
찜질
특권
그래픽
군포시
잡힌
##종류
##아파서
책읽
건국
신다고
양천
##기온
울릉도
게아니
그릴
이빨
오래됐
나이지리아
10회
빨간색
인줄알
살균
용납
원도
수잇
주워
##핑크
문자메시지
최경환
500원
가혹
숨지
##점유
운영비
변비
실사
폭락
충남도
360
등교
습득
양현
저사람
파인
##지우
망치
아씨
열망
창피
##30일
고추장
##화장실
피시방
였을
햇볕
렌트
산불
십니까
##실습
다른건
리서치
핫게
존맛탱
복습
손발
지극
##로로
##사유
100m
##편의
마술
박희
눌렀
안상수
풍력
##디스
공안
##세점
거덩
준다는
##만두
##10분
##다구
##껀데
검찰총장
아쉬웠
공예
손수
어휘
##장사
어때요
##자원공사
눈부
유수
학비
정신병
쇼트트랙
경기지사
건설업
##근로자
승차
체형
##대리
사단
우루
팔렸
##플루엔자
계룡
일찍자
포탈
제7
택지
향했
##디스플레이
갠춘
싫어
##ㄱㅋㄱㅋㄱㅋ
##꼬치
진행중
어마어마
일축
기본계획
활발히
고1
습지
아세
수업듣
효자
##침대
관리자
나이키
우선순위
느니
발명
판로
대학병원
풍요
향토
화분
들어선다
당권
얼렁
##퍼드
시범경기
가담
울려
잔액
##침해
##은색
콧물
##pt
##ews
무승부
엔지니어
중화
블라우스
붕어
한국사회
워킹
사놓
##육상
징수
콘크리트
신청자
연주자
3차전
뱃살
카이스트
고졸
공작
##레나
무분별
경신
홈경기
##자전거
두꺼운
도널드
커진
10점
제2차
생소
야나
감찰
본점
주파
##2000
선호도
그랑
##맛나
이재용
시국선언
해버리
##입시
무슨말
천지
##어려
##이뻐
동명
외관
##국적
아무말
6만원
치러진
1면
약품
##리바운드
투썸
힘듦
##게시
단톡방
잠잠
집행유예
고충
##이러
자다
##키키
카페가
가칭
고럼
##협회장
운동가
미친듯이
관문
졸라
##매출
어우러져
후계
##수목
언더
왕자
이요
10배
최연
16명
의료비
전념
##기도
##여지
그제
김우
의미있
손바닥
허무
인양
나뉜
퀄리티
##차근
##46
##릴거
원본
셔도
양양
천막
허걱
오키나와
보령
비만
##검증
창의력
##회식
앜ㅋㅋㅋㅋㅋㅋ
##민주주의
me
최태
##복무
공권력
과언
전반기
결의안
멘트
잊어
출처
치러지
의구
##한당
조직위
112
이말
환수
한국경제
일거같
집와서
초월
힐러리
어디있
명실
##사인
##포함
불거진
끼치
옆집
치킨먹
애깅이
모쏠
못알
벽화
##생겼
움직일
맹활약
먹방
죽여
##ear
##강좌
##플레이션
윌리
##OS
##장애인
관련자
강기
나더
도매
파생
급변
롯데그룹
살린
어젠
CS
웅응
뉴욕타임스
베스트셀러
##드릴게요
각광받
낙지
##사법
##ha
닭갈비
참나
많이하
단체전
회복세
##소방서
항구
##꺼야
열등
희희
##관리공단
답사
##1회
##팡이
기초단체장
가명
택했
실책
##고추
##브란스
마음속
내려갔
위임
일리
##기다리
민정수석
색소
양아치
채점
사리
조광
천년
##스탄
탐색
나경원
잘못하
왜이리
교역
##지휘
F1
땡겨
지킨
참전
행장
##효진
인스타그램
##레저
친이계
담백
소멸
우월
지쳐
태백
치를
회생
푹자
들어섰
주거환경
민트
##ort
5억원
엔씨
커트
대단히
뭐있
오승환
##위주
데이비드
쓸데없
1곳
온통
화산
##눈데
의구심
108
메이플
스커트
종아리
차명
##자국
공직선거법
계올림픽
긍데
붙인
악몽
이소
네넹
우뚝
##프터
알아봐
리트
편히
##이번
간대
거센
합산
성장동력
대가리
수감
육체
##이론
해도되
##PP
##자르
##런치
##교부
고로
2020
모형
석방
유익
4주
각인
##후반
##질러
커뮤니케이션
트라우마
가결
##장판
##투기
##상사
##절기
##무장
으려구
보행자
연면적
짝사랑
치른다
침착
가산점
##ㅠㅠㅠㅠㅠㅠㅠ
려구요
산업통상자원부
부응
##자녀
##동포
빵집
청양
##라이브
직영
##6일
##7천
계약금
사제
식민지
아찔
##ㄷㅋ
조직력
##아프리카
배불
신형
##내셔널
전례
##꼬리
극히
연예계
유산소
차근차근
거시
이방
##인재
##이네
20세기
랜드마크
##강점
서방
연정
종업원
##기야
간다는
따냈
##지원사업
거려
변기
비우
##허브
김문수
흔하
##러기
온전히
간주
머쓱
##ld
당론
산출
접한
##분위기
한수원
##감각
##코치
눈감
##HO
오차
잘지
일제고사
보살
금융위원회
한신
4가지
갈듯
사고력
근원
양해각서
시가총액
저널
##eb
연기력
노르웨이
아뉘
절정
점거
문턱
사투리
용의자
윤곽
프레스
허정
##수산물
##장난
삼전
소련
안희정
올린다
일화
##성공
##단말
웅웅ㅎㅎ
김영란
수신료
In
깊숙
주심
임박
종북
집들이
기억안나
이승만
그친
랜덤
##폴리
ㅋㅋㅋㅋㅋㅋㅋㅋㅋㅋㅋㅋㅋㅋㅋㅋㅋㅋㅋㅋㅋㅋㅋㅋㅋㅋㅋㅋㅋㅋ
한미FTA
아바
핀란드
라이언
KB국민
아홉시
잊혀
심리학
집안일
성립
정반대
2호
근접
맞벌이
##공유
##때메
공헌
버틸
가디건
##지하철
##해하
지휘자
##자주
##살까
정규시즌
트레이닝
연령대
세단
용이
##감정
##항쟁
청소기
과하
발랄
지면
##세일
##농단
ㅋㅋㄱ
석유화학
거아녀
종사
김재철
드만
성질
엉망
##베스
##폭풍
데님
독주
이송
##셔리
##에에에에
타이틀곡
껍질
분배
##부여
끼워
레포트
브루
사바
우리말
연세대학교
안티
처우
##준호
그럴때
나르
시립
정석
##후배
성황
한다구
기업가
벗겨
순찰
석면
##피셜
버거킹
##이게
##상자
추울
아울렛
##조달
SW
드립니다
법칙
기술개발
SA
모호
ES
비영리
신앙
##비싼
외상
윤기
팀원
##6개
2기
포격
##거부
##마루
##남동
경보
대수
살찌
##라미
갔다왔
##98
##맥스
칠레
##평론가
중앙일보
달력
싸워
파손
##iv
놓쳤
옮김
##스타인
체크카드
달걀
오찬
흘렸
100점
해외시장
금산
##오카
오리지
견학
찰떡
##연휴
CBS
다산
코앞
하얗
흉터
다녀야
카톡하
전투기
간혹
그치그치
이정현
서브웨이
군부
낙태
완주
##시계
비주류
코로나때문
보스턴
일까요
나이트
샤넬
##에프
은데요
생리통
##논패
##요즘
##운지
다문화가정
##탱크
불합리
거둬
나흘
맨투맨
장남
거있
강간
강민
식빵
전광
어느덧
가져온
다이아몬드
데여
입장료
김석
와플
유류
##말리
##PGA
##자산운용
##착오
##차림
일으킬
한두번
등기
양반
여우
##단속
##재원
이쁜데
서남
아산시
안고
복직
사달
치료법
우물
완성도
노란색
구르
무안
순차
페르
##다스
국정운영
KE
변해
##이런거
마포
내야
유무
내다보
##여보
이건희
반포
오너
##다듬
신진
어후
##기대
##지회
이양
즈음
125
당면
살릴
성악
소명
해유
##딩스
ㅋㅋㅋㅋㅋㅋ아
어둡
지금껏
아이언
##국인
##RT
빡빡
##안남
100억
잘못됐
무드
팬티
넘어갔
##저널
##ㅓㅓ
##김없이
복도
##67
백업
홍익
##인가
25개
7만원
불닭
소심
파헤
분향소
##졸려
은평
국제대회
문화재청
될수
통치
한ㆍ
이나마
에듀
유진
합당
액정
정현
##생제
계절학기
보낸다
는걸
동거
##모리
##엌ㅋㅋㅋㅋ
200명
공채
불렸
##스틴
##우수
는고
릴레이
열사
##살인
시범사업
8위
잘때
크라
구치
굳굳
수돗
그랬었
계급
베란다
안된대
부친
판다
매일매일
##봉사단
끝낫
봉쇄
우리엄마
2루타
숨겨진
코믹
자유학기
롯데월드
1989년
해본적
두근두근
정주
국도
깨우
이범
예컨대
##책감
투자유치
외로움
동호회
몰러
##이해
김모씨
나감
##봉지
##리포터
강철
시연
서울중앙지법
복장
국내총생산
대두
옮길
푸짐
##ers
##15일
3차례
##표준
속내
##승인
한마당
실려
파키스탄
치고
다른곳
승패
##악산
##봉투
##마스크
##두개
파랑
ETF
미얀마
편법
13년
##사업비
미디어법
9번
##마련
나진짜
##날때
담양
승강
##영수
##중요
##00만명
네이비
##비서
사라질
##브이
##감시
현대그룹
소식통
루트
삼십분
영종
##깅스
샤브
서예
틈틈
##쿠르
개웃곀
연행
할건데
자기전
이근
밀어붙이
na
부엌
억압
##부동산
ㅠㅠㅜ
리베
표적
##43
케이티
300명
속출
##새우
##교정
단가
##68
##스트리트
ㅋㅋㅋㅋㅋㅋㅋㅋㅋㅋㅋㅋㅋㅋㅋㅋㅋㅋㅋㅋㅋㅋㅋㅋㅋㅋㅋㅋㅋ
당직
한의대
전기요금
방수
비틀
##ue
첫해
둬야
구비
상점
화살
파란색
봤었
초선
##샤브
공업
센트
여사친
금전
네에
총체
팍팍
사람있
우승자
1970년대
놀래
악순환
드라이버
기승
도라
##거렸
##7일
##올랐
##❤❤
오스트리아
순조
코인
혼내
ㅎㅎㅎㅎㅎㅎㅎ
육수
텀블러
##MS
60세
한마음
늘어난다
내돈
사임
##8천
##ly
##막히
아프간
레슨
##바탕
돈내
양당
저수지
##엌ㅋㅋ
##문화유산
자연환경
강씨
세명
해역
##텔링
귀여움
낙후
도랏
사탕
탄수
합창
안산시
##상위
##춘기
##파워
상쾌
행안부
##소프트
속하
##기경
##만드
##소녀
##막이
보내준
일제강점
여만
구인
나물
둥지
흘러가
메모리
계명대
반입
유튭
징징
초음파
##는거
기수
매콤
안구
안만나
코끼리
##으니까
스타디움
##9일
##태평양
고등어
색감
입안
공휴일
유서
##💚💙
야권연대
ㅠㅡㅠ
난감
퍼져
##경력
11년
교통안전
장어
카테
##닼ㅋㅋㅋ
가득하
서랍
##원인
##변호사
골목길
웅ㅋㅋㅋ
해봐야지
강정호
##클로
박준
보스
원어민
##게시판
끊기
안걸
##이하
##그린
##톡스
권한대행
환산
##연애
휠체어
##빵댕이
16년
민폐
##강정
한국영화
해야겠다
물어본
결산
섭섭
조씨
##대왕
##스님
##슬라
김일성
수돗물
내놔
문제지
9천
결함
리비아
별일
##다하
윤석민
공과
##🧡💛
기엽
##우병
대표단
방송인
숨졌
##공구
산책로
럭셔리
안면
벌어질
못생겼
##저나
계약직
LG화학
ch
모처럼
경제자유구역
로우
소니
##교육지원청
주민자치
정해지
독거
배임
임창
제조사
패논패
##리지
##직업
이효
##마셔
동국대
##가짐
말씀드리
비밀번호
가처분
내시경
사치
출루
황정
##데타
##폐물
결승골
더한
아냥
전승
##표시
물어봄
게시물
다투
로드맵
삼계탕
섞인
클로
일으켜
사우디
나듀
살살
장타
##안해도
##성명
박승
고통받
뚝딱
반사
영예
집사
토하
17년
여유있
##빵댕이빵댕이
미투
오만원
의사소통
6차
실린
절로
시댁
아아아아
##국밥
외래
턱없이
밀크
틀림
올라서
역세
##누르
날카로운
아크
총기
타깃
어린이날
SOC
보냄
양궁
내지
도당
요번
##사위
5경기
8만
기탁
차선
출고
##혜진
재정비
결재
상급
해산물
##볼때
가드
대졸
송영
장이
봉사단
##서기
##지도자
시책
에고
여력
##광주
##번지
##이행
송이
에세이
임시국회
로스
올인
##손해
최영
대인
따위
만회
전문점
빨리가
스케일
우상
해발
##금고
##형태
##홈쇼핑
12시간
의사결정
##ack
그다지
박명
해떠
미적
잘사
##독립
일대일
김태균
아낰
##쳐지
해야징
매개
무심
비위
선발투수
교통비
남북정상회담
일텐데
##타당
다쳤
분실
아따
잡혔
조계
##여금
전통문화
##협의체
제때
서기
줄지
빠져들
매칭
##단다
##은데
부수
자이언
60년
법학
진통
##모터
속눈썹
##마킹
경로당
내건
빵빵
예비군
실수요
##특별위원회
잘한다
정류장
진짜루
으셔
##제조
세르
친숙
개표
신태
추우
빈번
곤두
전향
##논문
급급
통째
도배
정계
금속노조
수동
환경단체
##상품권
독창
이놈
케케
비벼
떠서
저서
추기경
##부산
165
그만하
가있
로망
불거지
빨강
##시당
##요청
여자분
##ㅋㅋㅋㅋㅋㅋㅋㅋㅋㅋㅋㅋㅋㅋㅋㅋㅋ
사이클
인사말
미주
##기원
##AA
서울고
##농성
균형발전
으라는
잠자
##떡볶이
##저래
##센치
사랑니
부산대
##유형
올라섰
##어어어
코오롱
소방관
뭐뭐
양배추
##은편
더라면
문화유산
##50원
목욕탕
유흥
이긴
##주변
##프스
##🧡💛💚💙
의원총회
##인천
쓸쓸
##과이
이뤄져
휘발유
##모로
##맞추
이산화탄소
##귀찮
##테러
건강관리
일제강점기
##삼진
올리브영
돌연
안뜨
약속있
귀한
한의사
##합병
구워먹
윌리엄
못갈
빌라
숙성
유통기한
안착
조이
팔꿈치
##백원
왜이러
답안
발리
바이올린
##고양이
VIP
##어붙
도수
생중계
##8일
자요
##더워
해야할지
야말로
ㅠㅠㅠㅠㅠㅠㅠㅠㅠ
마주치
기말고사
국한
대승
재래시장
고를
덜덜
라규
안봐
##our
의료기기
느려
포진
##운하
##폐기물
1기
총파업
곡성
담겼
숙명
촉발
전망대
##으면서
이세돌
복권
슬림
신당
이어서
아픈데
대사관
갱신
끌리
독보
믹스
웅장
##진심
가래
농부
##목소리
생각났
10개월
원단
잘살
##사상
175
첨부
##안쓰
꺼리
다중
원심
유라
##창고
스포츠토토
테마파크
유관기관
제니
한입
냉동실
첫사랑
시니어
혼인
기점
원더
실업급여
5000만원
어쩜
이랫
##42
053
번개
##익수
하여금
달빛
##간당
양동
하이라이트
간신히
갑상선
자켓
흘렀
##공산
##연구소장
it
감히
거취
두뇌
유격수
##그네
누굴
찬물
##관실
##큘럼
ㅂㄷㅂㄷ
갈리
매너
비꼬
엊그제
잇단
화끈
##면세점
##위반
한학기
##어쩌
##담주
25전쟁
너머
흘려
##♀️
기초생활
##🧡💛💚💙💜
밴쿠버
비단
폐막
##대결
##문화회관
가로수
고프
예결
다행이다
3점슛
NLL
워너
내성
페어
고공
자처
##ight
교도소
이희
##ㅇㅇㅇㅇ
안가져
1주
##78
##경남
25명
협의체
대국
가창
구직
김신
버즈
의치
##건수
정몽준
SC
넥슨
서재
##지인
호흡기
두유
막연
적혀있
뒤진
인위
해리포터
오래되
섭외
치가
##전사
진보정당
어울릴
허위사실
명문대
농약
도루
일련
침략
##스톤
추운데
##DB
스위치
공용
월평균
피터
함량
##장려
스탈
행시
##가을
##분리
##무섭
##연수원
4승
##건조
##겁나
모지
새거
생수
실태조사
##디스크
##대책위원장
##사령부
북적
최고급
시즌2
PD수첩
해군기지
학생부종합
앙앙ㅎㅎ
파울
포즈
##페어
2019
40만원
8만원
평면
##10일
유교
알려줬
##다는게
아쿠아
##퍼시픽
거쳐야
납입
호투
가져갈
빠져서
위례
유령
인대
안보내
찬양
사회주의
건설업체
복싱
주당
성과급
해남
##사찰
##개발원
어민
##눈물
as
난이제
재확인
##다닌
신경전
5m
껄껄
##세이브
안듣
##서원
바랄
우량
차등
##진구
115
서해안
매운거
밥묵
야경
유방암
가마
꾸리
한마리
##증상
185
머물러
##ass
제격
##피니
살아갈
히어로즈
내실
바꼈
짜파
##종원
##ud
저지르
돼도
옄ㅋㅋ
##주택공사
고질
단서
서성
##매니
##경우
장교
대학원생
##아트센터
##플래
무너졌
무더기
대마
응가
일깨
##의실
##연극
##합격
##타입
##약자
##타기
오래걸리
몰락
아모레
##ㄱㅊ
##ㅅㅂ
기류
영농
줄여야
##지침
국민건강
평상시
칫솔
##ill
충실히
구형
내륙
일곱시
개구리
생략
수량
오래걸
문인
화답
그놈
꺼져
보온
쳐도
학관
승소
탕수육
공사비
녹지
##프란
15만
벤치마킹
진하
##관념
1초
3박
동전
일감
스폰서
일쑤
지부장
2장
CF
마요
볼트
##이양
##해석
슈퍼스타
유재석
성산
원점
##릴라
지하수
신혼부부
기습
##살리
지배구조
7억
bnt
로버트
막힌
애써
추상
콜롬
##향상
안좋아하
관전
상고
읽씹
조업
##랙스
머금
이노
장동
쪽팔
찾아볼게
비관
잘나가
자재
사줄
##현안
높인
능동
베개
두려워
발렌
##선거구
앞세운
커리큘럼
감격
푹쉬
##모자
##특별법
WBC
들가
비과세
##출구
##zzzz
근간
몰린
사귈
피디
품종
2021년
적절히
ㅋㄱ
동그
번영
커져
##시도
##연봉
어려서
핫도그
##정의
세계인
자신있
18년
난리났
안타까움
ㅋㅌ
치중
##앜ㅋㅋㅋ
지켜본
##주인공
##스케이팅
##가공
##오버
멜로디
##호가
18명
단추
안뇽
틈새
##처음
3일간
##자치단체
07
강등
거쳤
넘길
였으나
만든거
##one
가자
고독
삼천
후폭풍
겸비
본문
##집중
2000만원
3호선
관철
하느
전문대
KAIST
날치기
상반
##십리
홍보대사
묵묵히
소홀히
구마
절친
##치마
바래
##ex
스토리텔링
내사
양대
에반
##도르
##마디
학교장
외교관
뒹굴
성서
스며
들여다
A매치
주범
지이
여행객
바꿔서
기울여
원산지
##데리
##돼서
보상금
것다
예천
##우회
##릴때
동반자
성수
완치
##증가
##연차
독립성
몰라요
##어떻
주파수
wh
경감
약대
##된다고
##초밥
50개
##추위
후보군
얼만데
신정
통역
naver
웨이브
4년제
안그러
최민
19세
불허
##렁이
외교통상
ㅇㅇㅇㅇㅇ
이산가족
리포트
수퍼
마음먹
만나볼
##책임자
정동영
환경오염
1986년
오리온스
무색
한성
##모토
##격차
내준
복선
##자신
닥치
##간접
연구기관
타고난
공보
다친
다거나
고생많
2등
요오
유부
##르바
##날씨
##소비자
트로피
막차
소치
거래량
전남지역
대담
딴데
부쩍
비방
음대
##가동
##껴서
이정희
꼬마
##틀리
미친거
마루
말걸
환장
##승진
##멤버
그랑프리
7시간
##이스터
숙취
편향
그레
마장
연준
큰데
소득공제
명예교수
9위
보너스
임종
##갱이
188
물리치료
경상도
##31일
정돈
##pa
과거사
아가씨
2급
할려고
스리
잘해서
죄책감
차익
텔레비전
영유아
만세
윤종
타투
##유공자
그럴거같
급기야
엄두
불러서
왕성
기반시설
적립금
미묘
세계랭킹
정수기
##에어
고구려
중원
##GC
대치동
##전국
플랜트
강했
어업
최재
지구촌
도우미
사옥
입결
이럴때
##그리고
열심히하
경기도교육청
##이이이
컨벤션
##도구
##휴양
##아니스트
생산자
활동가
상담사
누비
반감
##올거
끊임없
맞선
발열
선뜻
##입학
교육환경
고소득
맞은편
담겨있
사교육비
동조
육지
이여
##신탁
개신
순례
장씨
중간중간
SSM
벗어날
폭우
관광자원
4경기
손색
참신
하군
만든다
대법원장
정경
입장권
최연소
연달
장래
학식
84㎡
거장
넘어지
채웠
##BM
##차단
##낭비
##루트
시뮬
허술
##1억
##라이더
농식품부
적대
##LED
##슬림
단독주택
##ood
##ti
해야대
누리과정
몇분
혼밥
그랜
원대
500m
LS
sh
이규
210
김영란법
모셔
포용
##인성
##시스코
##드립
##ㅋㅋㅋㅋㅋㅋㅋㅋㅋㅋㅋㅋㅋㅋㅋㅋㅋㅋ
국방장관
두바이
##온다고
##ub
EC
다져
도깨비
저감
적법
총학생회
##상스
##32
사춘기
타워
##나미
들어옴
들어온다
객석
담아내
화목
빌미
아슬
엌ㅋㅋㅋ
컨텐츠
##내외
##카르
##캐슬
운전면허
대북정책
깔깔
당협
소진
##개웃기
언제오
냄비
##상대
270
탄수화물
ac
가나
올드
파나
경륜
저주
홍명
##형제
세계경제
내포
##학술
무성
##개입
##79
그런사람
김부
합쳐서
까만
최형
프린터
##ook
2등급
ex
공표
들렀
듬뿍
##나기
##플란트
못한다는
꺼같
똑바로
장신
철폐
##7개
경기도지사
발부
애틋
##69
아메리
에드
재앙
후보지
기준치
계양
왔다
주작
해드리
##무라
##달리
##뜩이나
달라진다
리딩
횡단보도
시어머니
##ice
으리라
생신
아아아아아
울음
편도
전경련
레깅스
##이즈
허정무
봐줘
카운
테이프
검사장
공정거래위원회
재외
체코
##제국
지주회사
광우병
민노
숨쉬
가봐
거자
입당
##아라
노점
주일
지체
국화
대나무
들중
와씨
라스
무제한
뭐사
그만둔
부끄러운
세밀
##상부
##부름
##합창단
##취향
##뮤직
떨어뜨리
##관광공사
##계약서
LNG
오줌
##IN
128
14년
논산
##노소
1200
그칠
윈도우
파동
##요양
너무많
문제없
2만5
니꺼
다나
따흐흑
밀렸
##렐라
알려줄게
뽑혔
##사과
##탐구
고마운
HD
원망
2007
그나저나
본회
중남
아웃겨
용산참사
갖춰야
엇갈리
압구정
가뜩이나
명심
창간
항생제
환원
넘어갈
콜센터
포크
경복궁
브런치
IBK
인자
##공기
역전승
다졌
독학
세브란스
전장
##부스
사이다
##짜증나
상추
##구청장
그런가바
단과대
운반
한여름
조타
이쁜거
실업자
놀란
원했
한애
안물
우드
유시민
100원
지켜주
##ess
간병
김구
카페인
띄우
##제리
어떤가
여행자
종영
한국노총
아시안컵
우즈베
극도
세울
올까
##활용
나도
심해서
장례식장
여객선
보훈
울주군
제각
전방
늦추
생활체육
##보조금
뒤쪽
듀오
무이자
박세
불씨
세시간
##내장
가본
타구
따라잡
현대차그룹
임시회
3연패
사준
부추기
취임식
고분
맥도
직격
##테르
아니얌
그딴
됐었
챌린지
##뭔가
행정관
내림
##64
##수련
##발라
성북
이점
##해용
조선업
주어진다
쫄깃
풀렸
당정
마블
해ㅠㅠ
물어볼게
땅값
자유학기제
네팔
청각
하아
##보인다
강당
피아니스트
후우
수출입
의정활동
구급
명상
이국
진열
기념일
KS
김범
똥싸
##재현
사용자
사시
호조
패권
ㅋㅋ나
평창동
손꼽히
문신
이보
표했
CGV
문체부
실수요자
일품
##중단
미래창조
한라산
꾸민
성수기
윗댓
한국토지
##ll
##넼ㅋㅋㅋ
북한군
지식인
과감히
잘해야
인증샷
##마라톤
##여곡
##라인드
##논술
NS
써주
애프터
이관
패스트
##개장
1이닝
꿀잠
리오
##느끼
국보
2006
다시보
공무원연금
아스널
접어
직종
##버터
##플레
이런걸
반바지
배그
실속
탈세
선제골
개국
골랐
사극
안목
오천원
푸틴
##분과
모토
수년간
자괴
통틀
##아닐까
안도
제육
##63
학생증
올라간다
국무부
파우더
식이
##살때
프로그래
메이커
모른다는
비트코인
외형
이바지
자선
재능기부
초록색
잠수함
##둬야
수영복
국책사업
그른가
북극
승계
정대
조승
##만화
불타
흐리
##찰청
어떻게든
##맞음
인천시장
태화
##라비아
##챙기
적시타
프로듀서
될때
##비즈니스
마음가짐
##교육과정
씨발
앜ㅋㅋㅋㅋㅋㅋㅋ
태그
##엔진
정책위의장
태세
휘둘
3000만원
밀린
안살
근로시간
스릴러
루이스
였으면
외박
일간
파주시
##거의
대학가
장외
까다롭
보냇
생협
수선
펼쳐졌
멀리서
9개월
군위
대책위
홧팅
##안대
사용량
그쵸
알릴
헤헿
유통업계
6ㆍ
아고
종결
##기초
가져갔
그린벨트
최성
광양시
아세안
6곳
요령
환하
##안받
##경색
오리지널
모스크
##ㅜㅜㅜㅜㅜ
무지개
견뎌
늦춰
몰카
맥날
알맞
촉각
123
남녀노소
따듯
시련
풍자
##노미
의미없
잠자리
18세
조그만
##디야
25년
##쇼핑몰
스티븐
##발표회
미성년
##키아
는구
##오페라
샌프란
제왕
대역
열연
축복
##난방
건넸
내셔널
정복
##체능
제3자
길가
프란
##폐합
10곳
260
의료관광
중소기업청
옷장
지휘봉
극찬
박현
오져
##마드
17명
골라서
낙선
다보
이랜드
##오른
##년기
귀환
남학생
##일기
공공부문
라지
##원리
사방
알렉
이변
##대서
##ID
문대
월등
##쳐야
구슬
쳐다
##로라
##89
보내줘
누가봐도
신생아
상표
요리사
나날
원만
히히히
건국대
##포스트
십만원
트렌디
정운찬
70년
줄인
##부자
1대1
어김없이
추궁
보내줄
강국
세이
숙원
3자
김소
압수
사지
서현
서두르
연구자
행정구역
3종
김효
법대
세분
##라노
##아산
##물리
금세
에르
최진
행렬
강서구
거미
된데
반경
원스톱
##속기
전문인력
녹취
엌ㅋㅋㅋㅋ
검색어
2022년
무너진
개점
도로공사
못봄
##ra
##휴직
정비사업
자괴감
뜻밖
중징계
##초반
어려워지
##디아라비아
90년대
80년대
sp
모태
얼룩
경제활동
질리
체지방
올라간
무방
한문
##오케
출근길
방송통신위원회
우파
구석구석
PB
유한
초상
##매트
여러모로
느껴질
올려야
순방
지극히
안어울
태권도
##교양
##레드
고기먹
스킨케어
3국
전립
##네상스
까다로운
남음
##ㅠㅠㅠㅠㅠㅠㅠㅠㅠㅠㅠㅠㅠㅠㅠㅠ
개부럽
국공
정립
커튼
명실상부
당혹
미생물
내려왔
김태호
서명운동
##통수
##베트
몰랐다
##화장품
놔야
리본
##ns
세계대전
여름휴가
라이온
박인비
ㅇㅁ
안넣
유저
##트릭
##커플
##클라
##불교
라는게
사우디아라비아
매트리스
OS
초빙
다가온
맘편
접시
치부
CNN
가문
장염
##졸중
정신건강
동요
못참
질러
창설
충동
102
얼마정도
삼성S
기념품
배출량
##전시회
그와중
식감
##화폐
##벌써
280
정품
캐리
##필름
##물류
한명숙
안달
추이
##연구회
슬리퍼
김보
미처
##orea
좀따
##ff
한진해운
나뉜다
아우디
반기문
난항
더러워
##청원
기만
젠장
퇴행
다님
해커
맡길
오미
졸려서
##이렇게
##홀딩스
개빡치
경마
지방재정
대전지역
AT
마중
몸싸움
##보단
##태영
신자
냐며
때론
말기
쓰리
오마
##74
국가대표팀
스쿼트
관통
말미
종가
테이크
경합
도피
신예
유의
총리실
노조원
안된다는
생겨나
문성
소양
이철
크으
##유발
어제도
귀가
##닼ㅋㅋㅋㅋ
체험학습
못햇
작사
재건
찬사
배워야
안일
재정부
전방위
제9
##문화원
##ick
2달
다있
매실
요일
트랜
##계정
##커뮤
ㅋㅋㅋㄱ
구조물
AFC
돌릴
##스탈
##블로
발돋
평점
흥국
연구결과
웹사이트
비효율
산모
##공공
##숭이
##기술원
오른손
객관적으로
당함
방출
##어냈
##연계
홈플
##회전
스캔들
구절
꿀팁
디스
삼십
생크림
트렌치
##호르몬
초미
생긴거
바삭
써야지
악수
의의
자수
자책
##에르
그럴걸
신뢰도
##한잔
금융사
김도
될걸
신명
재구성
지독
찌르
##먹이
##반찬
##변동
25분
깨워
한국수
아이오
트레이너
아앗
야동
청라
##유가
10시간
일찍가
미래창조과학
달인
몸값
작물
호에
##응답
ㅋㅋㅋㅋㅋㅋㅋ아
ㅋㅋㅋㅋㅋㅋㅋㅋㅋㅋㅋㅋㅋㅋㅋㅋㅋㅋㅋㅋㅋㅋㅋㅋㅋㅋㅋㅋㅋㅋㅋ
70대
리모델링
불매
##공감
버릇
직속
##어케
##제출
##안햇
2000원
스키장
남주
유언
이니
현미
드러난다
테크노
남사친
에디
쟈철
##실태
남동
볼수
##건전
##부들
권오
극우
낭독
미시
야아
자퇴
시험보
미친다
##ant
도왔
테라스
##돌려
##몇시
인성교육
장바구니
6000
맥스
본다고
여분
일삼
##혐의
기관장
CP
마녀
방울
복근
블라인드
유로존
개수
충고
##실히
##아니야
##올라가
민노당
우즈베키스탄
샌프란시스코
강인
서포터
심혈
장흥
##천동
관련법
들이대
잘알
##지방법원
부가가치
요지
정종
좁혀
카르
##문예
##ng
시장점유
신기록
알라딘
노폐물
마지막날
동물원
모티브
##로봇
##불리
방학때
다우
돈가스
제작비
나올때
1970년
Re
끄덕
다들
##화고
##희씨
달해
예체능
자민
포카
100대
BB
보선
전한
그런식
두껍
티저
##마비
##GM
사물인터넷
TO
연도
의향
채식
태연
##위생
##블루
시킨다는
선크림
오죽
##프린
##판결
스위트
##균형발전
##여곡절
내전
동경
뭔말
빙수
적중
타운
폐렴
헤헷
##ㅋㄱㅋ
135
런어스
장편
받아들여지
누렸
캡슐
##생긴
##디지
##보호법
다길래
이쁨
줘야지
참관
##그레
는커녕
##아슬
포털사이트
도래
레오
스티브
쓰러지
월스트리트
저력
##단가
놓친
말려
암살
태광
토일
##설치
검정색
게으
할인받
유희
잡음
재일
창녕
1세대
음향
##위성
500명
더나
이브
점장
##기법
연구진
가르침
안동시
도울
웨이
농림수산
우여곡절
탈피
##장학회
##간히
##ect
youtu
3000원
농심
중3
펑펑
호황
##려나
##뮤지컬
얽힌
일터
##라나
국무장관
태블릿PC
월간
##주제
##분쟁
##9천
못한다고
좋아해
5급
교촌
응하
챙겨야
왜저래
간소
라곤
막장
모노
##FP
광주지역
갈게요
금수저
다매
발돋움
비스
천만
특사
##소환
강정마을
IOC
널널
올만
##사격
##학급
얍얍
초연
##언어
방송국
지켜봐야
신한금융
일어남
주세요
##교차
##라이언
내린다
##좌석
##오오오오
int
들린다
찔러
쿄쿄
피임
학장
##초교
당직자
부하
찌질
##따로
학교급식
구내
귀족
산다고
안와서
해답
##트레이
인삼공사
무의미
정글
공격력
신태용
견적
구본
모듈
복면
촘촘
##성과
고마움
응ㅋㅋㅋ
이통
건너편
뇌졸중
박선
시름
웃곀
인적
뽐냈
어서다
되있
##키우
민간인
살아왔
이재오
수서
척하
##케익
##볶음밥
댕겨
콘돔
##주부
##삭스
이런말
집어넣
##스퀘어
##300
콜라보
넷째
뮌헨
##오름
시크릿
보라색
로열
세기
수평
형국
물들
쓸거
합정
호오
##떨어진
성장률
끝낸
본가
천정
했어야
##터치
재판장
귀띔
인허가
관상
국영
번복
해했
##회비
일어낫
면도
불문
수트
##모스
망해
반년
출사
칼슘
20억
총여
할사람
##사무실
##나갈거같
카테고리
제천
집합
##편지
상장사
개각
여직원
왜이래
##도움
##불량
##퓰리즘
안나왔
전남대
##안전처
중남미
6층
전업
##외국어
들어감
브로커
##2회
교육장
무악
##2패
##존맛
##딱지
출연진
촬영장
남북한
불명
윤상
##전통
수식어
생방송
저해
추카
현빈
##봐주
폐해
##2억
##야대
##무새
절대평가
##온도
재정위기
완성차
뒤편
일간지
##바꿔
그럴수있
보낸거
더러운
안타까워
던질
애완
오뎅
외주
##임대주택
그물
백종원
아몬드
##저분
시각장애
꾀하
왼발
##리케
##자락
##메이드
##ove
떨어짐
안해봤
##스테이트
박기
##이모
하나둘
무서웠
실은
치닫
19개
다뤘
떡국
채울
##대사관
권하
짜장
춘천시
##독서
물어본거
1000억원
가락
##31
아직안
##ㄱㅋㄱㅋㄱ
서울시교육청
너꺼
세이브
열한시
유심
한순간
헛소리
##노스
##사업단
##운동연합
김관용
독거노인
만연
상기
자아내
팝콘
폭등
조형물
다방
전현
최희
흑백
가리키
현행법
발라드
왔다갔다
7급
사줘
팔찌
##레이트
서비스업
센트럴
벼랑
성토
골절
굴러
론칭
이체
##냉면
받아들였
고영
선조
열애
절평
##AR
보이스
싱싱
조급
##네트
ㄷㄷㄷㄷ
교토
##두기
##빠져
행정자치
획기적으로
앞당겨
심포지엄
2∼
불사
심경
해조
어버이날
바쁠
##ast
##택배
스타일리시
아픈거
검열
구여
##ㅇㅅㅇ
##끝내
김영삼
보쌈
쓰인
얼릉
요트
자랐
OK
직위
##만금
##요미
국정농단
대구시민
연장선
갈라고
굵직
건보
##ㅋㅋㅋㅋㅋㅋㅋㅋㅋㅋㅋㅋㅋㅋㅋㅋㅋㅋㅋ
점심때
무등산
감행
예아
##자부
무거워
동굴
##잘알
##근육
##덱스
내려갈
움직여
임플란트
침입
학교가
지나갔
##28일
사계절
신림
##CE
휴먼
학생부종합전형
또라이
그림책
철거민
부츠
응ㅋ
##이니
##고도
우스
급성장
놀랬
수순
얼어붙
지네
##블랜드
##채무
라오스
사나이
색채
설대
슬쩍
헌정
##충격
장례식
머무르
1패
신씨
자가
##호영
##입찰
##̣̣
서울광장
오래가
더민주당
제네시스
TH
어지럽
공언
싸가지
익산
전폭
##마치
대구은행
오른발
부장검사
해저
##닼ㅋㅋ
관절염
고루
삿어
생가
주스
##해수
##화질
##올려
헤어스타일
남겨두
못지
베팅
변한
소사
우라
##파이어
송년
##이면
학창시절
격렬
달할
멘붕
슈즈
입히
피크
##대식
ㅋㅋㅋㅋㅋㅋ나
전화기
##산업체
수학여행
김시
살포
옷입
자갸
터전
##외고
아무데
구강
덩달
백운
차마
쿠나
쿠데타
장애물
기념관
유니버
웅진
잡스
홀리
##지향
##슬러
지방대
##운동본부
광명시
대강당
개업
맡겼
토니
##더미
뎈ㅋㅋㅋ
봉지
살수
세인트
##성이
##베이션
하루빨리
2종
들보
재심
타점
한국축구
해야해서
##201
잘자요
공무
주권
##상정
##촌동
블루베리
샤브샤브
오모
최전
##1동
금상
동산
이천시
일궈
##보트
여성가족
땅콩
##제발
##보낸
##따위
물어봐도
화학물질
박석
함ㅋㅋㅋ
##사퇴
##커리
ㅋㅋㄱㅋ
비대위원장
5㎞
파병
할겡
##3억
##번홀
케이블카
6조
##네이션
인천국제공항
##제철소
넘쳐나
공교
통폐합
가전제품
남동생
더할
##여진
들썩
매끄
면치
할배
흡입
저질렀
나열
눈매
솜씨
문제제기
끌려가
레지
초라
거래소
##바이러스
바뀐다
거등
재협상
##국립
##겨워
대출받
느껴져
장만
경기도의회
당기순
mb
빗물
제8
스킨십
구애
함ㅋㅋ
##버튼
다른애
사회학
기저귀
##운데이션
안할거
김홍
메우
자초
폭설
하프
황교
##엘라
면접보
##25일
하드웨어
농작물
선후배
토스트
다가올
아슬아슬
봉하
연락오
샤오
설화
유영
한국말
하나같이
써놓
본다면
##ㅎㅎㅎㅎㅎ
발가락
상수도
스킬
##안주
##컴퍼니
법정관리
심상정
스코어
미인
비워
자긍
젊음
지날
마스크팩
신경쓰이
게없
못내
왔었
애쓰
##날리
끌어내
서한
신소재
##게이트
##릴까
##경보
##ms
라구요
백두산
정윤
##6억
##조항
##랭이
##11일
양현종
직격탄
골퍼
긴축
여운
체리
쏠쏠
안풀
황우
함께했
정해져
드가
자릿수
##주가
아무생각
전화와서
군대가
서부터
신가요
속보
두려워하
낙인
뜬다
모아지
##좀하
##볼거
우승팀
퇴근시간
거래처
5학년
몇십
책무
어딜가
양도세
동두천
팔레스타인
라나
##역할
공소
깃발
다다
당위
반가운
재조명
##ES
이케아
3라운드
랬는데
인조
##옵니다
출발점
리틀
요런
이쁠
##ith
농림축산
트로트
즐겼
##진강
##차타
SK그룹
##하하하하
경쾌
내맘
쿠쿠
##소음
대선주자
지코
##재밋
##컨벤션
7분
느린
살래
##른거
돌파구
사줬
울림
위기감
자긍심
ㅇㄱ
목도리
초안
##움직
신문사
330
호의
##랭크
이런느낌
내과
야하
##ib
##94
해야됨
23개
2차례
##등록금
구장
##부양
당대표
##인하
##절감
##딩크
미녀
에그
인파
터트
도전장
마마
영암
낙마
##순이
##앤비
내한
열대
일생
차체
사업계획
이민자
거스
따가
사범
치약
하계
##2동
##똑같
원정경기
열세
전동
청년층
누워잇
se
미숙
##테이블
대문
협동
##PL
##악기
붕어빵
바늘
KBL
BBC
백령
쌍수
차갑
참패
##대가
평택시
경상북도
물놀이
바닐라
##호씨
갠찮
용품
##건디
##고르
##갈지
플레이어
세션
오킹
크레인
##할수
목적지
문열
보디
산뜻
존슨
##레인지
구례
천하
##대부
미디어오늘
시멘트
못해도
##울거
##재배
22개
불법행위
며칠전
상체
역습
웃돌
텍스트
##농사
ㅇㅈㅇㅈ
영진
왠만
##서스
##한도
기초의원
와이프
해양수산부
굳건
백일
산단
팀플
한주
##충이
서울지역
200m
자산운용
##12일
근황
될것같
##만장
##난다고
##DS
##릴듯
##작년
조회수
가야지
갖가지
교직
초심
통입
##날듯
진행자
기간제
줄어든다
끝낼
항일
해야할듯
거슬러
도산
습도
신전
##참모
경쟁사
지지부진
##소년단
예견
한기
을께
전속
##습지
##게이션
##출판
##20일
양주시
예뿌
##어이
콜롬비아
들으며
##슬링
##경제연구원
9호선
라길래
함안
##부러
##초코
그런애
돌아섰
물놀
체내
##국제영화제
8억
개소식
담담
보탬
정병
줄거
대표자
힘든거
나눠먹
모을
잘쓰
##아앙
##ment
예방접종
##낭ㅎㅎ
소셜네트워크
담그
연승
즐비
지칭
집밥
##부림
##루미늄
궤도
빈자리
저학년
태아
선택지
높인다
빈도
수락
##체조
몰려들
개체
래퍼
천혜
특가
19세기
꺼냈
동포
올려서
위스키
##트럭
즐거웠
주상복합
##주체
##추럴
##자이
##맛집
묵직
미르
발제
##이노
##이득
##비엔날레
생각난다
선방
패했
도와줄
무슬림
르노삼성
아모레퍼시픽
심신
에엥
연못
##기운
##담당자
사뭇
통지
##꺼풀
보여줘야
아시아나
개판
까요
변질
##마나
##도시철도
소화기
포화
호다닥
##개방
##티슈
아메리칸
민병
박민
안믿
##이치
##렉터
178
단단히
무차별
##인기
안돼요
잘될
##초등
바닷물
건넨
나뭇
비키
재량
##거진
진보진영
박영선
고운
노량
##지청
##아오
한복판
살수있
안찍
안간다
##소사
##뭔데
##라이어
어벤
##석회의
오라방
필승
##iz
해준다고
동정
##하장
##러시
한국거래소
휴가철
신난다
암호
##문점
##ET
어려우
제주시
베리
##5000억원
##알려주
제각각
고종
문예
파기
훗날
##조회
##차리
##차장
조광래
균열
번식
애널
저탄소
##진로
##대변인
##기증
했으면
##대위
##ㅅ어
##글로벌
클리블랜드
급부상
만장
봄철
##까먹
이름아
펼쳐질
무명
밤늦
쏘나타
국제기구
대출금
e메일
덩어리
써야하
출현
##진대회
자동차부품
깨끗이
부원장
강동구
3부
경질
사은
교육정책
지하철역
IPTV
막창
저변
##일지
워크아웃
괜찬
노회
미쓰
안씻
폭포
##더기
##예쁘
24개
예술인
금리인상
머겅
새만금
##꺼이
##레스트
##사업본부
체험활동
클리닉
사무국
1건
##세탁
갇혀
무형
중성
##3회
##운동가
자행
혹독
##제거
##심장
##연구센터
남매
아키
장모
포퓰리즘
##ry
1m
낮췄
순매수
실비
앤드
트윈
레이더
##전시관
급히
냉각
이우
##bs
급속히
매끈
올래
##영양
##돌아가
삼성동
나온다고
다신
덜하
비아
##걸까
별로야
부탁드려요
물의
유모
의전
탈색
국가보안
금고
로컬
말랐
불어
숲길
역학
일컫
재취업
잭슨
경제력
109
2500
5G
감점
눈뜨
유례
재선거
합창단
##표정
##는지
1985년
독립영화
할수없
선율
##노이
빡센
서울가
세계시장
대장암
발급받
거야
수염
##PD
1억5
1달
못잡
팔려
##도되
##출연
##청기
##취급
진료비
따돌리
묘한
으휴
TV조선
공기청
속상해
가파른
정상급
노동시장
미스터리
부시장
송중기
자락
주선
##구비
축구대표팀
떨려
안옴
이혜
##고지
##해소
회사채
온수
한병
##지갑
환경영향평가
부딪히
교부
땅볼
앞바다
연산
ㄴㄴㄴ
인수위
블루투스
무식
On
쳐서
다시금
관계기관
ㅋㅋㅋㅋㅋㅋㅋㅋㅋㅋㅋㅋㅋㅋㅋㅋㅋㅋㅋㅋㅋㅋㅋㅋㅋㅋㅋㅋㅋㅋㅋㅋ
반칙
볼만
살때
재연
한걸로
##영재
KDI
간과
노스
발동
병원비
판결문
백년
##뚜기
23명
눈물나
##세계박람회
그칭
##탄생
사실관계
생리대
애착
직급
테슬라
기성용
강호동
ㅇㅁㅇ
루머
목금
어기
##모직
평년
금융상품
고단
본데
연신
헤지
##명소
##원가
충청도
사줄게
할매
해ㅋㅋ
##간대
##𐌅𐌅
##사령관
해리
울산지역
빡쳐
뻔뻔
오디오
지낼
치사
##염색
국가인권
유가증권
드래프트
건드리
따스
알린
액체
##날뻔
두드리
반론
야근데
##천사
책임질
기아자동차
못본
미워
양승
폐암
흐뭇
##와야
##창기
알려줘서
알선
##7억
##배출
기억력
##추진위원회
귀중
동등
비선
처해
혈세
##이체
##도스
##쓴다
개싫
아련
연맹
채운
김종인
전립선
##농산물
114
얼굴보
삼가
아반
아낌
팬미팅
##아르
금욜
못입
쌓았
##5개
웨스트
##ust
어긋나
밤낮
물려받
나음
법치
청주시
##혁신도시
2030년
시ㆍ군
드린다
메밀
##정류장
##문서
##원칙
##ㅡㅜ
##탐방
가봐야
걸루
##나봐
##파니
위배
##♂️
조직개편
2건
ㄱㄷ
전태
절벽
##안됨
##자라
##법률
북방
업주
사업가
로펌
방대
보탰
생체
##품목
##배당
168
장안
픈데
##못함
##예매
##cc
직관
한예
##수선
##소유
부들부들
당협위원장
OST
갠차나
녹여
뒤흔
##단원
##ㅌㅋㅋㅋ
주저앉
강물
거들
대경
무도
중수
20세
국방위원장
요동
특산물
##대책회의
다녀서
제출받
입주기업
이룬다
보장받
탱크
필테
하룻
##지근
머그
저성장
처녀
퍼스트
헝가리
##소득세
쌍용자동차
최전방
6분
와일드
워커
진수
##일본
##ㅣㅣ
전임자
속이
체조
##제당
차이점
한가봐
뻔하
와따
종자
하나금융
한국토지주택공사
었잖
##수거
으로선
난무
앞쪽
흉기
##배달
10만명
문제집
비게
##해봐
2골
구한
세팅
앜ㅋㅋㅋㅋㅋㅋㅋㅋ
정차
스트리
건축가
LPG
잘지내
꽁꽁
세액
참으
##LPGA
그럴리
인종차별
조종사
ML
경량
공평
적임자
허구
##스테이
2이닝
파운데이션
##토크
MBA
곡선
당대
어딧
존엄
호스
##네임
##경부
벽면
##못먹
##출동
##전문점
80년
머글
스팀
이비
포근
##생김
##나온다
만전
할테
##리사
##게여
##땜시
군부대
밤샘
폭격
예쁜데
Th
개도
고칠
더좋
##시점
재판관
가르쳐주
뭉치
습니
전가
##59
##불호
반대편
워터파크
십자
##렉시트
1982년
무궁화
교향
군필
서적
##드레
##29일
실크로드
나치
미스트
여초
증강
충원
##df
100주년
##라이너
헤헤헤
교환학생
막혔
뭐입
펴낸
국민투표
냉장
신학
지에스
친목
해줫
##다나
##펙트
새마을운동
Int
풍광
##ial
##형식
그러므로
21개
6개월간
바른미래
퇴직연금
5도
그생각
망한
한의학
##교재
##카스
##창작
제일모직
개같
무고
칵테일
플라워
승승
##ㅐㅐ
다닌다
미비
합친
##OO
##💕💕
조심히가
다국적
미남
웃겼
중임
##앜ㅋㅋㅋㅋ
서너
신가
##해제
알려준
물씬
시사회
아푸
절개
##구치
##샤오
가솔
히딩크
10초
매달리
320
4차례
마칠
이긍
티나
##상블
##포로
선거인단
1주년
긍께
떠안
임ㅋㅋ
책장
판문점
나아갈
합병증
##아동센터
까봐
파파
##군인
##76
사은품
경정
##ㄱㄱㄱㅋ
##ence
고창
곡물
뒤따
부속
심폐
##음악회
위함
판소리
플로
##놔서
줄기세포
진통제
키크
##슈퍼
시체
##기술센터
따져보
미래창조과학부
출사표
news
전병
일때
지겹
집오
##쇄신
40만
아지
##날드
##농민
가꿔
그램
수줍
옆자리
##주거
##테이
즐거워
K씨
원년
##안경
##보존
##독재
사전예약
7시30분
##고리즘
##27일
##연도
안과
완도
정영
50억원
특성화고
슬랙스
##동자
##감기
##넼ㅋㅋㅋㅋ
방화
##1만
20억원
우승컵
전해주
패션쇼
모른다고
문어
백팩
시애
쓰러
좆같
##동향
##어렵
##드래
동급
취득세
서원
입성
##니지
혁신학교
견고
나들이
남발
닭강정
대청
마카오
##대수
##기전
완벽히
몰아가
##남부
보내줄게
이병헌
부지런히
3연승
강타
출혈
택하
박근혜정부
스파게티
##문화예술회관
DB
반장
세척
식비
##오지
##회차
담배피
##자유주의
돌발
야ㅋㅋ
잘해써
오버워치
새겨진
국가보안법
개연
사위
##인턴
10주년
광복절
반쪽
오븐
유학생
콤플렉스
폭주
##드려야
슈퍼마켓
구찌
무의식
세정
소각
진솔
빡쳐서
##출소
##옵션
포스코건설
매운맛
블룸
어촌
일탈
##구하
##수강
##용ㅎㅎ
##14일
토너먼트
최형우
야ㅠㅠ
순두부
##일대
##보험료
찜질방
승승장구
어뜨
인출
페인트
##던지
틈틈이
필드
##못가
##캐스트
CT
묻혀
숱한
유소년
해ㅠ
##여당
##졋어
알아볼
정기국회
신속히
드릴게요
본거같
신개념
의아
##서로
경기회복
##부담금
ㅅㄱ
애도
찹쌀
친선
끈질
좀있
제공받
돋보인다
거다
시리
살처분
##보낼
##떨어
한가운데
의존도
동점골
씨름
양복
##려있
##릴거같
당산
왕실
퍼레이드
##사각
##포털
##에미
##미쳤
##될지
오때
철원
##그대로
##영씨
풀어내
추월
교육기관
보건의료
내비게이션
후려
##미애
##왜란
현대제철
경찰청장
공자
방황
야ㅠ
##이수
##CI
##사업장
5승
따흑
수유
##와라
부상자
세대교체
포토샵
750
청중
##정화
##공방
##턴트
비대면
로울
안떠
야무지
##보훈
##부위
삼성카드
김성근
1960년대
기생충
3연전
낱말
두분
배급
병실
슈가
오송
중량
##21일
##러쉬
##코어
경제부총리
가용
여㎡
조처
종식
항해
##기여
##특강
으니까요
신세계백화점
5가지
선입
수없이
알루미늄
하이트
하루만
지방의회
어엉
영도
맞섰
차가
##우트
포상
한승
##계단
##아시안
모스크바
##투사
생활습관
김두관
노량진
고품질
배낭
선선
필립
24명
세율
시화
호우
##구마
103
금융투자
봐보
판도
##제안
##군청
그래프
기쁜
돈받
섬진강
##성당
##앜ㅋㅋ
의원직
모씨
버린다
악플
자비
캐치
##설정
##DC
어떤게
인터파크
관광산업
빠져있
생물학
석권
설렌
쐐기
테라
##쳐주
##특성
##산거
지저분
##개발기구
조선족
ㄱㅊㄱㅊ
부끄러워
방사성
사립학교
영산강
9급
미백
##원서
##매입
##패턴
##ㅁㅊ
국립대
기출문제
여점
경영자
##22일
황교안
빈틈
원주민
임마
코리안
##퀴즈
임진왜란
분과
탄도
##선정
##뭐먹
##코르
삼성증권
시행착오
DTI
결핵
데스크
빼빼
어묵
22명
5세
너같
하마
행적
##진진
##ure
##민원
추천받
실무자
패러디
원한다면
짜파게티
함수
보금자리주택
ㅉㅉ
과대
농경
윤씨
##2000원
1800
취업준비
통화정책
##진흥원
남양주시
가솔린
바로바로
##말이
비싼데
물러났
출구전략
외교통상부
몸통
##미치
추출물
박보검
반말
슬기
증축
2m
도봉
따낸
캬캬
버스탔
하이닉스
##기념물
성형외과
불러일으키
파고들
자도
##덩어리
경기북부
내려온
알아듣
짜증내
##ark
5차
자작
적격
첨예
##웃곀
능가
딜러
연골
##재미
##감염
##보건소
글서
대깨
탤런트
##구려
##묘지
을라나
국가정보원
기념행사
메리트
위태
이문
##동대
##러닝
##실패
##합동
##액션
##둘다
움직였
여겼
처사
호엥
##법상
##테롤
##둘기
7곳
고2
엌ㅋㅋ
일뿐
코노
##서민
##보관
##을거리
운영체제
알려준다
청계천
골밑
주황
##조약
현대상선
수출액
다구요
##기록부
고령자
##결정전
3천원
##TP
##고고
대구대
개웃김
평생학습
구운
알고리즘
##발사
##될듯
어케하
내심
또렷
모리
선체
왓챠
드뎌
맘껏
우기
##질거
##18일
현저히
법무법인
캠핑장
##23일
과천시
대정부
뜻깊
화이
단합
망원
미셸
접대
켜놓
##와요
##꼬박
제2회
고아
변태
이너
토요
한국지
강박
얌전
##입구
까르
불려
이만원
##26일
시애틀
내추럴
댕기
웅앵
익1
기획사
##에에에
시뮬레이션
시차
##가르
연구용역
망상
으다
지울
편할
찾아다니
GS건설
3세
남길
이닝
지만은
한테서
입법예고
다낭
와써
중식
##13일
유적지
네모
본토
커브
##리서치
##기가
##감자
20년간
지나간
귀여워서
이과대
김수현
못갔
##다섯
청년실업
올스타전
3∼
##유적
##바둑
##엌ㅋㅋㅋㅋㅋ
감자탕
간데
예여
치맥
##포동
##악법
##핸드
국가주석
단숨
목재
빠듯
안샀
이디야
해낼
##된대
##해야되
산수
역삼
출격
##시브
세워야
갠찬
##병우
##할래
##곸ㅋㅋㅋ
보내줬
기관지
살펴볼
의리
이도
중추
##수비
근무시간
구자철
계류
내거
도주
레이어
스텝
##의금
이사가
##16일
산청
안락
##이식
##비빔
##per
##우산
##공인
후쿠오카
ㅋㄱㄱㄱㄱ
요미
정제
호불호
##스트레스
한번더
어느날
MD
지뭐
##지지
ㅋㅋㅋㅋㅋㅋㅋㅋㅋㅋㅋㅋㅋㅋㅋㅋㅋㅋㅋㅋㅋㅋㅋㅋㅋㅋㅋㅋㅋㅋㅋㅋㅋ
거지같
몬스터
분권
사보
안본
프렌
##ㅋㄱ
##했었
##워즈
그러니깐
단숨에
사재
플로리
헐헐
##버려서
##용기
연락왔
생활용품
주택가
##아트홀
##우우우우
경청
깜놀
르네상스
파탄
햇반
##극혐
빌린
엠비
##6월
아이러
##공기업
##워킹
2030
모델하우스
##능력시험
아웃백
pc
내뱉
면밀히
상록
이름이
이해찬
##age
바치
쌉가능
안친
컬링
표류
자본시장
견딜
습기
인플레이션
일렉
전입
##걸스
NBA
뒤처
때렸
범어
##라니
##군사
10승
##공연장
##19일
무너져
녹조
만년
쾌거
##주니어
게을
##사부
주무시
가닥
박신
피지컬
##공서
선거전
##어떻게
강서
경치
곰팡이
기내
밥그릇
하단
어려워서
한다는거
전염병
7000
멀미
순한
##자흐
##틸리케
중국집
선대위
노회찬
아반떼
냅두
##틀랜드
유성구
대열
메타
빡시
##경정
##가지수
전자책
시외
형광
##히트
##ance
겠어
김호
느긋
무주택
실형
싸인
조연
##대통령
##인형
##저번
##특보
##큐브
##ml
노벨상
공석
국익
네오
써먹
징후
##ik
##레스테롤
안될거같
김제동
ㅎㄷㄷ
두터
어드
언행
키작
틴트
##1000
##실련
전문기관
##복합단지
PF
두가지
홀랭
후지
##필품
##광역
##교원
##경기대회
업무보고
득표율
타과
##갈듯
##여왕
##매니저
미러
시식
잘놀
피서
##분명
국회법
##연구위원
가두
계셨
김천시
우측
##모어
##평가원
아닐거
##end
백남
##올림
라면먹
거머쥐
ELS
다사
떠난다
문정
환매
##연재
##ㅌㅌㅋ
하여튼
피씨방
우루과이
디바
머신
방류
선순환
잖어
💛💛
##ㅅㅋㅅ
근육통
LIG
##커뮤니
벽돌
한말
##다먹
##민정
과반수
스프링캠프
##터져
##58
19년
영등포구
아랍에미
매화
불빛
연패
이새끼
허탈
##날로그
라고하
104
미래부
자본금
기다려봐
교무
인것같
보이스피
##만9000원
눈가
론가
##ge
사회문제
현대카드
블랙리스트
당첨자
포스텍
4선
로제
오글
청사진
##환승
해보여
숙박시설
돈많
될것
전화왔
대명사
보이스피싱
발톱
평준
##ail
##자세
##러웠
특별전
명예회장
##17일
비쌀
슈틸리케
원치
황태
##어보
##차익
##줘야지
##▷김
유니클로
반짝이
괜츈
못만나
추대
아우터
넘버
독수리
말끔
입자
토닥
##처리장
십쇼
업로드
욕실
커진다
피난
##텔라
기초연금
아자
재기
주둔
치워
##예뻐
##NC
의원실
스러우
커피숍
달라붙
미성년자
복당
앞다
이회
확연히
##녀석
돋보였
아디다스
신자유주의
아이티
고마오
예비타당
장난치
인권침해
공허
구구
귀여우
구우
기꺼이
머니
뮤비
살렸
안조
완승
침구
택한
##토스
##배고파
라고요
수사기관
해줄까
갈겡
멈췄
세리
절묘
홍천
보여야
정신차리
8000
교량
나바
남원
세라
쓰러져
원나잇
써봤
효도
##신라
사바사
뭉쳐
외무
카자흐
##주말
2002
해설위원
3인방
깊숙이
꺼려
안봄
협찬
##자식
30초
##관리본부
불과해
벌리
최문
파열
##56
##스태프
이거봐
신도림
ㅇㄴ
싸운
전셋
사진보
사회단체
브렉시트
숟가락
포드
##대가리
아이파크
ㄴ데
금년
부디
선본
##ime
어쨋
외로운
##포즈
##예진
##스터디
##문학상
그친구
노린
쓸수있
척결
한가지
##스럽
##버렷
##시간대
159
여자부
##스타트
##로마
##론데
##신발
##한명
##중소기업
국제축구연맹
8대
구명
혈당
##기아
##가까
##어린이집
농수산물
백석
세세
최경주
##계선
##애플
##전문대학원
만날때
리즈
명장
배양
번쩍
이어받
는군요
여겨지
ㅇㄷ
바뀜
분장
원숭이
이잉
##리에
##터짐
##찌민
고위급
못나가
불릴
공산주의
그돈
노렸
얻어먹
초창기
헤딩
##그럽
##onse
강팀
끝난다
송구
화났
##시네마
##날짜
사업추진
내려앉
데뷔전
1979년
이리저리
대지진
스토어
행정자치부
발등
생필품
이맘
영어교육
집행위원장
기다려보
FA컵
공신
온니
진주시
혼잡
##클러스터
##연구원장
개학
##서부
7조
디엠
##사이드
##피크
##act
3건
그롬
충치
헤매
무서움
가덕
개비싸
식습관
집근처
##TC
##ie
자산관리
##몰라서
칠곡군
##MB
##73
별로없
흥미진진
##여자프로골프
개량
이의
평촌
##된거
승부수
원시
##승리
##만남
##GO
가까운데
몹시
발바닥
부녀
심재
업뎃
청결
트윗
##모으
평생교육
드려야
상단
직행
##내시경
혈액순환
역부족
워드
##극단
전국체전
간절히
##손해보험
RO
도비
독성
동대
물갈이
민영
새기
알수
주된
후예
##넼ㅋㅋ
##ern
6시반
큰일났
9만
뾰족
##수능
##접촉
##담배
1600
##축구협회
된장찌개
오답
으앙
통진
60명
##24일
2조원
연소
##페미
##플러
아까워서
##혁신센터
국기
몸담
빅토
소관
현충
##동화
국민대
치료받
실험실
나돌
아담
숲속
##모비스
##ㄲㅋㅋ
##평생
1984년
상임고문
유라시아
쇼파
줘요
##병제
##골라
아동학대
엄만
##심원
김포시
하룻밤
빠를
참담
커녕
##지상
##경제자유구역
마주하
십니다
위키
자의
지질
##파운드
##RP
사과대
net
변환
봄날
불복
안뽑
잼나
줄거리
##전트
##저장
##손가락
현대사
유니크
파이썬
질질
천둥
고성능
가도
박연차
여년간
자판
##구름
##😭😭
경제협력개발기구
꿈나무
이차
임태
편파
##mi
헤어져
스케이트
##월드컵경기장
시금
킬러
##못했
친화
한림
##신사
##공세
##산품
방탄소년단
수두
안이
##청약
프로배구
##ory
남다르
아날로그
지부
호찌민
##자취
##짬뽕
투자금
따돌
울타리
할로
##진학
##간다는
1만명
##공학부
사다리
익혀
작정
전매
합참
##베리아
##임새
##석희
##후기
##치아
그런가보
뜨거웠
양지
정신나갈거같
##진흥공단
수심
진다고
획정
##슐리
싹쓸
아ㅋㅋ
##서야
##복구
##엔지니어
6점
그토록
려니까
만루
정은
##거슨
파이널
##프라이즈
개잘
언닌
제명
지중
##온천
##저수지
물가상승
트랜스
정태
##화원
##의지
언론노조
아랍에미리트
구태
뒤덮
떠넘기
안올라
##앙스
##소위
##문화센터
짜증난다
반하
암시
판세
홈트
##플릿
육아휴직
화물차
보셈
복부
초조
통풍
##루스
인기많
고용창출
2000만
예고편
##아시안게임
검은색
지망
초유
해준거
2박3일
기약
불평
정두
퍼즐
##남녀
주택시장
뭐얔
피칭
##야당
##알못
##드린
35분
최우수상
##만날
##나보
##저지
떡밥
비켜
펜스
스트라
멸종위기
방면
아부
치료비
물리학
실리콘밸리
발암
살려주
이데
##훈장
더해져
소동
야수
연꽃
으뜸
한분
##마력
##땡기
##께요
연주회
발대식
시무
식약
위쪽
##다오
동남아시아
사령관
여덟시
조윤
##행정부
20개국
해직
##중개사
##일수
공법
패소
##가다
##볼래
##수렴
##고장
##오오오
다룰
아랑
한통
##어링
KB금융
후계자
KDB
몸짓
에에
건물주
공복
영월
제정신
학내
##흐름
어우러지
갑작스럽
불통
##감소
##흐규
밀어붙
2천원
가천
코팅
통찰
##전담
550
굴욕
드셨
레고
일병
##관은
##우먼
##파괴
1만3
8분
김규
제모
한탄
##바이벌
2관왕
가령
변모
좌완
##iew
##민속
열람실
냉전
먹을거리
##2만
##칼로리
문제해결
보내달
그게뭐
통신비
일회용
난관
수문
을겨
주시
##현수
##마귀
LG디스플레이
소수자
통행료
남해안
5000만
더한다
딱지
라라
빈소
유능
해버렸
##선배
##스파
나올거
꼬박꼬박
V리그
##바게
##발레
##연령
##헬스
소리지르
남아프리카
세간
재탄생
해둔
##서점
변별
호로
##♥️
장단점
ㅠㅜㅜ
사나
##1무
##추적
다른것
종합병원
챔피언결정전
백만원
신났
탈환
편중
지켜볼
블라디
찌개
##하키
##도장
##안해서
##성대
##포드
##카이
에이즈
8강전
배꼽
피켓
하승진
##칼국수
##선거관리위원회
네거리
사려
여곳
잡아먹
짓밟
##블랙
40개
다이빙
박은
##인대
##웍스
187
망명
식도
19명
21명
김상곤
외야수
ㅇㄱㄹㅇ
공기청정기
근린
다와
담뱃
일손
재우
##거름
##MI
지원책
희망버스
물리치
남겨놓
연희동
고층
요정
##세서
##파견
##친거
김주성
##프레소
##약간
##정도시
히트곡
미룰
송강
월성
위암
미네랄
거먹
단국대
시켯
오열
##유니
##즈음
##킬로
145
기다린다
물밑
안겼
##느껴
ㅋㅋㅋㅋㅋㅋㅋㅋㅋㅋㅋㅋㅋㅋㅋㅋㅋㅋㅋㅋㅋㅋㅋㅋㅋㅋㅋㅋㅋㅋㅋㅋㅋㅋㅋㅋㅋㅋㅋ
훈련소
채널A
끈끈
못한다면
AP통신
서사
문화부
에어비
미네르바
방심
이만큼
지웠
##미료
데려오
남아공월드컵
박모
열띤
##하라
##메리카
나갈때
예뻐서
##모금회
Pro
노련
더치
더운데
시럽
##증자
판매자
사무관
부대찌개
답없
옹기
정액
처형
##체육대회
C씨
팔뚝
자기주도학습
오메가
양팀
으으으
체격
헤아
##천명
노동계
##ome
명작
박한
양형
##반지
##체인
118
30억
갈치
백혈
어미
진다는
함성
플로리다
덕수
잘다녀
제지
풍미
##워터
이제와서
##기본법
9억
감량
송혜
의병
인질
##스튜
##져스
맞춰주
##니스탄
##시민연대
대장정
3관왕
번번
소울
와이드
추방
##축전
##첩장
1983년
달러화
##ㅜㅜㅜㅜㅜㅜㅜㅜ
초딩때
시흥시
손녀
악역
##단어
##곱창
##프로야구
전기자동차
불면
여혐
임ㅋㅋㅋ
적재
##운행
ㅋㅋㅋㅋㅋㅋㅋㅋ아
챙겨가
##필요없
곁들여
그로
누우
체벌
혼자있
ㅠㅠㅠㅠㅠㅠㅠㅠㅠㅠ
##플랜트
베일
업자
유자
재촉
힘차
##의혹
페미니스트
6배
배럴
전량
점진
짐승
쫓아
##1건
##ont
알아주
도와줘
거주자
드래곤
두각
접점
##3사
##ㅋㅋㅋㅋㅋㅋㅋㅋㅋㅋㅋㅋㅋㅋㅋㅋㅋㅋㅋㅋ
대기중
GM대우
긴팔
##세종
대기오염
EX
금오
매기
블렌
접경
조력
쭈꾸미
톡방
##설립
##베스트
그래놓
광역단체장
뛰어든
1950년
권영진
급행
쓰였
적경제
##뜨린
##확률
아이비
사업주
달려있
고선
전자기
추어
재수없
하버드대
할뻔
15세
대출금리
밀어내
##중국해
규격
드셔
부조리
불우
탄성
회비
##여객
지하철타
세워진
코칭스태프
뎈ㅋㅋㅋㅋ
모교
치대
할애
동기부여
토욜날
언젠간
그집
능선
리프
소량
융복합
부산지역
영양소
끌어올렸
근ㄷ
대내외
더울
은혜
입혀
하류
1300
출판기념
신성장동력
믿기
실생활
대구공항
정해놓
당기순이익
구실
다량
무수
육회
회기
##미아
○○
못봐
친밀
험난
##창구
갖춰져
보인다고
##디지털
Ed
광경
식수
외계
콘퍼런스
피했
##유도
##불고기
##xx
이상민
기울였
카자흐스탄
넵넵
만능
스윗
팔공산
##레마
##항목
신한카드
넘나들
2연승
답한
면회
스톤
실컷
킨텍스
##비중
궁합
반죽
이코
저격
효소
스케치
어리석
오락가락
흥국생명
애널리스트
갈거같
라든지
비호
신산업
절단
천만원
##실수
퍼부
행정기관
4쿼터
타로
##어촌
##전남
전략공천
만족감
스크포스
해나갈
##덮밥
##아이디
재해석
으음
##인디
##화가
홍보관
최강희
소풍
음란
사람없
천문학
##AC
##간부
제작발표회
##114
구래구래
득점왕
고학년
186
시험장
수원역
거봐
공차
긴한데
뎈ㅋㅋ
일식
##준혁
##입니다
알려달
보이콧
잘어울리
도미노
속성
에효
인텔
##상업
##96
12만
2주간
사물함
나빠지
누드
다오
맡긴
바야
오분
우방
##타오
교차로
대전시장
엔딩
여주인공
저분
휘두르
현대모비스
건조기
벌어들
어처
##크기
생각남
규제개혁
3차원
단종
발기
책자
커넥
ㄱㄴㄲ
김부겸
명명
뽑아내
플레
##오후
##PO
기다림
중앙부처
부러움
을게요
자몽
찜닭
수상작
##무서워
KGC
PS
갈대
빠빠
그랬음
걸어야
흔들림
천연기념물
정시모집
내기
박살
방조
##할꺼
의료서비스
가벼워
달릴
따름
소극장
질렀
##부츠
##지방선거
7점
라운지
##뱅이
안방극장
쓰여
헉스
205
106
대용량
불화
수없
1장
##시세
##uc
려고요
최종예선
전해진다
김해시
가평군
리처
보청기
후식
##과점
이뤄내
##학력기준
바리스타
bl
개안
단결
양키스
유창
응통
초고속
##짘ㅋㅋㅋ
같이있
사이비
ㄹㅇㅋㅋ
사라짐
갈증
복제
비참
환절기
축구팬
물어봐서
010
마틴
집왔
찍힌
퍼거슨
##차관
100세
빨라지
단호박
싹쓸이
딱봐도
매점
봐줄
일몰
##러치
##일어났
역사문화
노린다
쓴다고
혼선
그리움
비상대책위원장
모루
허점
##ea
감염자
파이낸
과격
비웃
##모야
우리회사
알아들
재무장관
집무실
##위크
##자회
기름값
상생협력
닭고기
어설
경남지역
식용
정주행
제10
허전
##대한
##미니
##흐흐
##졸리
배불러서
대부업체
소셜네트워크서비스
NY
##4억
이상형
산림청
pdf
응아
##다양
##비오
##휴학
노동력
해봐도
##민주당
외환시장
자이언츠
서영
알찬
오천
을려고
후면
##사키
##비어
##려보
택시비
이라든지
냉방
안아프
##마차
사회통합
17대
직장생활
게시글
페루
어려운데
1루수
내집
식중독
쓰인다
##매기
티비보
공화당
제구
투성이
##ヲヲ
에이쁠
맛점
합천
##아서
##중지
##큐ㅠㅠ
통틀어
결별
계실
권태
나대
배아
액자
크롬
사전투표
몰아주
불상
투여
30억원
사회과학
그만둘
안나옴
돌려서
뛰쳐
브래
##다방
##케미
2년차
미뤘
안장
어뢰
쳐먹
##52
20주년
몰아넣
아사히
ㄱ씨
안시
유착
해부
감사드린다
사회공헌활동
끌어들이
매일경제신문
광안
난데
말문
쇼미
앜ㅋㅋㅋㅋㅋㅋㅋㅋㅋ
쟈기
칙칙
##가시
##산다
##개발연구원
나갈게
3등급
관대
낙엽
출토
호국
흡사
사무소
##헤헤헤헤
##제일제당
콤비
##자낭
불법사찰
##들어갔
깻잎
네거
놓였
뒤졌
찬바람
##정차
##장갑
3급
무패
미학
속해
성화
프사
힘듬
##필지
##비상
##부정
##준다는
##피안타
지역내
불러주
7시반
구제금융
마셔야
스키니
벼락
서인
심부름
안그래
의해서
##게이
2005
대회의실
가득했
##클래식
미야
살쪄
통한다
129
전지현
0시
##타로
퇴근길
나아졌
Sh
방제
찡찡
피츠
##거점
##픈데
격상
무당
빼어난
와있
이백
피치
이승기
중도금
마땅히
정보통신기술
왜캐
##오피스
다음학기
작업실
성급
정할
##정우
##운송
##링클
바꿔주
입학사정관제
일절
풀타임
##맹이
##파전
세계관
쓰레기통
놓칠
손잡이
이연
저쪽
팩스
##계발
회의록
도로교통
멤버십
##스턴트
관제
임팩트
젓가락
##하수
##가전
반려견
8조
라멘
안걸리
잉크
징그러
##ace
벌금형
2가지
기흥
다잡
물꼬
성동
우병우
돌아온다
아이러니
될텐데
상륙
수족
야ㅋㅋㅋ
##방구
외교안보
##통증
##거품
##카운트
소방서
보낼게
신인왕
이월
호칭
##86
4급
다승
뜨끈
##어플
##지연
200억원
ㅜㅠㅠ
기모
보듬
왜구
##아일랜드
찾아갔
서장훈
요미우리
방망이
착안
평론가
##들목
국제통화
정보공개
성실히
돌이켜
성황리
만장일치
선천
왕십리
저걸로
##수용
노사정
결렬
다되
더우
몇점
어떤가요
##경제학
나와요
##ater
3개월간
1실점
세차
육개장
키득
##갑다
문제있
도시가스
규제완화
출판기념회
가열
노년
북유럽
융자
##라했
##일어
##채기
비교과
검사받
원자로
CJ제일제당
꼭꼭
꿈꿨
대진
불발
선의
치않
##교동
형사처벌
고장나
남극
버금
흔드
ㅋㅋㅋㅋㅋㅋㅋㅋㅋㅋㅋㅋㅋㅋㅋㅋㅋㅋㅋㅋㅋㅋㅋㅋㅋㅋㅋㅋㅋㅋㅋㅋㅋㅋㅋㅋㅋㅋㅋㅋㅋㅋㅋㅋㅋㅋㅋㅋㅋㅋㅋㅋㅋㅋㅋㅋㅋㅋㅋㅋㅋㅋㅋㅋㅋㅋㅋㅋㅋㅋㅋㅋㅋ
##유물
영업정지
현지시각
거주지
4차전
김광석
대미
수육
조져
##하네
##성취
##슬리
응원단
##MCA
기정
지긋
팝업
하모니
##룽지
##팬츠
31개
미디어렙
1960년
대깨문
게나
글케
방중
외워
의총
정인
좁히
##출자
용산구
낮춘
오정
횡포
##게더
귀여웡
사명감
끼니
예쁨
찾아봐
발라주
단언
명사
미대
##마인드
삼성중공업
##15분
##엔지니어링
처했
##스타디움
국정과제
키워야
비빔면
불거졌
650
나사
줄리
미사일방어
상세히
한없이
##댄다
##보증금
대추
빠이
시안
오구
쯤되
판례
축구장
인신
황토
##당연
돌아간다
나와도
어떨지
강압
개많이
그그
내동생
옄ㅋㅋㅋ
완결
풋풋
##남매
인피니
##주곡
##결연
##혜영
대림산업
가출
껴안
꿀맛
병장
##사업부
어울림
전도사
각성
고취
안피
##보카
중소기업중앙
맥도날드
##onsei
감튀
구민
굴리
방청
##사먹
##설턴트
한거아니
##반도체
개신교
모해
요샌
웃도
태평
##신데
##만개
서울대병원
수분크림
나을듯
6강
큰돈
힘겹
##리조
##수씨
현대미술
##라이나
공정성
모먹
스몰
자갈
지양
##운위
헬스케어
똘똘
참기름
##화상
1천5
대북제재
열시미
복선전철
고깃
세입
승화
위약
특구
돌아서
목표치
서울시청
과학벨트
라우
빙상
암거
##티오
21살
모아놓
수뇌
해낸
##통운
##소매
##컬러
144
앙대
외과
으셔서
수사관
흘러나오
이목구비
받아
세네
안한다고
조계종
방점
분유
지킴
##만났
##스처
##적금
##총괄
생태계
송혜교
법규
화천
프로세스
신호탄
라미
살만
수필
자만
허덕
휴업
##af
##무효
##혜선
##춧가루
ㅋㅋㅋㅋㅋㅋㅋㅋㅋㅋㅋㅋㅋㅋㅋㅋㅋㅋㅋㅋㅋㅋㅋㅋㅋㅋㅋㅋㅋㅋㅋㅋㅋㅋ
골격
길목
놀랄
물속
소세지
천식
##텐도
##닼ㅋㅋㅋㅋㅋ
커피마시
##만5000
둘레길
꽃다발
뉘앙스
마곡
말랑
빠진다
앱스토어
##시국
##부대표
다녀와서
##하이닉스
충실하
산골
소시지
##파스타
시켜줘
밝혀야
형법
##71
다른가
그럼그럼
기념사업
기인
난타
두마리
맨발
장윤
치켜
감사합니당
5∼
가든
밑거름
잡아내
조인성
추웠
해준대
Sp
대파
짝퉁
걱정말
맞춰야
데려다주
마쟝
손보
후다닥
냐고요
가까워지
시킨거
이효리
격돌
묘하
방패
산물
##ㅔㅔ
##팽이
스카프
고정관념
카운터
아시아나항공
AD
나트
핸들
##고구마
행정사무
부정행위
콜라겐
6기
고강
과잠
섞여
설령
키큰
풍물
##모병원
박철
안쓸
피어
구매자
살인사건
경각
절충
청강
영어공부
아기자기
크로아
늘려야
물티슈
야한
차츰
풀뿌리
했어도
##고등
주민참여
그담
##ON
##폭발
들어가있
해결사
비상대책위원회
♡♡
이그
##살거
대구FC
우선협상
김연경
홍명보
3달
무슨소리
가파르
농림축산식품부
경전철
돌출
역도
##사거리
제안서
진척
##떨어져
대교
비장
빈티지
필두
##보좌
##6개월
##크로
SKT
유명세
신호등
으네
짐싸
품위
어린아이
폭스바겐
딴짓
띄워
매사
명곡
박빙
방증
선취
진거
추미애
통했
한경
화사업
힘주
##데자
독소
서리
소행
여고생
천문
##논의
해봐라
복지관
개오
묘역
배역
케냐
##로호
##인계
##그루
의정부시
2패
UE
ㅋㅎ
디게
만오
아악
틀어
할리스
행정도시
헉헉
##차트
##치니
##러리아
##집권
##태세
##배터리
##엉엉
다쳐
외장
졸속
합니까
##추세
다문화가족
게좋
권혁
카누
##에서
##뉴타운
택시기사
피로감
이시국
##가져가
K2
늑대
미아
편곡
##사범
##영수증
내려야
농협중앙
김상현
주먹밥
구정
단맛
미식
신현
용ㅎㅎ
##하트
##해놓
##노력
아까운
ㅋㅋㅋㅋㅋㅋㅋㅋㅋㅋㅋㅋㅋㅋㅋㅋㅋㅋㅋㅋㅋㅋㅋㅋㅋㅋㅋㅋㅋㅋㅋㅋㅋㅋㅋㅋㅋㅋㅋㅋ
전기장판
이끌어냈
샤이니
울트라
장영
항로
##41
##나비
지방의원
거듭날
##국제도시
성관계
투병
민원인
금호타이어
##❤️❤️❤️❤️
드로
실증
##수엘라
##도사
##8개
이래저래
더라구여
어벤져스
개망
대공
댓쓴
된당
발끝
진중
취항
##이벤트
휴양지
독립운동가
전광판
김강
무자
이모씨
##기념일
청담동
No
각막
값진
부피
브랜
점퍼
제게
해태
최고위
스프레이
name1
개당
낙점
랍니다
매듭
모아야
생존자
물러난
그랜저
잘난
##오드
제작자
조직위원회
배당금
묶여
정용
##마실
##폐지
안전성
이사진
해줘야지
KLPGA
디카
반란
조퇴
철분
혼다
##드로
##걸렸
##그러게
1인분
잃어버렸
모유
산다는
후방
##도서
##소생
##홍철
산업부
이지랄
소용없
선입견
A사
내구
변론
요르
사이언스
##are
구해요
8곳
다변
뽑힌
야시장
필연
##자수
후반전
첨단의료
신라면
안고파
용감
최대치
BC
껍데기
##ps
##올게
##편집
어떻게하
엄청많
##ork
파트너십
네개
안넘
정취
형량
휘말
##갈아
##타나
##청산
##봅시다
베토
벽지
산후
포석
##의무
따라오
되돌아보
부가세
홍익대
시포
##계동
시네마
중저
##놨는데
협약식
박힌
챙겨서
여성가족부
블룸버그
담론
사저
선교사
집요
##오션
투표소
예능프로그램
메르켈
꾸몄
높여야
안중근
##정수
##고개
금융지주
사무직
수강료
질병관리본부
유동인구
당겨
와닿
터무니
##면서
##3만
사업시행
도화
벗어났
잠든
##인수
##젤리
올라와서
운전기사
ㅊㅊ
딜레마
##연대회
##ㅋㅋㄱ
1만8
동방신기
지름길
2TV
라식
맞닿
배안
빌려서
싸늘
애서
##가야
##권역
메이저대회
보드게임
나갓
느라고
돌린
미개
별관
볼라고
외압
편차
##던트
넘나드
스노우
상주시
악의
획일
흔치
##MO
##아깝
##는디
##해수욕장
군정
사비
한바탕
##도와
##hn
여쭤보
담요
도도
동대구
산적
##현정
##ㅇㅎ
##복귀
##서울병원
야생동물
레일
마흔
선교
안통
일진
임티
##하다
사진작가
내려받
민간기업
코스피지수
경의
무제
반월
친인척
##선관위
##가톨릭
친일파
Wh
빡침
얘길
##배고
사우나
글로
모음
안그럼
##남용
##월급
김진표
농림수산식품부
왕창
##이틀
##프닝
강동원
블로킹
페널티킥
볼게요
아비
안병
피카
##빠졌
##브스
산업체
끊겼
한뎅
##터카
우리금융
넘어설
7호선
권한다
닌텐도
대패
막론
신사업
##할아버지
##실내
##아무개씨
국공립
경각심
단수
실외
잘받
청첩장
해이
100만명
이동해
웃겨서
한건지
1편
구수
러서
##챙겨먹
피트니스
겠지
이튿
종양
##누가
그럴만
나이먹
재정적자
떨어진다는
가상현실
못믿
##기후
##방사
##야야
##질거같
추진력
합의안
당근마켓
시달렸
파급효과
가진다
느슨
다지만
반군
오명
음색
잡채
##엔딩
##될거같
임상시험
##장려금
2도
넥타이
시리얼
울컥
인연합회
좀전
##2차
##골드
대통령직
대중문화
정기예금
해수부
사요
출첵
##체중
##빠진
웃긴게
스코틀랜드
남동구
앞날
콜레스테롤
##하드
##웟어
##렁크
해야한다고
들려준다
수녀
처하
##사라
##레오
다니엘
수능시험
끌어안
재택근무
네거티브
이튿날
케바
특임
퓨전
##7건
##겠어
155
민간단체
KEB
쉴드
##EF
배고플
살펴봤
공심
관공서
밑바닥
사채
위아래
##산책
##말까
##얼른
##란도
국무총리실
##크스바겐
리처드
다독
디펜
보트
여시
촉박
생각없
오늘따라
카드값
베네수엘라
숙지
투신
##쿠르트
멧돼지
역겹
존스
좋아한다
앞다퉈
제방
회귀
##권익
스러워하
계약기간
보수언론
알파고
관례
구이
녹강
이다
조진
##우동
##쿠키
##항만
스러워서
부설
쇼케이스
씨티
잠복
빨리와
상원의원
3루수
에잇
인덕
저평가
진위
해독
##앤젤
세계문화유산
[unused0]
[unused1]
[unused2]
[unused3]
[unused4]
[unused5]
[unused6]
[unused7]
[unused8]
[unused9]
[unused10]
[unused11]
[unused12]
[unused13]
[unused14]
[unused15]
[unused16]
[unused17]
[unused18]
[unused19]
[unused20]
[unused21]
[unused22]
[unused23]
[unused24]
[unused25]
[unused26]
[unused27]
[unused28]
[unused29]
[unused30]
[unused31]
[unused32]
[unused33]
[unused34]
[unused35]
[unused36]
[unused37]
[unused38]
[unused39]
[unused40]
[unused41]
[unused42]
[unused43]
[unused44]
[unused45]
[unused46]
[unused47]
[unused48]
[unused49]
[unused50]
[unused51]
[unused52]
[unused53]
[unused54]
[unused55]
[unused56]
[unused57]
[unused58]
[unused59]
[unused60]
[unused61]
[unused62]
[unused63]
[unused64]
[unused65]
[unused66]
[unused67]
[unused68]
[unused69]
[unused70]
[unused71]
[unused72]
[unused73]
[unused74]
[unused75]
[unused76]
[unused77]
[unused78]
[unused79]
[unused80]
[unused81]
[unused82]
[unused83]
[unused84]
[unused85]
[unused86]
[unused87]
[unused88]
[unused89]
[unused90]
[unused91]
[unused92]
[unused93]
[unused94]
[unused95]
[unused96]
[unused97]
[unused98]
[unused99]
[unused100]
[unused101]
[unused102]
[unused103]
[unused104]
[unused105]
[unused106]
[unused107]
[unused108]
[unused109]
[unused110]
[unused111]
[unused112]
[unused113]
[unused114]
[unused115]
[unused116]
[unused117]
[unused118]
[unused119]
[unused120]
[unused121]
[unused122]
[unused123]
[unused124]
[unused125]
[unused126]
[unused127]
[unused128]
[unused129]
[unused130]
[unused131]
[unused132]
[unused133]
[unused134]
[unused135]
[unused136]
[unused137]
[unused138]
[unused139]
[unused140]
[unused141]
[unused142]
[unused143]
[unused144]
[unused145]
[unused146]
[unused147]
[unused148]
[unused149]
[unused150]
[unused151]
[unused152]
[unused153]
[unused154]
[unused155]
[unused156]
[unused157]
[unused158]
[unused159]
[unused160]
[unused161]
[unused162]
[unused163]
[unused164]
[unused165]
[unused166]
[unused167]
[unused168]
[unused169]
[unused170]
[unused171]
[unused172]
[unused173]
[unused174]
[unused175]
[unused176]
[unused177]
[unused178]
[unused179]
[unused180]
[unused181]
[unused182]
[unused183]
[unused184]
[unused185]
[unused186]
[unused187]
[unused188]
[unused189]
[unused190]
[unused191]
[unused192]
[unused193]
[unused194]
[unused195]
[unused196]
[unused197]
[unused198]
[unused199]
[unused200]
[unused201]
[unused202]
[unused203]
[unused204]
[unused205]
[unused206]
[unused207]
[unused208]
[unused209]
[unused210]
[unused211]
[unused212]
[unused213]
[unused214]
[unused215]
[unused216]
[unused217]
[unused218]
[unused219]
[unused220]
[unused221]
[unused222]
[unused223]
[unused224]
[unused225]
[unused226]
[unused227]
[unused228]
[unused229]
[unused230]
[unused231]
[unused232]
[unused233]
[unused234]
[unused235]
[unused236]
[unused237]
[unused238]
[unused239]
[unused240]
[unused241]
[unused242]
[unused243]
[unused244]
[unused245]
[unused246]
[unused247]
[unused248]
[unused249]
[unused250]
[unused251]
[unused252]
[unused253]
[unused254]
[unused255]
[unused256]
[unused257]
[unused258]
[unused259]
[unused260]
[unused261]
[unused262]
[unused263]
[unused264]
[unused265]
[unused266]
[unused267]
[unused268]
[unused269]
[unused270]
[unused271]
[unused272]
[unused273]
[unused274]
[unused275]
[unused276]
[unused277]
[unused278]
[unused279]
[unused280]
[unused281]
[unused282]
[unused283]
[unused284]
[unused285]
[unused286]
[unused287]
[unused288]
[unused289]
[unused290]
[unused291]
[unused292]
[unused293]
[unused294]
[unused295]
[unused296]
[unused297]
[unused298]
[unused299]
[unused300]
[unused301]
[unused302]
[unused303]
[unused304]
[unused305]
[unused306]
[unused307]
[unused308]
[unused309]
[unused310]
[unused311]
[unused312]
[unused313]
[unused314]
[unused315]
[unused316]
[unused317]
[unused318]
[unused319]
[unused320]
[unused321]
[unused322]
[unused323]
[unused324]
[unused325]
[unused326]
[unused327]
[unused328]
[unused329]
[unused330]
[unused331]
[unused332]
[unused333]
[unused334]
[unused335]
[unused336]
[unused337]
[unused338]
[unused339]
[unused340]
[unused341]
[unused342]
[unused343]
[unused344]
[unused345]
[unused346]
[unused347]
[unused348]
[unused349]
[unused350]
[unused351]
[unused352]
[unused353]
[unused354]
[unused355]
[unused356]
[unused357]
[unused358]
[unused359]
[unused360]
[unused361]
[unused362]
[unused363]
[unused364]
[unused365]
[unused366]
[unused367]
[unused368]
[unused369]
[unused370]
[unused371]
[unused372]
[unused373]
[unused374]
[unused375]
[unused376]
[unused377]
[unused378]
[unused379]
[unused380]
[unused381]
[unused382]
[unused383]
[unused384]
[unused385]
[unused386]
[unused387]
[unused388]
[unused389]
[unused390]
[unused391]
[unused392]
[unused393]
[unused394]
[unused395]
[unused396]
[unused397]
[unused398]
[unused399]
[unused400]
[unused401]
[unused402]
[unused403]
[unused404]
[unused405]
[unused406]
[unused407]
[unused408]
[unused409]
[unused410]
[unused411]
[unused412]
[unused413]
[unused414]
[unused415]
[unused416]
[unused417]
[unused418]
[unused419]
[unused420]
[unused421]
[unused422]
[unused423]
[unused424]
[unused425]
[unused426]
[unused427]
[unused428]
[unused429]
[unused430]
[unused431]
[unused432]
[unused433]
[unused434]
[unused435]
[unused436]
[unused437]
[unused438]
[unused439]
[unused440]
[unused441]
[unused442]
[unused443]
[unused444]
[unused445]
[unused446]
[unused447]
[unused448]
[unused449]
[unused450]
[unused451]
[unused452]
[unused453]
[unused454]
[unused455]
[unused456]
[unused457]
[unused458]
[unused459]
[unused460]
[unused461]
[unused462]
[unused463]
[unused464]
[unused465]
[unused466]
[unused467]
[unused468]
[unused469]
[unused470]
[unused471]
[unused472]
[unused473]
[unused474]
[unused475]
[unused476]
[unused477]
[unused478]
[unused479]
[unused480]
[unused481]
[unused482]
[unused483]
[unused484]
[unused485]
[unused486]
[unused487]
[unused488]
[unused489]
[unused490]
[unused491]
[unused492]
[unused493]
[unused494]
[unused495]
[unused496]
[unused497]
[unused498]
[unused499]
